{
  "version": "1.0",
  "truncation": null,
  "padding": null,
  "added_tokens": [],
  "normalizer": null,
  "pre_tokenizer": {
    "type": "ByteLevel",
    "add_prefix_space": true,
    "trim_offsets": true,
    "use_regex": true
  },
  "post_processor": null,
  "decoder": null,
  "model": {
    "type": "BPE",
    "dropout": null,
    "unk_token": null,
    "continuing_subword_prefix": null,
    "end_of_word_suffix": null,
    "fuse_unk": false,
    "byte_fallback": false,
    "ignore_merges": false,
    "vocab": {
      "!": 0,
      "#": 1,
      "$": 2,
      "&": 3,
      "'": 4,
      "*": 5,
      ",": 6,
      ".": 7,
      "0": 8,
      "1": 9,
      "2": 10,
      "3": 11,
      "4": 12,
      "5": 13,
      "6": 14,
      "7": 15,
      "8": 16,
      "9": 17,
      "?": 18,
      "@": 19,
      "A": 20,
      "B": 21,
      "C": 22,
      "D": 23,
      "E": 24,
      "F": 25,
      "G": 26,
      "H": 27,
      "I": 28,
      "J": 29,
      "K": 30,
      "L": 31,
      "M": 32,
      "N": 33,
      "O": 34,
      "P": 35,
      "Q": 36,
      "R": 37,
      "S": 38,
      "T": 39,
      "U": 40,
      "V": 41,
      "W": 42,
      "X": 43,
      "Y": 44,
      "Z": 45,
      "a": 46,
      "b": 47,
      "c": 48,
      "d": 49,
      "e": 50,
      "f": 51,
      "g": 52,
      "h": 53,
      "i": 54,
      "j": 55,
      "k": 56,
      "l": 57,
      "m": 58,
      "n": 59,
      "o": 60,
      "p": 61,
      "q": 62,
      "r": 63,
      "s": 64,
      "t": 65,
      "u": 66,
      "v": 67,
      "w": 68,
      "x": 69,
      "y": 70,
      "z": 71,
      "Ċ": 72,
      "č": 73,
      "Ġ": 74,
      "Ġt": 75,
      "Ġa": 76,
      "he": 77,
      "in": 78,
      "Ġs": 79,
      "ou": 80,
      "Ġw": 81,
      "re": 82,
      "čĊ": 83,
      "on": 84,
      "Ġm": 85,
      "Ġthe": 86,
      "er": 87,
      "Ġb": 88,
      "nd": 89,
      "ĠI": 90,
      "Ġc": 91,
      "at": 92,
      "it": 93,
      "is": 94,
      "ing": 95,
      "Ġf": 96,
      "Ġo": 97,
      "Ġd": 98,
      "an": 99,
      "Ġp": 100,
      "Ġto": 101,
      "Ġh": 102,
      "ll": 103,
      "en": 104,
      "ĠčĊ": 105,
      "or": 106,
      "ed": 107,
      "es": 108,
      "Ġth": 109,
      "Ġy": 110,
      "Ġand": 111,
      "Ġl": 112,
      "Ġg": 113,
      "Ġyou": 114,
      "ar": 115,
      "as": 116,
      "Ġn": 117,
      "Ġof": 118,
      "ĠT": 119,
      "Ġin": 120,
      "om": 121,
      "us": 122,
      "le": 123,
      "Ġe": 124,
      "ĠĠ": 125,
      "ĠS": 126,
      "ic": 127,
      "ve": 128,
      "Ġbe": 129,
      "al": 130,
      "ĠA": 131,
      "ow": 132,
      "ot": 133,
      "et": 134,
      "Ġhe": 135,
      "ay": 136,
      "Ġit": 137,
      "ĠB": 138,
      "ut": 139,
      "ac": 140,
      "Ġis": 141,
      "ĠM": 142,
      "id": 143,
      "am": 144,
      "ĠC": 145,
      "im": 146,
      "Ġon": 147,
      "Ġthat": 148,
      "Ġmy": 149,
      "ly": 150,
      "ad": 151,
      "ĠW": 152,
      "ver": 153,
      "ke": 154,
      "Ġre": 155,
      "ĠH": 156,
      "ld": 157,
      "ent": 158,
      "os": 159,
      "ig": 160,
      "Ġme": 161,
      "Ġu": 162,
      "ion": 163,
      "Ġst": 164,
      "Ġwh": 165,
      "Ġfor": 166,
      "ĠD": 167,
      "ro": 168,
      "all": 169,
      "Ġha": 170,
      "ir": 171,
      "ith": 172,
      "uc": 173,
      "ĠY": 174,
      "ĠG": 175,
      "out": 176,
      "ĠP": 177,
      "Ġwith": 178,
      "ĠF": 179,
      "oo": 180,
      "if": 181,
      "ill": 182,
      "..": 183,
      "Ġan": 184,
      "Ġas": 185,
      "ec": 186,
      "Ġr": 187,
      "el": 188,
      "Ġj": 189,
      "ĠO": 190,
      "ĠN": 191,
      "Ġk": 192,
      "un": 193,
      "ĠĠĠĠ": 194,
      "ur": 195,
      "Ġthis": 196,
      "'s": 197,
      "Ġwas": 198,
      "Ġwe": 199,
      "ter": 200,
      "Ġyour": 201,
      "ht": 202,
      "Ġso": 203,
      "ĠL": 204,
      "ant": 205,
      "ust": 206,
      "st": 207,
      "Ġli": 208,
      "ĠR": 209,
      "op": 210,
      "ĠThe": 211,
      "um": 212,
      "Ġsh": 213,
      "ould": 214,
      "ra": 215,
      "Ġdo": 216,
      "Ġse": 217,
      "ĠE": 218,
      "il": 219,
      "Ġhave": 220,
      "ce": 221,
      "ie": 222,
      "king": 223,
      "Ġnot": 224,
      "'t": 225,
      "ore": 226,
      "00": 227,
      "IN": 228,
      "ight": 229,
      "Ġat": 230,
      "ag": 231,
      "ch": 232,
      "Ġher": 233,
      "her": 234,
      "Ġare": 235,
      "!!": 236,
      "Ġbut": 237,
      "ome": 238,
      "se": 239,
      "Ġde": 240,
      "Ġne": 241,
      "Ġfr": 242,
      "ally": 243,
      "Ġ1": 244,
      "ER": 245,
      "Ġlike": 246,
      "Ġcan": 247,
      "Ġall": 248,
      "pp": 249,
      "Ġget": 250,
      "ol": 251,
      "ul": 252,
      "Ġab": 253,
      "qu": 254,
      "ĠTH": 255,
      "OO": 256,
      "ess": 257,
      "ate": 258,
      "one": 259,
      "ack": 260,
      "very": 261,
      "nt": 262,
      "od": 263,
      "est": 264,
      "art": 265,
      "Ġor": 266,
      "Ġjust": 267,
      "ab": 268,
      "Ġv": 269,
      "Ġch": 270,
      "ist": 271,
      "Ġcon": 272,
      "our": 273,
      "ers": 274,
      "em": 275,
      "ain": 276,
      "Ġup": 277,
      "th": 278,
      "Ġkn": 279,
      "ake": 280,
      "Ġthey": 281,
      "Ġcom": 282,
      "OU": 283,
      "use": 284,
      "Ġout": 285,
      "Ġpl": 286,
      "ive": 287,
      "Ġwill": 288,
      "and": 289,
      "Ġex": 290,
      "Ġal": 291,
      "Ġi": 292,
      "Ġtr": 293,
      "Ġwhe": 294,
      "AN": 295,
      "Ġgo": 296,
      "ame": 297,
      "ak": 298,
      "AT": 299,
      "oc": 300,
      "Ġhis": 301,
      "ation": 302,
      "ick": 303,
      "Ġwor": 304,
      "ell": 305,
      "Ġshe": 306,
      "ĠTh": 307,
      "ong": 308,
      "ĠYou": 309,
      "ĠJ": 310,
      "ĠK": 311,
      "yl": 312,
      "Ġsp": 313,
      "ast": 314,
      "ard": 315,
      "oug": 316,
      "ĠU": 317,
      "ber": 318,
      "ap": 319,
      "Ġ2": 320,
      "ure": 321,
      "Ġno": 322,
      "ING": 323,
      "ven": 324,
      "Ġknow": 325,
      "Ġfrom": 326,
      "CK": 327,
      "Ġint": 328,
      "AR": 329,
      "Ġwould": 330,
      "Ġle": 331,
      "11": 332,
      "are": 333,
      "Ġfuc": 334,
      "LL": 335,
      "ind": 336,
      "ime": 337,
      "Ġwhat": 338,
      "Ġabout": 339,
      "ĠIt": 340,
      "Ġbec": 341,
      "ost": 342,
      "ide": 343,
      "AA": 344,
      "Ġif": 345,
      "ES": 346,
      "RR": 347,
      "ies": 348,
      "ect": 349,
      "Ġany": 350,
      "Ġwant": 351,
      "Ġby": 352,
      "ause": 353,
      "EN": 354,
      "ON": 355,
      "Ġac": 356,
      "ound": 357,
      "Ġone": 358,
      "'m": 359,
      "Ġdon": 360,
      "Ġevery": 361,
      "ge": 362,
      "ri": 363,
      "Ġfe": 364,
      "ep": 365,
      "Ġhim": 366,
      "Ġam": 367,
      "Ġwho": 368,
      "Ġsa": 369,
      "Ġsome": 370,
      "ĠYOU": 371,
      "res": 372,
      "Ġpro": 373,
      "ity": 374,
      "ous": 375,
      "ood": 376,
      "ink": 377,
      "ĠĠĠĠĠĠĠĠ": 378,
      "...": 379,
      "ine": 380,
      "iz": 381,
      "red": 382,
      "ry": 383,
      "Ġhas": 384,
      "Ġcl": 385,
      "ass": 386,
      "Ġthem": 387,
      "Ġar": 388,
      "hing": 389,
      "OR": 390,
      "Ġwhen": 391,
      "Ġman": 392,
      "ĠTHE": 393,
      "ort": 394,
      "Ġsu": 395,
      "ip": 396,
      "own": 397,
      "ose": 398,
      "ook": 399,
      "Ġus": 400,
      "Ġpe": 401,
      "Ġmore": 402,
      "Ġback": 403,
      "ĠHe": 404,
      "Ġim": 405,
      "Ġinto": 406,
      "ear": 407,
      "Ġen": 408,
      "Ġqu": 409,
      "Ġtime": 410,
      "Ġbecause": 411,
      "ough": 412,
      "Ġun": 413,
      "Ġtheir": 414,
      "IT": 415,
      "ove": 416,
      "Ġthere": 417,
      "ile": 418,
      "ans": 419,
      "ff": 420,
      "Ġeven": 421,
      "unk": 422,
      "ED": 423,
      "ud": 424,
      "Ġplay": 425,
      "Ġag": 426,
      "ĠV": 427,
      "Ġsc": 428,
      "iv": 429,
      "ment": 430,
      "ue": 431,
      "Ġsay": 432,
      "IS": 433,
      "ich": 434,
      "Ġoff": 435,
      "Ġits": 436,
      "ace": 437,
      "ĠWh": 438,
      "Ġbl": 439,
      "age": 440,
      "ib": 441,
      "ug": 442,
      "ice": 443,
      "ET": 444,
      "ife": 445,
      "te": 446,
      "ite": 447,
      "ys": 448,
      "Ġhad": 449,
      "ting": 450,
      "ople": 451,
      "ĠAnd": 452,
      "Ġcould": 453,
      "Ġnow": 454,
      "ia": 455,
      "Ġthen": 456,
      "Ġpr": 457,
      "Ġdid": 458,
      "ĠCy": 459,
      "ther": 460,
      "RE": 461,
      "way": 462,
      "og": 463,
      "ock": 464,
      "uch": 465,
      "ĠCyber": 466,
      "Ġhow": 467,
      "'re": 468,
      "punk": 469,
      "ĠCyberpunk": 470,
      "act": 471,
      "Ġonly": 472,
      "Ġover": 473,
      "Ġmake": 474,
      "Ġ.": 475,
      "ND": 476,
      "Ġ3": 477,
      "Ġday": 478,
      "Ġgot": 479,
      "ĠTO": 480,
      "Ġpeople": 481,
      "elf": 482,
      "pt": 483,
      "Ġgr": 484,
      "HH": 485,
      "Ġsee": 486,
      "Ġ0": 487,
      "pl": 488,
      "na": 489,
      "AS": 490,
      "Ġfucking": 491,
      "per": 492,
      "Ġro": 493,
      "reat": 494,
      "uck": 495,
      "ĠIf": 496,
      "Ġwere": 497,
      "Ġthan": 498,
      "ire": 499,
      "Ġgu": 500,
      "OT": 501,
      "av": 502,
      "Ġthink": 503,
      "ull": 504,
      "itt": 505,
      "Ġdown": 506,
      "Ġbeen": 507,
      "oy": 508,
      "ond": 509,
      "Ġass": 510,
      "Ġ6": 511,
      "UT": 512,
      "Ġbr": 513,
      "ish": 514,
      "Ġright": 515,
      "ase": 516,
      "Ġother": 517,
      "ĠThis": 518,
      "ied": 519,
      "ub": 520,
      "Ġour": 521,
      "Ġsm": 522,
      "Ġfeel": 523,
      "Ġneed": 524,
      "Ġ5": 525,
      "fter": 526,
      "able": 527,
      "OW": 528,
      "Ġtoo": 529,
      "so": 530,
      "ee": 531,
      "Ġsl": 532,
      "Ġlook": 533,
      "Ġdis": 534,
      "ach": 535,
      "Ġsex": 536,
      "Ġstart": 537,
      "ah": 538,
      "Ġte": 539,
      "ob": 540,
      "iend": 541,
      "ade": 542,
      "Ġpre": 543,
      "??": 544,
      "ang": 545,
      "Ġagain": 546,
      "ĠMy": 547,
      "Ġfuck": 548,
      "Ġthr": 549,
      "Ġfl": 550,
      "Ġcomp": 551,
      "oss": 552,
      "ĠBut": 553,
      "LE": 554,
      "CH": 555,
      "Ġcr": 556,
      "Ġlife": 557,
      "ft": 558,
      "Ġthing": 559,
      "ĠIn": 560,
      "ĠAND": 561,
      "ĠCh": 562,
      "nder": 563,
      "orn": 564,
      "Ġwhich": 565,
      "ĠSo": 566,
      "Ġsaid": 567,
      "ĠShe": 568,
      "omet": 569,
      "thing": 570,
      "Ġper": 571,
      "other": 572,
      "Ġyear": 573,
      "Ġway": 574,
      "UCK": 575,
      "Ġnever": 576,
      "Ġcont": 577,
      "ks": 578,
      "AL": 579,
      "ct": 580,
      "ious": 581,
      "Ġma": 582,
      "int": 583,
      "iss": 584,
      "ving": 585,
      "EE": 586,
      "ĠOF": 587,
      "Ġact": 588,
      "hed": 589,
      "ĠIm": 590,
      "ress": 591,
      "AM": 592,
      "Ġwat": 593,
      "Ġ#": 594,
      "ial": 595,
      "Ġgood": 596,
      "urn": 597,
      "ated": 598,
      "Ġad": 599,
      "ĠWe": 600,
      "Ġ4": 601,
      "ody": 602,
      "wn": 603,
      "Ġreally": 604,
      "self": 605,
      "ĠSt": 606,
      "ian": 607,
      "Ġbeing": 608,
      "AD": 609,
      "Ġgame": 610,
      "ild": 611,
      "Ġreal": 612,
      "ath": 613,
      "Ġem": 614,
      "Ġbet": 615,
      "irl": 616,
      "ens": 617,
      "OM": 618,
      "ions": 619,
      "US": 620,
      "AY": 621,
      "Ġworld": 622,
      "Ġ,": 623,
      "ream": 624,
      "ence": 625,
      "Ġlet": 626,
      "Ġ20": 627,
      "end": 628,
      "ree": 629,
      "!!!!": 630,
      "ual": 631,
      "Ġ011": 632,
      "Ġshit": 633,
      "Ġpo": 634,
      "ave": 635,
      "orm": 636,
      "Ġtry": 637,
      "UM": 638,
      "Ġres": 639,
      "Ġtw": 640,
      "AAAA": 641,
      "Ġtake": 642,
      "Ġlove": 643,
      "Ġgoing": 644,
      "10": 645,
      "Ġsomet": 646,
      "ty": 647,
      "Ġcall": 648,
      "Ġdoes": 649,
      "AP": 650,
      "fore": 651,
      "ĠIN": 652,
      "ually": 653,
      "hen": 654,
      "Ġhum": 655,
      "ĠWH": 656,
      "irst": 657,
      "ower": 658,
      "Ġmuch": 659,
      "Ġafter": 660,
      "xt": 661,
      "Ġhere": 662,
      "ittle": 663,
      "ating": 664,
      "ons": 665,
      "ance": 666,
      "Ġwhere": 667,
      "ought": 668,
      "Ġke": 669,
      "Ġco": 670,
      "ĠWhat": 671,
      "VE": 672,
      "Ġwhile": 673,
      "ord": 674,
      "ont": 675,
      "Ġins": 676,
      "ked": 677,
      "ool": 678,
      "ren": 679,
      "ĠThey": 680,
      "Ġhapp": 681,
      "ny": 682,
      "'ll": 683,
      "Ġshould": 684,
      "ount": 685,
      "be": 686,
      "Ġmay": 687,
      "hes": 688,
      "Ġdes": 689,
      "Ġvery": 690,
      "ALL": 691,
      "hh": 692,
      "Ġla": 693,
      "Ġgirl": 694,
      "Ġunder": 695,
      "Ġhand": 696,
      "Ġdont": 697,
      "Ġalso": 698,
      "'ve": 699,
      "ory": 700,
      "Ġsw": 701,
      "ĠĠčĊ": 702,
      "up": 703,
      "Ġlittle": 704,
      "ult": 705,
      "Ġmost": 706,
      "Ġthose": 707,
      "ical": 708,
      "ves": 709,
      "Ġel": 710,
      "fe": 711,
      "Ġlong": 712,
      "gl": 713,
      "Ġ7": 714,
      "Ġche": 715,
      "Ġent": 716,
      "Ġimp": 717,
      "ARK": 718,
      "Ġfriend": 719,
      "Ġsomething": 720,
      "Ġsk": 721,
      "UU": 722,
      "get": 723,
      "Ġ8": 724,
      "Ġtal": 725,
      "Ġthrough": 726,
      "ved": 727,
      "ĠThat": 728,
      "erson": 729,
      "Ġapp": 730,
      "Ġrem": 731,
      "ady": 732,
      "ĠFUCK": 733,
      "RRRR": 734,
      "Ġpart": 735,
      "OOOO": 736,
      "ID": 737,
      "ble": 738,
      "ĠQ": 739,
      "vel": 740,
      "100": 741,
      "Ġinc": 742,
      "Ġbefore": 743,
      "Ġmade": 744,
      "ark": 745,
      "Ġever": 746,
      "ĠIS": 747,
      "igh": 748,
      "Ġho": 749,
      "Ġfirst": 750,
      "Ġaround": 751,
      "Ġthese": 752,
      "IC": 753,
      "ĠST": 754,
      "ily": 755,
      "ne": 756,
      "Ġput": 757,
      "az": 758,
      "ict": 759,
      "Ġtell": 760,
      "Ġstill": 761,
      "Ġnew": 762,
      "bs": 763,
      "Ġbre": 764,
      "Ġmom": 765,
      "Ġph": 766,
      "uss": 767,
      "Ġend": 768,
      "pe": 769,
      "AK": 770,
      "Ġmo": 771,
      "IG": 772,
      "Ġz": 773,
      "Ġdec": 774,
      "ise": 775,
      "ĠGET": 776,
      "Ġatt": 777,
      "aa": 778,
      "ĠMY": 779,
      "ĠME": 780,
      "Ġstop": 781,
      "Ġgra": 782,
      "Ġperson": 783,
      "ways": 784,
      "ĠBE": 785,
      "Ġmin": 786,
      "Ġser": 787,
      "Ġbu": 788,
      "Ġgive": 789,
      "ĠIT": 790,
      "OL": 791,
      "ident": 792,
      "Ġbo": 793,
      "Ġsec": 794,
      "ign": 795,
      "ail": 796,
      "000": 797,
      "ful": 798,
      "ute": 799,
      "ĠAs": 800,
      "ĠSh": 801,
      "Ġacc": 802,
      "ci": 803,
      "ĠBARK": 804,
      "ps": 805,
      "igg": 806,
      "Ġdick": 807,
      "ĠĠĠĠĠĠĠĠĠĠĠĠĠĠĠĠ": 808,
      "imes": 809,
      "dit": 810,
      "les": 811,
      "Ġwhy": 812,
      "rain": 813,
      "UN": 814,
      "ank": 815,
      "Ġ10": 816,
      "ik": 817,
      "Ġhard": 818,
      "arm": 819,
      "ĠHE": 820,
      "ash": 821,
      "SS": 822,
      "day": 823,
      "Ġbit": 824,
      "ary": 825,
      "Ġdr": 826,
      "pect": 827,
      "ph": 828,
      "Ġcum": 829,
      "ĠSH": 830,
      "Ġ*": 831,
      "oth": 832,
      "ĠON": 833,
      "Ġown": 834,
      "vent": 835,
      "lease": 836,
      "ĠNo": 837,
      "Ġwr": 838,
      "Ġfun": 839,
      "Ġcome": 840,
      "ible": 841,
      "Ġfin": 842,
      "Ġgon": 843,
      "Ġque": 844,
      "ĠWhen": 845,
      "ĠSL": 846,
      "akes": 847,
      "Ġgl": 848,
      "Ġey": 849,
      "Ġbetter": 850,
      "ince": 851,
      "Ġyears": 852,
      "Ġmat": 853,
      "Ġgen": 854,
      "Ġuse": 855,
      "Ġcomm": 856,
      "99": 857,
      "Ġstr": 858,
      "ION": 859,
      "ĠPL": 860,
      "izz": 861,
      "Ġturn": 862,
      "ert": 863,
      "ew": 864,
      "gg": 865,
      "Ġunt": 866,
      "ĠRE": 867,
      "Ġbel": 868,
      "Ġhuman": 869,
      "ĠUn": 870,
      "ations": 871,
      "aw": 872,
      "Ġgonna": 873,
      "ĠYOUR": 874,
      "UR": 875,
      "YY": 876,
      "ho": 877,
      "VER": 878,
      "ICK": 879,
      "Ġhead": 880,
      "Ġface": 881,
      "Ġthought": 882,
      "ANT": 883,
      "less": 884,
      "ĠZ": 885,
      "Ġinst": 886,
      "ors": 887,
      "Ġgod": 888,
      "Ġstarted": 889,
      "AH": 890,
      "ii": 891,
      "ple": 892,
      "IM": 893,
      "Ġ'": 894,
      "Ġshow": 895,
      "ĠNot": 896,
      "IL": 897,
      "Ġcons": 898,
      "77": 899,
      "Ġop": 900,
      "ouse": 901,
      "ale": 902,
      "ĠĠĠ": 903,
      "Ġwithout": 904,
      "IR": 905,
      "ically": 906,
      "ĠAm": 907,
      "....": 908,
      "Ġwork": 909,
      "ILL": 910,
      "Ġnight": 911,
      "aking": 912,
      "Ġrec": 913,
      "Ġbody": 914,
      "Ġalways": 915,
      "ope": 916,
      "Ġchar": 917,
      "ĠCH": 918,
      "Ġkill": 919,
      "OS": 920,
      "ĠFor": 921,
      "Ġkeep": 922,
      "dy": 923,
      "ars": 924,
      "Ġwatch": 925,
      "ACK": 926,
      "Ġpower": 927,
      "Ġmany": 928,
      "ever": 929,
      "here": 930,
      "ĠThere": 931,
      "ning": 932,
      "!!!": 933,
      "Ġ9": 934,
      "Ġmean": 935,
      "oke": 936,
      "Ġdam": 937,
      "Ġleft": 938,
      "Ġuntil": 939,
      "Ġlo": 940,
      "Ġnothing": 941,
      "Ġpoint": 942,
      "anc": 943,
      "ait": 944,
      "Ġind": 945,
      "Ġhel": 946,
      "io": 947,
      "ward": 948,
      "ĠAl": 949,
      "ĠTHAT": 950,
      "Ġanything": 951,
      "Ġtold": 952,
      "Ġaway": 953,
      "Ġcare": 954,
      "ott": 955,
      "Ġwom": 956,
      "ĠHow": 957,
      "als": 958,
      "ather": 959,
      "ness": 960,
      "Ġrel": 961,
      "Ġsuch": 962,
      "Ġcock": 963,
      "Ġname": 964,
      "ier": 965,
      "Ġbad": 966,
      "Ġenough": 967,
      "olog": 968,
      "app": 969,
      "Ġfind": 970,
      "fr": 971,
      "air": 972,
      "Ġsy": 973,
      "HHHH": 974,
      "ike": 975,
      "uff": 976,
      "Ġgreat": 977,
      "Ġwell": 978,
      "Ġsit": 979,
      "20": 980,
      "Ġbig": 981,
      "Ġfo": 982,
      "bl": 983,
      "ings": 984,
      "ENT": 985,
      "Ġhaving": 986,
      "Ġtwo": 987,
      "Ġcar": 988,
      "gin": 989,
      "ok": 990,
      "ĠBe": 991,
      "Ġgetting": 992,
      "UD": 993,
      "ably": 994,
      "OP": 995,
      "Ġsince": 996,
      "ize": 997,
      "Ġum": 998,
      "tern": 999,
      "ense": 1000,
      "Ġroom": 1001,
      "ĠTHIS": 1002,
      "Ġsure": 1003,
      "yll": 1004,
      "'d": 1005,
      "iter": 1006,
      "CT": 1007,
      "Ġsim": 1008,
      "Ġbest": 1009,
      "TH": 1010,
      "zy": 1011,
      "Ġperf": 1012,
      "ech": 1013,
      "Ġthings": 1014,
      "88": 1015,
      "Ġdidn": 1016,
      "ĠOh": 1017,
      "ix": 1018,
      "Ġda": 1019,
      "Ġinf": 1020,
      "rent": 1021,
      "Ġcle": 1022,
      "uct": 1023,
      "Ġpost": 1024,
      "ump": 1025,
      "Ġsame": 1026,
      "ange": 1027,
      "erm": 1028,
      "EST": 1029,
      "ina": 1030,
      "Ġpen": 1031,
      "ters": 1032,
      "Ġword": 1033,
      "Ġwent": 1034,
      "ĠLI": 1035,
      "ason": 1036,
      "Ġrun": 1037,
      "Ġkind": 1038,
      "Ġnext": 1039,
      "ĠNow": 1040,
      "ĠRe": 1041,
      "we": 1042,
      "ese": 1043,
      "ĠSp": 1044,
      "ats": 1045,
      "Ġlast": 1046,
      "Ġeverything": 1047,
      "CE": 1048,
      "iver": 1049,
      "Ġpass": 1050,
      "ĠFOR": 1051,
      "ĠDo": 1052,
      "me": 1053,
      "Ġguys": 1054,
      "KE": 1055,
      "ha": 1056,
      "Ġeyes": 1057,
      "ates": 1058,
      "oney": 1059,
      "Ġext": 1060,
      "ane": 1061,
      "Ġdif": 1062,
      "ieve": 1063,
      "Ġboy": 1064,
      "33": 1065,
      "Ġhour": 1066,
      "AG": 1067,
      "Ġagainst": 1068,
      "II": 1069,
      "Ġred": 1070,
      "ified": 1071,
      "ĠIts": 1072,
      "Ġsub": 1073,
      "Ġsur": 1074,
      "ush": 1075,
      "Ġsecond": 1076,
      "ĠTo": 1077,
      "Ġmyself": 1078,
      "Ġsomeone": 1079,
      "ots": 1080,
      "Ġelse": 1081,
      "its": 1082,
      "Ġactually": 1083,
      "ĠEvery": 1084,
      "Ġmon": 1085,
      "Ġold": 1086,
      "Ġkid": 1087,
      "ĠBl": 1088,
      "25": 1089,
      "Ġyoure": 1090,
      "Ġhelp": 1091,
      "Ġwal": 1092,
      "OOF": 1093,
      "Ġentire": 1094,
      "und": 1095,
      "Ġhome": 1096,
      "ĠNE": 1097,
      "Ġdoing": 1098,
      "Ġes": 1099,
      "Ġ!": 1100,
      "ets": 1101,
      "ĠDe": 1102,
      "ater": 1103,
      "Ġbas": 1104,
      "Ġchild": 1105,
      "Ġinside": 1106,
      "orb": 1107,
      "Ġanother": 1108,
      "ĠNOT": 1109,
      "Ġeveryone": 1110,
      "ĠAn": 1111,
      "Ġspe": 1112,
      "ird": 1113,
      "ĠOn": 1114,
      "ĠLe": 1115,
      "ately": 1116,
      "ung": 1117,
      "ck": 1118,
      "ened": 1119,
      "ĠDO": 1120,
      "16": 1121,
      "15": 1122,
      "ipp": 1123,
      "ism": 1124,
      "utam": 1125,
      "Ġsupp": 1126,
      "Ġmust": 1127,
      "ĠYour": 1128,
      "Ġused": 1129,
      "Ġfact": 1130,
      "que": 1131,
      "Ġhouse": 1132,
      "Ġonce": 1133,
      "alls": 1134,
      "Ġfam": 1135,
      "ĠAll": 1136,
      "?!": 1137,
      "ret": 1138,
      "Ġposs": 1139,
      "gr": 1140,
      "att": 1141,
      "ĠCUM": 1142,
      "Ġfriends": 1143,
      "ussy": 1144,
      "Ġcant": 1145,
      "Ġsing": 1146,
      "Ġteam": 1147,
      "eah": 1148,
      "Ġcomple": 1149,
      "Ġhate": 1150,
      "Ġliter": 1151,
      "Ġmaking": 1152,
      "Ġeach": 1153,
      "Ġur": 1154,
      "vol": 1155,
      "ĠWOOF": 1156,
      "ĠSE": 1157,
      "cept": 1158,
      "Ġpar": 1159,
      "Ġbed": 1160,
      "ĠFUCKING": 1161,
      "ember": 1162,
      "Ġfull": 1163,
      "ety": 1164,
      "der": 1165,
      "Ġtra": 1166,
      "ĠX": 1167,
      "ĠGet": 1168,
      "my": 1169,
      "stand": 1170,
      "Ġhigh": 1171,
      "ATT": 1172,
      "14": 1173,
      "23": 1174,
      "Ġtop": 1175,
      "ylgl": 1176,
      "Ġwhole": 1177,
      "uu": 1178,
      "Ġtimes": 1179,
      "ĠPLAP": 1180,
      "Ġhope": 1181,
      "aster": 1182,
      "Ġna": 1183,
      "Ġsaw": 1184,
      "24": 1185,
      "Ġlaug": 1186,
      "Ġsch": 1187,
      "ĠAt": 1188,
      "ĠGO": 1189,
      "Ġdef": 1190,
      "Ġfew": 1191,
      "19": 1192,
      "Ġmod": 1193,
      "ĠAR": 1194,
      "ĠALL": 1195,
      "HT": 1196,
      "Ġvide": 1197,
      "Ġwait": 1198,
      "ics": 1199,
      "FF": 1200,
      "Ġcry": 1201,
      "Ġdad": 1202,
      "Ġmind": 1203,
      "Ġmight": 1204,
      "Ġboth": 1205,
      "Ġtrying": 1206,
      "Ġcharac": 1207,
      "Ġcame": 1208,
      "val": 1209,
      "ĠAr": 1210,
      "Ġ..": 1211,
      "SE": 1212,
      "ĠIs": 1213,
      "ST": 1214,
      "med": 1215,
      "ai": 1216,
      "ared": 1217,
      "body": 1218,
      "ins": 1219,
      "ude": 1220,
      "mon": 1221,
      "Ġgam": 1222,
      "26": 1223,
      "Ġmus": 1224,
      "ows": 1225,
      "stem": 1226,
      "Ġperfect": 1227,
      "Ġty": 1228,
      "oun": 1229,
      "Ġmeans": 1230,
      "ax": 1231,
      "Ġmet": 1232,
      "Ġmakes": 1233,
      "ĠDE": 1234,
      "ĠPR": 1235,
      "ĠGod": 1236,
      "Ġhot": 1237,
      "ized": 1238,
      "18": 1239,
      "aut": 1240,
      "Ġsus": 1241,
      "Ġdi": 1242,
      "cess": 1243,
      "more": 1244,
      "Ġ15": 1245,
      "ner": 1246,
      "ene": 1247,
      "outh": 1248,
      "ITH": 1249,
      "Ġpop": 1250,
      "ility": 1251,
      "ject": 1252,
      "ĠSO": 1253,
      "Ġrest": 1254,
      "Ġbreak": 1255,
      "bo": 1256,
      "ts": 1257,
      "leep": 1258,
      "Ġlive": 1259,
      "Ġexpl": 1260,
      "Ġbro": 1261,
      "ĠFr": 1262,
      "GG": 1263,
      "Ġwee": 1264,
      "Ġsound": 1265,
      "ĠCl": 1266,
      "ĠTr": 1267,
      "Ġunderstand": 1268,
      "LY": 1269,
      "bably": 1270,
      "Ġguy": 1271,
      "Ġcur": 1272,
      "ents": 1273,
      "Ġtook": 1274,
      "MM": 1275,
      "ready": 1276,
      "ĠOUT": 1277,
      "Ġexist": 1278,
      "Ġdone": 1279,
      "enc": 1280,
      "Ġcalled": 1281,
      "ron": 1282,
      "Ġ...": 1283,
      "Ġok": 1284,
      "Ġpol": 1285,
      "Ġlist": 1286,
      "ĠThen": 1287,
      "ead": 1288,
      "Ġrep": 1289,
      "Ġpur": 1290,
      "Ġalready": 1291,
      "IE": 1292,
      "friend": 1293,
      "Ġdiffe": 1294,
      "Ġbeh": 1295,
      "Ġable": 1296,
      "Ġplaying": 1297,
      "by": 1298,
      "ylglutam": 1299,
      "Ġpull": 1300,
      "ERS": 1301,
      "Ġhit": 1302,
      "ze": 1303,
      "Ġdisc": 1304,
      "UST": 1305,
      "asp": 1306,
      "Ġread": 1307,
      "gy": 1308,
      "Ġfem": 1309,
      "ĠJust": 1310,
      "Ġleg": 1311,
      "Ġhours": 1312,
      "ao": 1313,
      "atch": 1314,
      "uring": 1315,
      "Ġsaying": 1316,
      "Ġca": 1317,
      "Ġdeath": 1318,
      "Ġabs": 1319,
      "34": 1320,
      "ying": 1321,
      "Ġcra": 1322,
      "Ġstand": 1323,
      "Ġsoci": 1324,
      "Ġsystem": 1325,
      "OCK": 1326,
      "led": 1327,
      "Ġob": 1328,
      "gan": 1329,
      "Ġele": 1330,
      "Ġhear": 1331,
      "inking": 1332,
      "eric": 1333,
      "ited": 1334,
      "ities": 1335,
      "Ġlot": 1336,
      "29": 1337,
      "ĠĠĠčĊ": 1338,
      "ĠWITH": 1339,
      "Ġconf": 1340,
      "arn": 1341,
      "ering": 1342,
      "ĠSP": 1343,
      "Ġtalk": 1344,
      "Ġdro": 1345,
      "Ġdamage": 1346,
      "Ġliterally": 1347,
      "28": 1348,
      "sh": 1349,
      "Ġfound": 1350,
      "Ġoh": 1351,
      "ĠBL": 1352,
      "umb": 1353,
      "arent": 1354,
      "Ġprobably": 1355,
      "Ġbelieve": 1356,
      "27": 1357,
      "Ġid": 1358,
      "Ġreg": 1359,
      "Ġwanted": 1360,
      "Ġfree": 1361,
      "ĠBr": 1362,
      "Ġ0110": 1363,
      "ta": 1364,
      "Ġdep": 1365,
      "aby": 1366,
      "Ġplace": 1367,
      "END": 1368,
      "Ġheart": 1369,
      "amp": 1370,
      "Ġschool": 1371,
      "AB": 1372,
      "Ġplease": 1373,
      "ĠYo": 1374,
      "ooking": 1375,
      "iec": 1376,
      "ĠAN": 1377,
      "Ġret": 1378,
      "ĠGo": 1379,
      "Ġdoesn": 1380,
      "Ġsn": 1381,
      "orry": 1382,
      "Ġlight": 1383,
      "ution": 1384,
      "Ġbecome": 1385,
      "50": 1386,
      "ior": 1387,
      "Ġtro": 1388,
      "Ġmem": 1389,
      "Ġaw": 1390,
      "ESS": 1391,
      "Ġanymore": 1392,
      "arly": 1393,
      "Ġeu": 1394,
      "Ġset": 1395,
      "Ġeff": 1396,
      "Ġide": 1397,
      "rew": 1398,
      "Ġmove": 1399,
      "Ġthats": 1400,
      "ition": 1401,
      "rest": 1402,
      "among": 1403,
      "Ġasked": 1404,
      "echn": 1405,
      "Ġfel": 1406,
      "ific": 1407,
      "Ġcomplete": 1408,
      "Ġdeep": 1409,
      "17": 1410,
      "ĠAfter": 1411,
      "ĠUP": 1412,
      "not": 1413,
      "Ġsend": 1414,
      "Ġseem": 1415,
      "Ġwater": 1416,
      "AAAAAAAA": 1417,
      "66": 1418,
      "Ġcount": 1419,
      "ants": 1420,
      "Ġgets": 1421,
      "Ġsingle": 1422,
      "Ġtoday": 1423,
      "Ġask": 1424,
      "Ġclass": 1425,
      "ling": 1426,
      "Ġmen": 1427,
      "Ġswe": 1428,
      "Ġmar": 1429,
      "Ġnigg": 1430,
      "ĠHO": 1431,
      "Ġspec": 1432,
      "Ġsays": 1433,
      "ms": 1434,
      "Ġcour": 1435,
      "amongus": 1436,
      "go": 1437,
      "ĠWE": 1438,
      "ched": 1439,
      "ered": 1440,
      "Ġpret": 1441,
      "Ġpenis": 1442,
      "ĠNO": 1443,
      "ius": 1444,
      "Ġmil": 1445,
      "Ġbeaut": 1446,
      "Ġdidnt": 1447,
      "ole": 1448,
      "ann": 1449,
      "Ġfav": 1450,
      "Ġmiss": 1451,
      "Ġdra": 1452,
      "ĠBR": 1453,
      "30": 1454,
      "Ġanyone": 1455,
      "br": 1456,
      "Ġmoney": 1457,
      "Ġtalking": 1458,
      "Ġcreat": 1459,
      "IST": 1460,
      "Ġfamily": 1461,
      "Ġmess": 1462,
      "ĠMe": 1463,
      "Ġdead": 1464,
      "Ġhands": 1465,
      "Ġeas": 1466,
      "Ġstra": 1467,
      "Ġseen": 1468,
      "Ġcontro": 1469,
      "ger": 1470,
      "ient": 1471,
      "rist": 1472,
      "vers": 1473,
      "Ġest": 1474,
      "Ġmouth": 1475,
      "Ġyes": 1476,
      "Ġcomment": 1477,
      "owing": 1478,
      "uts": 1479,
      "Ġref": 1480,
      "55": 1481,
      "94": 1482,
      "ience": 1483,
      "Ġment": 1484,
      "Ġmass": 1485,
      "00100": 1486,
      "oice": 1487,
      "Ġready": 1488,
      "ĠHell": 1489,
      "ĠOr": 1490,
      "Ġed": 1491,
      "Ġstuff": 1492,
      "Ġbitch": 1493,
      "Ġopen": 1494,
      "ired": 1495,
      "uh": 1496,
      "oud": 1497,
      "Ġproble": 1498,
      "IGHT": 1499,
      "Ġap": 1500,
      "Ġmaybe": 1501,
      "UDA": 1502,
      "Ġcap": 1503,
      "ĠAT": 1504,
      "Ġhell": 1505,
      "ĠMar": 1506,
      "gly": 1507,
      "Ġhon": 1508,
      "ĠRed": 1509,
      "ĠDICK": 1510,
      "Ġyourself": 1511,
      "AND": 1512,
      "Ġadd": 1513,
      "Ġresp": 1514,
      "UUUU": 1515,
      "Ġmoment": 1516,
      "Ġwar": 1517,
      "anna": 1518,
      "unch": 1519,
      "Ġdays": 1520,
      "TER": 1521,
      "Ġpres": 1522,
      "Ġquest": 1523,
      "iving": 1524,
      "ka": 1525,
      "Ġmag": 1526,
      "Ġfre": 1527,
      "Ġdel": 1528,
      "leas": 1529,
      "Ġsleep": 1530,
      "Ġdie": 1531,
      "ĠWILL": 1532,
      "ĠWhy": 1533,
      "ĠWHAT": 1534,
      "ern": 1535,
      "Ġeat": 1536,
      "Ġhold": 1537,
      "to": 1538,
      "ĠMUDA": 1539,
      "ĠLE": 1540,
      "Ġsuper": 1541,
      "ONG": 1542,
      "Ġsociety": 1543,
      "KK": 1544,
      "ature": 1545,
      "ana": 1546,
      "alan": 1547,
      "ERE": 1548,
      "Ġexper": 1549,
      "Ġart": 1550,
      "mm": 1551,
      "inc": 1552,
      "err": 1553,
      "Ġtoget": 1554,
      "Ġ12": 1555,
      "Ġtogether": 1556,
      "iful": 1557,
      "Ġremember": 1558,
      "den": 1559,
      "Ġwin": 1560,
      "ĠASS": 1561,
      "Ġreason": 1562,
      "ĠHA": 1563,
      "84": 1564,
      "most": 1565,
      "Ġgay": 1566,
      "Ġexp": 1567,
      "iously": 1568,
      "ted": 1569,
      "reen": 1570,
      "Ġcor": 1571,
      "ada": 1572,
      "identified": 1573,
      "36": 1574,
      "aring": 1575,
      "Ġdifferent": 1576,
      "37": 1577,
      "ists": 1578,
      "olute": 1579,
      "Ġmother": 1580,
      "Ġfight": 1581,
      "utes": 1582,
      "ma": 1583,
      "ract": 1584,
      "Ġfans": 1585,
      "ĠFR": 1586,
      "Ġsmall": 1587,
      "Ġtechn": 1588,
      "Ġsou": 1589,
      "any": 1590,
      "ĠDon": 1591,
      "ĠUnidentified": 1592,
      "ĠAmeric": 1593,
      "Ġ$": 1594,
      "ĠLIKE": 1595,
      "alf": 1596,
      "ĠGu": 1597,
      "Ġ19": 1598,
      "Ġblack": 1599,
      "ided": 1600,
      "Ġimag": 1601,
      "Ġsong": 1602,
      "ives": 1603,
      "ried": 1604,
      "Ġwon": 1605,
      "ĠLet": 1606,
      "Ġmonth": 1607,
      "Ġvideo": 1608,
      "80": 1609,
      "read": 1610,
      "Ġfur": 1611,
      "Ġdoor": 1612,
      "Ġpat": 1613,
      "Ġcontin": 1614,
      "Ġcoll": 1615,
      "Ġsat": 1616,
      "Ġpos": 1617,
      "Ġlooking": 1618,
      "Ġinter": 1619,
      "Ġ100": 1620,
      "Ġhappy": 1621,
      "ton": 1622,
      "uz": 1623,
      "hip": 1624,
      "reon": 1625,
      "Ġnorm": 1626,
      "ĠARE": 1627,
      "Ġcannot": 1628,
      "Ġfelt": 1629,
      "LD": 1630,
      "Ġnec": 1631,
      "room": 1632,
      "ORE": 1633,
      "Ġwomen": 1634,
      "54": 1635,
      "ATE": 1636,
      "Ġpretty": 1637,
      "ged": 1638,
      "NN": 1639,
      "Ġyet": 1640,
      "ently": 1641,
      "arth": 1642,
      "Ġtried": 1643,
      "Ġwrong": 1644,
      "Ġfunny": 1645,
      "Ġhor": 1646,
      "Ġthough": 1647,
      "Ġgave": 1648,
      "Ġcoming": 1649,
      "Ġpay": 1650,
      "Ġsho": 1651,
      "Ġwife": 1652,
      "Ġtrue": 1653,
      "Ġlooked": 1654,
      "cl": 1655,
      "Ġdream": 1656,
      "ĠNe": 1657,
      "ially": 1658,
      "lic": 1659,
      "Ġsqu": 1660,
      "Ġsuck": 1661,
      "ines": 1662,
      "ĠWANT": 1663,
      "ĠGR": 1664,
      "Ġcharacter": 1665,
      "ped": 1666,
      "Ġfinally": 1667,
      "ĠAM": 1668,
      "ional": 1669,
      "Ġscream": 1670,
      "Ġfore": 1671,
      "Ġpain": 1672,
      "90": 1673,
      "Ġyo": 1674,
      "Ġsoc": 1675,
      "Ġleast": 1676,
      "ĠSLUT": 1677,
      "Ġcourse": 1678,
      "oh": 1679,
      "osed": 1680,
      "ylval": 1681,
      "hhhh": 1682,
      "yllys": 1683,
      "57": 1684,
      "UG": 1685,
      "ither": 1686,
      "ĠTR": 1687,
      "lo": 1688,
      "where": 1689,
      "Ġtrain": 1690,
      "ĠAny": 1691,
      "Ġknew": 1692,
      "Ġabsolute": 1693,
      "86": 1694,
      "Ġthinking": 1695,
      "uce": 1696,
      "ANG": 1697,
      "CHOO": 1698,
      "ape": 1699,
      "AKE": 1700,
      "87": 1701,
      "ping": 1702,
      "ĠBALL": 1703,
      "upid": 1704,
      "Ġaut": 1705,
      "ative": 1706,
      "ined": 1707,
      "Ġlevel": 1708,
      "Ġminutes": 1709,
      "pro": 1710,
      "Ġve": 1711,
      "unt": 1712,
      "IP": 1713,
      "ider": 1714,
      "Ġmatter": 1715,
      "Ġisn": 1716,
      "YYYY": 1717,
      "EM": 1718,
      "ode": 1719,
      "ylalan": 1720,
      "????": 1721,
      "UL": 1722,
      "Ġtem": 1723,
      "Ġcop": 1724,
      "ĠSe": 1725,
      "ote": 1726,
      "Ġwhite": 1727,
      "Ġalmost": 1728,
      "Ġsexual": 1729,
      "Ġwords": 1730,
      "iece": 1731,
      "Ġfan": 1732,
      "ĠWith": 1733,
      "ular": 1734,
      "Ġ00100": 1735,
      "Ġbrain": 1736,
      "ĠIve": 1737,
      "Ġfavor": 1738,
      "IES": 1739,
      "ches": 1740,
      "ng": 1741,
      "Ġporn": 1742,
      "ss": 1743,
      "ction": 1744,
      "IVE": 1745,
      "Ġmid": 1746,
      "Ġopp": 1747,
      "Ġheard": 1748,
      "ĠMorb": 1749,
      "icks": 1750,
      "ology": 1751,
      "ĠSc": 1752,
      "Ġwatching": 1753,
      "Ġbeautiful": 1754,
      "TY": 1755,
      "Ġhom": 1756,
      "arge": 1757,
      "Ġjob": 1758,
      "Ġblood": 1759,
      "ĠPl": 1760,
      "ĠOne": 1761,
      "Ġbuild": 1762,
      "Ġ00100000": 1763,
      "ĠBACK": 1764,
      "Ġste": 1765,
      "Ġcommun": 1766,
      "Ġmusic": 1767,
      "Ġlisten": 1768,
      "Ġstraight": 1769,
      "uk": 1770,
      "Ġpast": 1771,
      "OOOOOOOO": 1772,
      "56": 1773,
      "Ġcre": 1774,
      "ĠDON": 1775,
      "ylasp": 1776,
      "eeee": 1777,
      "ertain": 1778,
      "ĠSend": 1779,
      "ĠPe": 1780,
      "Ġbring": 1781,
      "Ġinstead": 1782,
      "arr": 1783,
      "ĠGr": 1784,
      "Ġwoman": 1785,
      "Ġcool": 1786,
      "iew": 1787,
      "Ġru": 1788,
      "Ġ01100": 1789,
      "Ġphone": 1790,
      "aaaa": 1791,
      "Ġevent": 1792,
      "urb": 1793,
      "Ġcard": 1794,
      "ĠBIT": 1795,
      "ĠYE": 1796,
      "Ġtrans": 1797,
      "joy": 1798,
      "Ġmed": 1799,
      "ital": 1800,
      "Ġpussy": 1801,
      "Ġnice": 1802,
      "illion": 1803,
      "AIN": 1804,
      "pr": 1805,
      "ado": 1806,
      "Ġclose": 1807,
      "Ġusing": 1808,
      "het": 1809,
      "lt": 1810,
      "used": 1811,
      "ĠEVER": 1812,
      "ures": 1813,
      "Ġclone": 1814,
      "Ġguess": 1815,
      "fort": 1816,
      "ĠWell": 1817,
      "Ġform": 1818,
      "Ġleave": 1819,
      "Ġsmell": 1820,
      "man": 1821,
      "ues": 1822,
      "Ġcause": 1823,
      "Ġfat": 1824,
      "Ġpor": 1825,
      "Ġstay": 1826,
      "Ġfront": 1827,
      "UE": 1828,
      "Ġprof": 1829,
      "Ġfoll": 1830,
      "Ġhalf": 1831,
      "ĠLike": 1832,
      "Ġprod": 1833,
      "Ġtak": 1834,
      "Ġmorn": 1835,
      "Ġbur": 1836,
      "Ġcomes": 1837,
      "Ġcol": 1838,
      "itch": 1839,
      "ĠHey": 1840,
      "Ġcontrol": 1841,
      "sel": 1842,
      "Ġwanna": 1843,
      "ald": 1844,
      "Ġhes": 1845,
      "Ġground": 1846,
      "ouch": 1847,
      "Ġyeah": 1848,
      "ween": 1849,
      "Ġsorry": 1850,
      "Ġfall": 1851,
      "Ġfell": 1852,
      "Ġlater": 1853,
      "Ġstory": 1854,
      "iff": 1855,
      "Ġdecided": 1856,
      "DY": 1857,
      "Ġlost": 1858,
      "Ġnum": 1859,
      "Ġval": 1860,
      "Ġgoes": 1861,
      "ĠĠĠĠĠĠĠĠĠĠĠĠĠĠĠĠĠĠĠĠĠĠĠĠĠĠĠĠĠĠĠĠ": 1862,
      "Ġstrong": 1863,
      "ser": 1864,
      "Ġstupid": 1865,
      "tend": 1866,
      "ube": 1867,
      "wards": 1868,
      "Ġanim": 1869,
      "rib": 1870,
      "Ġdest": 1871,
      "Ġinv": 1872,
      "Ġlooks": 1873,
      "96": 1874,
      "ten": 1875,
      "Ġsent": 1876,
      "Ġhappen": 1877,
      "Ġfill": 1878,
      "Ġsem": 1879,
      "ĠUS": 1880,
      "UP": 1881,
      "Ġair": 1882,
      "ĠPlease": 1883,
      "ĠRizz": 1884,
      "Ġweek": 1885,
      "ces": 1886,
      "iness": 1887,
      "Ġsuc": 1888,
      "ama": 1889,
      "antly": 1890,
      "Ġinte": 1891,
      "xc": 1892,
      "ĠMa": 1893,
      "ando": 1894,
      "Ġquick": 1895,
      "Ġmorning": 1896,
      "mo": 1897,
      "ric": 1898,
      "ross": 1899,
      "side": 1900,
      "ony": 1901,
      "Ġfil": 1902,
      "Ġbegin": 1903,
      "Ġjoke": 1904,
      "threon": 1905,
      "EEEE": 1906,
      "Ġgener": 1907,
      "Ġside": 1908,
      "Ġdou": 1909,
      "ĠCan": 1910,
      "ĠDR": 1911,
      "97": 1912,
      "GR": 1913,
      "ced": 1914,
      "mas": 1915,
      "Ġbaby": 1916,
      "ĠIM": 1917,
      "cc": 1918,
      "ging": 1919,
      "xe": 1920,
      "ĠAd": 1921,
      "arents": 1922,
      "Ġtroop": 1923,
      "Ġ&": 1924,
      "Ġfather": 1925,
      "ĠHer": 1926,
      "pped": 1927,
      "Ġconst": 1928,
      "Ġago": 1929,
      "ught": 1930,
      "Ġbetween": 1931,
      "Ġbar": 1932,
      "ita": 1933,
      "Ġir": 1934,
      "Ġwithin": 1935,
      "Ġcouldn": 1936,
      "Ġlaugh": 1937,
      "Ġsocial": 1938,
      "rr": 1939,
      "Ġfire": 1940,
      "ATION": 1941,
      "Ġimport": 1942,
      "Ġduring": 1943,
      "amm": 1944,
      "ĠUN": 1945,
      "AST": 1946,
      "OME": 1947,
      "**": 1948,
      "Ġhur": 1949,
      "Ġchange": 1950,
      "aps": 1951,
      "Ġneeds": 1952,
      "medi": 1953,
      "47": 1954,
      "Ġson": 1955,
      "ished": 1956,
      "Ġbehind": 1957,
      "selves": 1958,
      "HER": 1959,
      "Ġgi": 1960,
      "Ġweird": 1961,
      "Ġenjoy": 1962,
      "Ġprot": 1963,
      "iiii": 1964,
      "Ġer": 1965,
      "Ġbus": 1966,
      "ator": 1967,
      "Ġfar": 1968,
      "Ġhist": 1969,
      "Ġfeeling": 1970,
      "wor": 1971,
      "ĠFl": 1972,
      "els": 1973,
      "oph": 1974,
      "ield": 1975,
      "ARD": 1976,
      "ĠChrist": 1977,
      "Ġattack": 1978,
      "Ġcompletely": 1979,
      "Ġet": 1980,
      "Ġforg": 1981,
      "Ġgames": 1982,
      "euc": 1983,
      "ĠTw": 1984,
      "ĠCom": 1985,
      "ĠPr": 1986,
      "Ġdev": 1987,
      "Ġlonger": 1988,
      "CHOOCHOO": 1989,
      "nn": 1990,
      "Ġpleas": 1991,
      "Ġbeat": 1992,
      "Ġstud": 1993,
      "Ġvoice": 1994,
      "ternet": 1995,
      "ĠHello": 1996,
      "oid": 1997,
      "ĠCr": 1998,
      "ears": 1999,
      "Ġut": 2000,
      "Ġballs": 2001,
      "Ġfut": 2002,
      "Ġpot": 2003,
      "ĠCR": 2004,
      "Ġang": 2005,
      "ement": 2006,
      "ips": 2007,
      "Ġchildren": 2008,
      "Ġba": 2009,
      "Ġhair": 2010,
      "oooo": 2011,
      "ained": 2012,
      "ĠSLATT": 2013,
      "Ġpossible": 2014,
      "NY": 2015,
      "oon": 2016,
      "Ġfood": 2017,
      "Ġshort": 2018,
      "Ġidea": 2019,
      "uly": 2020,
      "Ġdark": 2021,
      "Ġplan": 2022,
      "ully": 2023,
      "Ġgrabs": 2024,
      "13": 2025,
      "Ġsick": 2026,
      "Ġsign": 2027,
      "Ġless": 2028,
      "ĠOR": 2029,
      "Ġknown": 2030,
      "Ġspeak": 2031,
      "ĠARF": 2032,
      "inal": 2033,
      "ĠHER": 2034,
      "amonguser": 2035,
      "Ġnormal": 2036,
      "ĠIF": 2037,
      "ised": 2038,
      "ĠĠĠĠčĊ": 2039,
      "ĠBUT": 2040,
      "ĠCAN": 2041,
      "irt": 2042,
      "OOK": 2043,
      "Ġchang": 2044,
      "ands": 2045,
      "Ġturned": 2046,
      "Ġsupport": 2047,
      "Ġidi": 2048,
      "OB": 2049,
      "Ġsad": 2050,
      "Ġstate": 2051,
      "icked": 2052,
      "Ġimmedi": 2053,
      "Ġpersonal": 2054,
      "ones": 2055,
      "ĠGRRRR": 2056,
      "ONE": 2057,
      "AW": 2058,
      "line": 2059,
      "sy": 2060,
      "ĠCOCK": 2061,
      "Ġdog": 2062,
      "Ġunc": 2063,
      "uel": 2064,
      "Ġtast": 2065,
      "Ġmas": 2066,
      "Ġdist": 2067,
      "Ġnon": 2068,
      "asturb": 2069,
      "Ġadv": 2070,
      "Ġcut": 2071,
      "Ġlearn": 2072,
      "ection": 2073,
      "Ġwond": 2074,
      "ĠEX": 2075,
      "Ġacross": 2076,
      "rence": 2077,
      "Ġhappened": 2078,
      "Ġskin": 2079,
      "Ġ011011": 2080,
      "HE": 2081,
      "ery": 2082,
      "atur": 2083,
      "owed": 2084,
      "ĠBec": 2085,
      "ĠJUST": 2086,
      "ylthreon": 2087,
      "!!!!!!!!": 2088,
      "ym": 2089,
      "Ġself": 2090,
      "eth": 2091,
      "Ġwants": 2092,
      "ocked": 2093,
      "Ġfemale": 2094,
      "Ġfavorite": 2095,
      "dle": 2096,
      "ww": 2097,
      "reme": 2098,
      "ari": 2099,
      "Ġeng": 2100,
      "OWN": 2101,
      "ressed": 2102,
      "USS": 2103,
      "ĠReddit": 2104,
      "IF": 2105,
      "yp": 2106,
      "Ġx": 2107,
      "Ġthro": 2108,
      "ĠSome": 2109,
      "ĠMin": 2110,
      "Ġvis": 2111,
      "Ġvoc": 2112,
      "Ġbrother": 2113,
      "Ġgirls": 2114,
      "IV": 2115,
      "Ġwind": 2116,
      "Ġbreat": 2117,
      "ĠIll": 2118,
      "Ġ14": 2119,
      "Ġtest": 2120,
      "Ġmain": 2121,
      "Ġorder": 2122,
      "Ġcal": 2123,
      "Ġfing": 2124,
      "Ġtor": 2125,
      "Ġupon": 2126,
      "ivid": 2127,
      "Ġfucked": 2128,
      "APP": 2129,
      "ĠAL": 2130,
      "ĠMay": 2131,
      "Ġlead": 2132,
      "Ġgirlfriend": 2133,
      "iting": 2134,
      "Ġparents": 2135,
      "Ġlarge": 2136,
      "Ġstream": 2137,
      "ĠKN": 2138,
      "Ġsimp": 2139,
      "oll": 2140,
      "Ġfail": 2141,
      "Ġdet": 2142,
      "Ġpure": 2143,
      "ational": 2144,
      "ibly": 2145,
      "AME": 2146,
      "Ġhonest": 2147,
      "xual": 2148,
      "ĠLO": 2149,
      "Ġthree": 2150,
      "ĠEn": 2151,
      "Ġflo": 2152,
      "Ġrespect": 2153,
      "ĠHAVE": 2154,
      "iny": 2155,
      "Ġwish": 2156,
      "ift": 2157,
      "ĠEven": 2158,
      "Ġquestion": 2159,
      "UB": 2160,
      "ĠCL": 2161,
      "ANS": 2162,
      "Ġ30": 2163,
      "OD": 2164,
      "Ġev": 2165,
      "ume": 2166,
      "Ġitself": 2167,
      "Ġproblem": 2168,
      "Ġbott": 2169,
      "Ġra": 2170,
      "22": 2171,
      "Ġgiving": 2172,
      "aced": 2173,
      "ides": 2174,
      "ĠChe": 2175,
      "irc": 2176,
      "Ġhimself": 2177,
      "ASS": 2178,
      "Ġskill": 2179,
      "46": 2180,
      "ister": 2181,
      "Ġdeal": 2182,
      "OOD": 2183,
      "Ġtrooper": 2184,
      "Ġmist": 2185,
      "Ġce": 2186,
      "Ġdire": 2187,
      "ara": 2188,
      "Ġplayer": 2189,
      "Ġaccount": 2190,
      "Ġmilk": 2191,
      "40": 2192,
      "row": 2193,
      "head": 2194,
      "Ġpri": 2195,
      "omb": 2196,
      "Ġkids": 2197,
      "Ġimmediately": 2198,
      "xg": 2199,
      "Ġwouldn": 2200,
      "ĠHowever": 2201,
      "ilt": 2202,
      "apan": 2203,
      "fuck": 2204,
      "Ġpict": 2205,
      "Ġexc": 2206,
      "ylser": 2207,
      "IME": 2208,
      "Ġexperience": 2209,
      "Ġdri": 2210,
      "Ġrequ": 2211,
      "ĠFuck": 2212,
      "Ġ13": 2213,
      "Ġexam": 2214,
      "Ġarg": 2215,
      "Ġmale": 2216,
      "Ġincl": 2217,
      "Ġseconds": 2218,
      "Ġav": 2219,
      "ĠKe": 2220,
      "ĠQu": 2221,
      "ĠNEW": 2222,
      "Ġokay": 2223,
      "ij": 2224,
      "ison": 2225,
      "Ġep": 2226,
      "ales": 2227,
      "Ġwasn": 2228,
      "Ġphys": 2229,
      "HHHHHHHH": 2230,
      "Ġdaddy": 2231,
      "af": 2232,
      "che": 2233,
      "isf": 2234,
      "Ġjo": 2235,
      "Ġsol": 2236,
      "ĠEm": 2237,
      "Ġslow": 2238,
      "velop": 2239,
      "hole": 2240,
      "wer": 2241,
      "Ġalone": 2242,
      "Ġknows": 2243,
      "Ġsuff": 2244,
      "Ġsexy": 2245,
      "ru": 2246,
      "Ġtaking": 2247,
      "Ġban": 2248,
      "Ġyell": 2249,
      "Ġlos": 2250,
      "Ġeither": 2251,
      "Ġheal": 2252,
      "ĠDAD": 2253,
      "ĠPro": 2254,
      "ĠOk": 2255,
      "Ġkept": 2256,
      "ylleuc": 2257,
      "Ġcrying": 2258,
      "proly": 2259,
      "IA": 2260,
      "Ġbra": 2261,
      "Ġcat": 2262,
      "Ġtruly": 2263,
      "play": 2264,
      "Ġgrab": 2265,
      "volution": 2266,
      "Ġtre": 2267,
      "Ġwall": 2268,
      "Ġnam": 2269,
      "Ġones": 2270,
      "Ġforget": 2271,
      "Ġ16": 2272,
      "ains": 2273,
      "iverse": 2274,
      "oup": 2275,
      "ito": 2276,
      "verage": 2277,
      "ĠPh": 2278,
      "ief": 2279,
      "Ġ50": 2280,
      "Ġindivid": 2281,
      "ĠBecause": 2282,
      "Ġsil": 2283,
      "Ġmasturb": 2284,
      "Ġlim": 2285,
      "Ġequ": 2286,
      "ĠAB": 2287,
      "attle": 2288,
      "Ġcute": 2289,
      "irth": 2290,
      "ages": 2291,
      "Ġamong": 2292,
      "Ġ01110": 2293,
      "ĠBALLER": 2294,
      "89": 2295,
      "ium": 2296,
      "wh": 2297,
      "Ġill": 2298,
      "Ġgun": 2299,
      "acy": 2300,
      "ments": 2301,
      "Ġclean": 2302,
      "Ġimportant": 2303,
      "awn": 2304,
      "cy": 2305,
      "gn": 2306,
      "ky": 2307,
      "rap": 2308,
      "OOM": 2309,
      "ively": 2310,
      "Ġfeet": 2311,
      "ĠHEAD": 2312,
      "Ġhistory": 2313,
      "AV": 2314,
      "ino": 2315,
      "Ġhorn": 2316,
      "ĠAS": 2317,
      "Ġchance": 2318,
      "ylis": 2319,
      "Ġappro": 2320,
      "Ġsoul": 2321,
      "Ġbull": 2322,
      "Ġiss": 2323,
      "Ġener": 2324,
      "Ġpara": 2325,
      "ĠEVERY": 2326,
      "iet": 2327,
      "Ġmeet": 2328,
      "Ġoutside": 2329,
      "Ġspr": 2330,
      "ipe": 2331,
      "Ġcrazy": 2332,
      "Ġinterest": 2333,
      "fully": 2334,
      "Ġbigg": 2335,
      "ANK": 2336,
      "ards": 2337,
      "Ġ69": 2338,
      "ĠITS": 2339,
      "Ġesp": 2340,
      "Ġfa": 2341,
      "Ġstep": 2342,
      "Ġsoon": 2343,
      "Ġshut": 2344,
      "Ġwaiting": 2345,
      "##": 2346,
      "CC": 2347,
      "kes": 2348,
      "Ġhop": 2349,
      "ĠYeah": 2350,
      "oop": 2351,
      "ALLY": 2352,
      "Ġfuture": 2353,
      "iest": 2354,
      "Ġwarm": 2355,
      "ato": 2356,
      "Ġtot": 2357,
      "Ġwalk": 2358,
      "Ġlow": 2359,
      "ament": 2360,
      "ĠDad": 2361,
      "ublic": 2362,
      "of": 2363,
      "xb": 2364,
      "ĠAre": 2365,
      "ĠBO": 2366,
      "atever": 2367,
      "ANAN": 2368,
      "Ġgrand": 2369,
      "Ġeffect": 2370,
      "70": 2371,
      "Ġten": 2372,
      "uth": 2373,
      "INE": 2374,
      "aked": 2375,
      "Ġdoesnt": 2376,
      "ĠWHEN": 2377,
      "IDE": 2378,
      "Ġesc": 2379,
      "old": 2380,
      "uge": 2381,
      "Ġtouch": 2382,
      "Ġloc": 2383,
      "ĠSN": 2384,
      "glyc": 2385,
      "ĠAmerican": 2386,
      "USSY": 2387,
      "ĠHis": 2388,
      "Ġju": 2389,
      "Ġsatisf": 2390,
      "Ġsimply": 2391,
      "ex": 2392,
      "Ġton": 2393,
      "Ġmult": 2394,
      "ĠBig": 2395,
      "ĠWOR": 2396,
      "OUT": 2397,
      "ĠThank": 2398,
      "Ġenem": 2399,
      "oleuc": 2400,
      "ECT": 2401,
      "Ġtight": 2402,
      "Ġcertain": 2403,
      "Ġfast": 2404,
      "argin": 2405,
      "ĠCar": 2406,
      "ATH": 2407,
      "35": 2408,
      "UFF": 2409,
      "ique": 2410,
      "ros": 2411,
      "Ġsense": 2412,
      "ured": 2413,
      "PL": 2414,
      "Ġfour": 2415,
      "Ġlog": 2416,
      "aces": 2417,
      "ĠCOM": 2418,
      "ĠPRE": 2419,
      "Ġdem": 2420,
      "Ġvi": 2421,
      "Ġblue": 2422,
      "Ġdin": 2423,
      "Ġinternet": 2424,
      "let": 2425,
      "ĠDAY": 2426,
      "ĠYes": 2427,
      "Ġthemselves": 2428,
      "Ġplayers": 2429,
      "oj": 2430,
      "Ġsun": 2431,
      "Ġmaster": 2432,
      "Ġburn": 2433,
      "ices": 2434,
      "raft": 2435,
      "Ġworking": 2436,
      "ĠWho": 2437,
      "aim": 2438,
      "ians": 2439,
      "Ġpiece": 2440,
      "ĠSl": 2441,
      "lying": 2442,
      "Ġforce": 2443,
      "ĠDis": 2444,
      "Ġsoft": 2445,
      "Ġexpect": 2446,
      "Ġeverybody": 2447,
      "overed": 2448,
      "Ġothers": 2449,
      "Ġnumber": 2450,
      "NT": 2451,
      "Ġwet": 2452,
      "Ġyoull": 2453,
      "ades": 2454,
      "Ġdisg": 2455,
      "azing": 2456,
      "Ġdrink": 2457,
      "Ġsal": 2458,
      "Ġmis": 2459,
      "Ġjer": 2460,
      "ART": 2461,
      "Ġbuy": 2462,
      "Ġball": 2463,
      "ĠId": 2464,
      "Ġcent": 2465,
      "Ġlose": 2466,
      "ĠBIG": 2467,
      "Ġlaw": 2468,
      "Ġ**": 2469,
      "85": 2470,
      "HO": 2471,
      "TT": 2472,
      "iam": 2473,
      "iced": 2474,
      "Ġult": 2475,
      "Ġant": 2476,
      "Ġdamn": 2477,
      "Ġtype": 2478,
      "Ġtaken": 2479,
      "Ġenergy": 2480,
      "ZZ": 2481,
      "Ġmad": 2482,
      "ĠSu": 2483,
      "Ġkiss": 2484,
      "Ġliving": 2485,
      "Ġdevelop": 2486,
      "ulp": 2487,
      "Ġworse": 2488,
      "Ġspend": 2489,
      "ugh": 2490,
      "ika": 2491,
      "Ġsweet": 2492,
      "Ġmonths": 2493,
      "Ġabsolutely": 2494,
      "39": 2495,
      "gth": 2496,
      "Ġaverage": 2497,
      "ora": 2498,
      "icking": 2499,
      "ecially": 2500,
      "ĠOH": 2501,
      "0000": 2502,
      "ylproly": 2503,
      "Ġemot": 2504,
      "Ġcheck": 2505,
      "OST": 2506,
      "Ġeasy": 2507,
      "GN": 2508,
      "ĠHIS": 2509,
      "ĠDid": 2510,
      "irty": 2511,
      "Ġmaj": 2512,
      "Ġfoot": 2513,
      "Ġinform": 2514,
      "Ġextreme": 2515,
      "Ġidiot": 2516,
      "AC": 2517,
      "NA": 2518,
      "Ġterm": 2519,
      "ĠInd": 2520,
      "Ġcirc": 2521,
      "Ġod": 2522,
      "Ġdom": 2523,
      "Ġpress": 2524,
      "ored": 2525,
      "istic": 2526,
      "ĠJapan": 2527,
      "Ġthrow": 2528,
      "ICE": 2529,
      "ipped": 2530,
      "aven": 2531,
      "Ġsi": 2532,
      "ĠMon": 2533,
      "ĠWAS": 2534,
      "Ġans": 2535,
      "Ġanime": 2536,
      "ĠNew": 2537,
      "text": 2538,
      "Ġreturn": 2539,
      "Ġspecial": 2540,
      "ĠBITCH": 2541,
      "Ġattract": 2542,
      "Ġeye": 2543,
      "Ġsitu": 2544,
      "ĠDeath": 2545,
      "Ġniggers": 2546,
      "Ġtur": 2547,
      "Ġtakes": 2548,
      "Ġpiss": 2549,
      "ica": 2550,
      "owers": 2551,
      "ĠHOL": 2552,
      "andom": 2553,
      "Ġtext": 2554,
      "Ġincred": 2555,
      "Ġhole": 2556,
      "Ġindividual": 2557,
      "Ġ?": 2558,
      "Ġterr": 2559,
      "erv": 2560,
      "Ġbal": 2561,
      "ision": 2562,
      "Ġpra": 2563,
      "ĠDay": 2564,
      "Ġrub": 2565,
      "usting": 2566,
      "EL": 2567,
      "right": 2568,
      "rect": 2569,
      "arch": 2570,
      "eless": 2571,
      "ĠEx": 2572,
      "ulation": 2573,
      "ylargin": 2574,
      "RRR": 2575,
      "ylaspart": 2576,
      "ux": 2577,
      "Ġfine": 2578,
      "Ġgone": 2579,
      "Ġuh": 2580,
      "raph": 2581,
      "ĠEl": 2582,
      "Ġstarts": 2583,
      "UMP": 2584,
      "101": 2585,
      "Ġdesign": 2586,
      "Ġmov": 2587,
      "ĠYEAR": 2588,
      "Ġsum": 2589,
      "Ġdue": 2590,
      "Ġdumb": 2591,
      "Ġland": 2592,
      "Ġwhatever": 2593,
      "Ġconc": 2594,
      "Ġbecom": 2595,
      "Ġamount": 2596,
      "Ġsave": 2597,
      "Ġmanag": 2598,
      "Ġprep": 2599,
      "Ġemb": 2600,
      "Ġspeed": 2601,
      "ounter": 2602,
      "IB": 2603,
      "gle": 2604,
      "ien": 2605,
      "kin": 2606,
      "ming": 2607,
      "tt": 2608,
      "Ġmark": 2609,
      "Ġcou": 2610,
      "edom": 2611,
      "ĠTE": 2612,
      "RRRRRRRR": 2613,
      "IIII": 2614,
      "Ġmine": 2615,
      "iment": 2616,
      "aded": 2617,
      "Ġ17": 2618,
      "Ġplap": 2619,
      "Ġleav": 2620,
      "iple": 2621,
      "Ġprom": 2622,
      "Ġsometimes": 2623,
      "Ġsecret": 2624,
      "hetic": 2625,
      "67": 2626,
      "ida": 2627,
      "ĠCT": 2628,
      "ĠWill": 2629,
      "Ġrid": 2630,
      "ylglyc": 2631,
      "Ġtaste": 2632,
      "bing": 2633,
      "ey": 2634,
      "ler": 2635,
      "ox": 2636,
      "Ġpants": 2637,
      "Ġalong": 2638,
      "Ġintell": 2639,
      "Ġcold": 2640,
      "Ġdeser": 2641,
      "60": 2642,
      "ball": 2643,
      "ĠBall": 2644,
      "ĠWor": 2645,
      "ention": 2646,
      "Ġlives": 2647,
      "Ġclos": 2648,
      "OTHER": 2649,
      "Ġactiv": 2650,
      "Ġgodd": 2651,
      "Ġuma": 2652,
      "ĠGOD": 2653,
      "ĠMorbius": 2654,
      "ĠPeople": 2655,
      "sych": 2656,
      "Ġfloor": 2657,
      "xa": 2658,
      "Ġbath": 2659,
      "Ġmeat": 2660,
      "Ġann": 2661,
      "Ġweak": 2662,
      "Ġworth": 2663,
      "Ġspread": 2664,
      "ended": 2665,
      "Ġshoot": 2666,
      "12": 2667,
      "MA": 2668,
      "hi": 2669,
      "onom": 2670,
      "Ġcatch": 2671,
      "Ġlay": 2672,
      "INK": 2673,
      "Ġnear": 2674,
      "Ġ18": 2675,
      "Ġclot": 2676,
      "Ġsud": 2677,
      "ASE": 2678,
      "Ġhumans": 2679,
      "Ġextra": 2680,
      "ĠSEX": 2681,
      "over": 2682,
      "ination": 2683,
      "Ġcult": 2684,
      "itive": 2685,
      "Ġline": 2686,
      "ased": 2687,
      "icul": 2688,
      "ĠMAM": 2689,
      "ĠWar": 2690,
      "ilet": 2691,
      "ĠAlso": 2692,
      "Ġrelations": 2693,
      "uction": 2694,
      "Ġquickly": 2695,
      "Ġpleasure": 2696,
      "mor": 2697,
      "Ġbutt": 2698,
      "ĠSHIT": 2699,
      "ological": 2700,
      "Ġlegs": 2701,
      "ĠKNOW": 2702,
      "atic": 2703,
      "Ġfig": 2704,
      "ĠHu": 2705,
      "Ġexplain": 2706,
      "Ġdude": 2707,
      "Ġpun": 2708,
      "Ġnie": 2709,
      "Ġeating": 2710,
      "ĠSC": 2711,
      "ĠSEND": 2712,
      "Ġund": 2713,
      "Ġshot": 2714,
      "oles": 2715,
      "empt": 2716,
      "Ġprov": 2717,
      "Ġsmile": 2718,
      "AHAH": 2719,
      "ĠDADDY": 2720,
      "iqu": 2721,
      "por": 2722,
      "pop": 2723,
      "Ġcam": 2724,
      "Ġfish": 2725,
      "Ġluck": 2726,
      "ĠSw": 2727,
      "Ġstri": 2728,
      "roy": 2729,
      "ĠPE": 2730,
      "Ġuniverse": 2731,
      "Ġbrought": 2732,
      "Ġcountry": 2733,
      "Ġsudden": 2734,
      "WAY": 2735,
      "lin": 2736,
      "Ġcho": 2737,
      "ression": 2738,
      "Ġkilled": 2739,
      "ylisoleuc": 2740,
      "com": 2741,
      "Ġbirth": 2742,
      "key": 2743,
      "ĠHAPP": 2744,
      "Ġjump": 2745,
      "Ġ200": 2746,
      "???": 2747,
      "appy": 2748,
      "anned": 2749,
      "Ġcas": 2750,
      "Ġthous": 2751,
      "amn": 2752,
      "ĠWhere": 2753,
      "ĠOP": 2754,
      "UNT": 2755,
      "Ġ0110100": 2756,
      "Ġthroat": 2757,
      "Ġdirect": 2758,
      "ki": 2759,
      "xd": 2760,
      "Ġhuge": 2761,
      "Ġge": 2762,
      "ĠTod": 2763,
      "Ġstar": 2764,
      "ĠYO": 2765,
      "ĠEu": 2766,
      "Ġquite": 2767,
      "Ġscene": 2768,
      "undred": 2769,
      "co": 2770,
      "ries": 2771,
      "xf": 2772,
      "ye": 2773,
      "Ġter": 2774,
      "Ġfive": 2775,
      "anks": 2776,
      "Ġegg": 2777,
      "ality": 2778,
      "vern": 2779,
      "Ġboyfriend": 2780,
      "Ġage": 2781,
      "Ġaff": 2782,
      "Ġmillion": 2783,
      "arag": 2784,
      "Ġinvol": 2785,
      "amb": 2786,
      "ISS": 2787,
      "do": 2788,
      "ken": 2789,
      "mer": 2790,
      "xh": 2791,
      "Ġdirty": 2792,
      "ette": 2793,
      "ĠOf": 2794,
      "Ġspace": 2795,
      "Ġbecame": 2796,
      "Ġadm": 2797,
      "49": 2798,
      "fer": 2799,
      "Ġver": 2800,
      "Ġvel": 2801,
      "Ġcase": 2802,
      "Ġear": 2803,
      "Ġhey": 2804,
      "ĠCON": 2805,
      "Ġdiv": 2806,
      "Ġlol": 2807,
      "Ġvict": 2808,
      "Ġexcept": 2809,
      "Ġhorny": 2810,
      "ga": 2811,
      "sp": 2812,
      "time": 2813,
      "ued": 2814,
      "Ġmach": 2815,
      "ĠSpe": 2816,
      "Ġonto": 2817,
      "Ġstre": 2818,
      "Ġrad": 2819,
      "Ġrather": 2820,
      "Ġconv": 2821,
      "Ġprop": 2822,
      "Ġfeels": 2823,
      "ĠCUMM": 2824,
      "atural": 2825,
      "Ġespecially": 2826,
      "ĠBRE": 2827,
      "ĠFA": 2828,
      "ĠFRE": 2829,
      "Ġris": 2830,
      "Ġrizz": 2831,
      "ilar": 2832,
      "Ġfear": 2833,
      "Ġusually": 2834,
      "ĠOFF": 2835,
      "Ġbehav": 2836,
      "Ġimagine": 2837,
      "59": 2838,
      "ja": 2839,
      "ata": 2840,
      "Ġhy": 2841,
      "lex": 2842,
      "Ġearth": 2843,
      "Ġbegan": 2844,
      "allen": 2845,
      "Ġrac": 2846,
      "str": 2847,
      "Ġrealize": 2848,
      "Ġindust": 2849,
      "Ġinclud": 2850,
      "SL": 2851,
      "Ġwake": 2852,
      "Ġbag": 2853,
      "Ġcorn": 2854,
      "Ġpsych": 2855,
      "ĠLa": 2856,
      "Ġroll": 2857,
      "Ġserious": 2858,
      "ĠBlue": 2859,
      "ining": 2860,
      "rod": 2861,
      "Ġvir": 2862,
      "Ġamazing": 2863,
      "orts": 2864,
      "ITE": 2865,
      "airs": 2866,
      "Ġbased": 2867,
      "Ġmention": 2868,
      "sus": 2869,
      "Ġobs": 2870,
      "ĠMr": 2871,
      "ify": 2872,
      "ĠLook": 2873,
      "Ġprocess": 2874,
      "ITY": 2875,
      "Ġscr": 2876,
      "Ġseeing": 2877,
      "Ġasshole": 2878,
      "Ġopin": 2879,
      "Ġcurrent": 2880,
      "Ġmessage": 2881,
      "ĠPREGN": 2882,
      "Ġrelationship": 2883,
      "men": 2884,
      "viously": 2885,
      "Ġsister": 2886,
      "Ġability": 2887,
      "Ġorig": 2888,
      "Ġplayed": 2889,
      "Ġbox": 2890,
      "Ġcharacters": 2891,
      "ĠFrom": 2892,
      "Ġpolit": 2893,
      "ĠFROM": 2894,
      "Ġeventually": 2895,
      "amonguserp": 2896,
      "Ġmajor": 2897,
      "83": 2898,
      "gon": 2899,
      "Ġmot": 2900,
      "Ġpa": 2901,
      "Ġlick": 2902,
      "ĠTIME": 2903,
      "ĠMAN": 2904,
      "Ġrepl": 2905,
      "rop": 2906,
      "ĠNOW": 2907,
      "001": 2908,
      "Ġdeals": 2909,
      "Ġgroup": 2910,
      "ĠONE": 2911,
      "Ġrunning": 2912,
      "Ġrespond": 2913,
      "Ġforever": 2914,
      "Ġgiven": 2915,
      "Ġexample": 2916,
      "21": 2917,
      "ACH": 2918,
      "PP": 2919,
      "ishing": 2920,
      "Ġpublic": 2921,
      "Ġhundred": 2922,
      "ĠCon": 2923,
      "ĠGl": 2924,
      "thy": 2925,
      "ounds": 2926,
      "Ġmodern": 2927,
      "MMMM": 2928,
      "Ġdrop": 2929,
      "Ġfreedom": 2930,
      "ges": 2931,
      "Ġbook": 2932,
      "Ġtoilet": 2933,
      "ĠHo": 2934,
      "osh": 2935,
      "ĠGood": 2936,
      "ĠEN": 2937,
      "Ġorg": 2938,
      "Ġgotta": 2939,
      "Ġsmo": 2940,
      "Ġneeded": 2941,
      "Ġrecord": 2942,
      "Ġsituation": 2943,
      "ĠPREGNANT": 2944,
      "the": 2945,
      "Ġwont": 2946,
      "Ġbare": 2947,
      "Ġfit": 2948,
      "Ġcond": 2949,
      "Ġexact": 2950,
      "ĠYoure": 2951,
      "ARL": 2952,
      "Ġoffic": 2953,
      "Ġtelling": 2954,
      "Ġwalked": 2955,
      "Ġpurp": 2956,
      "ĠDaddy": 2957,
      "form": 2958,
      "like": 2959,
      "Ġwa": 2960,
      "Ġmor": 2961,
      "Ġcream": 2962,
      "Ġdied": 2963,
      "ĠRep": 2964,
      "ables": 2965,
      "Ġview": 2966,
      "Ġsafe": 2967,
      "ĠTHEY": 2968,
      "Ġenc": 2969,
      "ĠTrump": 2970,
      "Ġmiddle": 2971,
      "de": 2972,
      "inite": 2973,
      "Ġsens": 2974,
      "Ġyoung": 2975,
      "usion": 2976,
      "Ġbear": 2977,
      "Ġheav": 2978,
      "usted": 2979,
      "Ġ11": 2980,
      "Ġvol": 2981,
      "Ġmeaning": 2982,
      "Ġbasically": 2983,
      "Ġmassive": 2984,
      "Ġcommunity": 2985,
      "ylprolyl": 2986,
      "cer": 2987,
      "mb": 2988,
      "nie": 2989,
      "Ġain": 2990,
      "Ġec": 2991,
      "ĠSm": 2992,
      "acking": 2993,
      "ĠCO": 2994,
      "Ġstat": 2995,
      "acks": 2996,
      "Ġcomb": 2997,
      "apt": 2998,
      "Ġsauce": 2999,
      "icha": 3000,
      "izza": 3001,
      "Ġclear": 3002,
      "Ġtechnology": 3003,
      "ĠOkay": 3004,
      "ĠToday": 3005,
      "URE": 3006,
      "cri": 3007,
      "yn": 3008,
      "yr": 3009,
      "reci": 3010,
      "Ġbud": 3011,
      "Ġnut": 3012,
      "ĠSk": 3013,
      "ĠBar": 3014,
      "Ġrece": 3015,
      "Ġran": 3016,
      "une": 3017,
      "ĠĠĠĠĠčĊ": 3018,
      "ĠEdit": 3019,
      "pping": 3020,
      "Ġorgan": 3021,
      "Ġvag": 3022,
      "ossible": 3023,
      "Ġcrit": 3024,
      "Ġreality": 3025,
      "Ġsitting": 3026,
      "Ġsurv": 3027,
      "Ġetc": 3028,
      "Ġextremely": 3029,
      "DD": 3030,
      "hor": 3031,
      "oint": 3032,
      "Ġya": 3033,
      "ĠRob": 3034,
      "ugs": 3035,
      "ption": 3036,
      "anger": 3037,
      "shit": 3038,
      "Ġbottom": 3039,
      "wo": 3040,
      "Ġbab": 3041,
      "Ġisnt": 3042,
      "ucking": 3043,
      "Ġdele": 3044,
      "OUR": 3045,
      "rible": 3046,
      "Ġscreen": 3047,
      "Ġgrass": 3048,
      "Ġexistence": 3049,
      "Ġign": 3050,
      "Ġmi": 3051,
      "Ġmap": 3052,
      "Ġpick": 3053,
      "ala": 3054,
      "ĠGen": 3055,
      "OULD": 3056,
      "Ġimm": 3057,
      "Ġ011100": 3058,
      "Ġstopped": 3059,
      "Ġglass": 3060,
      "ivers": 3061,
      "Ġreddit": 3062,
      "Ġclothes": 3063,
      "44": 3064,
      "IEST": 3065,
      "bed": 3066,
      "yle": 3067,
      "Ġmorb": 3068,
      "Ġcook": 3069,
      "Ġoften": 3070,
      "unc": 3071,
      "ĠThese": 3072,
      "sequ": 3073,
      "resh": 3074,
      "UNNY": 3075,
      "Ġdrive": 3076,
      "ances": 3077,
      "Ġwindow": 3078,
      "BALL": 3079,
      "TO": 3080,
      "no": 3081,
      "era": 3082,
      "erc": 3083,
      "Ġpet": 3084,
      "ĠLOOK": 3085,
      "Ġshower": 3086,
      "Ġdoll": 3087,
      "ession": 3088,
      "ibid": 3089,
      "Ġincre": 3090,
      "Ġsimple": 3091,
      "cious": 3092,
      "how": 3093,
      "Ġtable": 3094,
      "Ġach": 3095,
      "Ġtheres": 3096,
      "Ġos": 3097,
      "Ġport": 3098,
      "ĠAb": 3099,
      "ĠGOOD": 3100,
      "ĠFL": 3101,
      "Ġjak": 3102,
      "Ġtheyre": 3103,
      "Ġcouldnt": 3104,
      "ploy": 3105,
      "Ġpretend": 3106,
      "angu": 3107,
      "rench": 3108,
      "Ġsupposed": 3109,
      "Ġsusp": 3110,
      "Ġdraw": 3111,
      "Ġslowly": 3112,
      "Ġtonight": 3113,
      "ral": 3114,
      "inge": 3115,
      "Ġocc": 3116,
      "ories": 3117,
      "eds": 3118,
      "ĠSte": 3119,
      "Ġreac": 3120,
      "ĠDont": 3121,
      "Ġlets": 3122,
      "Ġappreci": 3123,
      "Ġcontinue": 3124,
      "work": 3125,
      "Ġwonder": 3126,
      "Ġbathroom": 3127,
      "AUS": 3128,
      "Ġble": 3129,
      "Ġboo": 3130,
      "Ġpan": 3131,
      "Ġtowards": 3132,
      "esus": 3133,
      "Ġlif": 3134,
      "Ġrandom": 3135,
      "Ġtruth": 3136,
      "ISH": 3137,
      "Ġconsider": 3138,
      "Ġloved": 3139,
      "Ġviol": 3140,
      "VEN": 3141,
      "gress": 3142,
      "Ġgar": 3143,
      "acre": 3144,
      "ĠMan": 3145,
      "ams": 3146,
      "add": 3147,
      "ĠHOT": 3148,
      "ĠGreat": 3149,
      "Ġweap": 3150,
      "ores": 3151,
      "ĠJo": 3152,
      "Ġaccess": 3153,
      "OSE": 3154,
      "ency": 3155,
      "Ġsweat": 3156,
      "Ġpicture": 3157,
      "FT": 3158,
      "eg": 3159,
      "Ġbat": 3160,
      "ĠBu": 3161,
      "uter": 3162,
      "Ġarea": 3163,
      "ization": 3164,
      "Ġclim": 3165,
      "Ġrob": 3166,
      "itty": 3167,
      "itten": 3168,
      "Ġslut": 3169,
      "Ġinsane": 3170,
      "Ġpowerful": 3171,
      "Ġtyp": 3172,
      "Ġdestroy": 3173,
      "ĠHAPPY": 3174,
      "fl": 3175,
      "Ġtree": 3176,
      "Ġsed": 3177,
      "Ġbird": 3178,
      "eding": 3179,
      "ĠTW": 3180,
      "ĠTao": 3181,
      "ĠSant": 3182,
      "Ġbee": 3183,
      "ĠNA": 3184,
      "Ġshall": 3185,
      "Ġsell": 3186,
      "ĠEM": 3187,
      "anced": 3188,
      "Ġseems": 3189,
      "Ġ01100101": 3190,
      "Ġchanged": 3191,
      ",'": 3192,
      "BER": 3193,
      "GH": 3194,
      "bers": 3195,
      "Ġsize": 3196,
      "using": 3197,
      "ican": 3198,
      "ĠMicha": 3199,
      "ĠHar": 3200,
      "Ġmeme": 3201,
      "ĠPer": 3202,
      "icken": 3203,
      "Ġaccept": 3204,
      "izing": 3205,
      "action": 3206,
      "Ġcompet": 3207,
      "ĠWHO": 3208,
      "Ġimpossible": 3209,
      "ney": 3210,
      "ĠNote": 3211,
      "Ġhonestly": 3212,
      "zi": 3213,
      "Ġcred": 3214,
      "Ġlate": 3215,
      "Ġlab": 3216,
      "Ġgre": 3217,
      "ĠHARD": 3218,
      "osp": 3219,
      "ĠGe": 3220,
      "OUND": 3221,
      "asts": 3222,
      "ĠĠĠĠĠĠĠĠĠĠĠĠčĊ": 3223,
      "Ġproud": 3224,
      "ĠONLY": 3225,
      "Ġpolice": 3226,
      "Ġmistake": 3227,
      "land": 3228,
      "now": 3229,
      "Ġbow": 3230,
      "Ġbase": 3231,
      "Ġfarm": 3232,
      "Ġfair": 3233,
      "Ġpill": 3234,
      "Ġgives": 3235,
      "Ġnature": 3236,
      "icy": 3237,
      "Ġhero": 3238,
      "ĠGOT": 3239,
      "ĠFirst": 3240,
      "Ġje": 3241,
      "ĠĠĠĠĠĠĠčĊ": 3242,
      "ste": 3243,
      "Ġcompl": 3244,
      "Ġgold": 3245,
      "ĠYOURE": 3246,
      "Ġblow": 3247,
      "Ġrealized": 3248,
      "ĠNothing": 3249,
      "ĠBaller": 3250,
      "RY": 3251,
      "bt": 3252,
      "kk": 3253,
      "Ġtired": 3254,
      "Ġborn": 3255,
      "Ġbattle": 3256,
      "ĠOVER": 3257,
      "acked": 3258,
      "Ġchat": 3259,
      "aining": 3260,
      "rial": 3261,
      "ĠInst": 3262,
      "ĠOnly": 3263,
      "Ġcaught": 3264,
      "Ġbreath": 3265,
      "boy": 3266,
      "ios": 3267,
      "ires": 3268,
      "rum": 3269,
      "yy": 3270,
      "za": 3271,
      "Ġ@": 3272,
      "ani": 3273,
      "lebr": 3274,
      "ico": 3275,
      "Ġugly": 3276,
      "roll": 3277,
      "ecraft": 3278,
      "ected": 3279,
      "Ġpract": 3280,
      "Ġthank": 3281,
      "Ġmarried": 3282,
      "Ġcomments": 3283,
      "Ġproblems": 3284,
      "KKKK": 3285,
      "ĠSLUTS": 3286,
      "Ġsuccess": 3287,
      "Ġhurt": 3288,
      "GE": 3289,
      "da": 3290,
      "Ġcounter": 3291,
      "Ġloud": 3292,
      "ĠSK": 3293,
      "ĠBY": 3294,
      "Ġonline": 3295,
      "Ġreach": 3296,
      "Ġmere": 3297,
      "ĠDOWN": 3298,
      "Ġwearing": 3299,
      "iling": 3300,
      "Ġworst": 3301,
      "Ġ24": 3302,
      "Ġknowing": 3303,
      "Ġperform": 3304,
      "ughter": 3305,
      "Ġinformation": 3306,
      "Ġanswer": 3307,
      "FUCK": 3308,
      "light": 3309,
      "Ġden": 3310,
      "ĠDI": 3311,
      "ĠĠĠĠĠ": 3312,
      "Ġallowed": 3313,
      "ARE": 3314,
      "ĠThats": 3315,
      "Ġremind": 3316,
      "Ġfinal": 3317,
      "7777": 3318,
      "uuuu": 3319,
      "Ġvideos": 3320,
      "Ġeasily": 3321,
      "Ġnecess": 3322,
      "53": 3323,
      "for": 3324,
      "tle": 3325,
      "Ġaf": 3326,
      "Ġsand": 3327,
      "ero": 3328,
      "nds": 3329,
      "Ġcost": 3330,
      "ising": 3331,
      "ĠSOME": 3332,
      "ĠMake": 3333,
      "ĠMark": 3334,
      "ĠHACK": 3335,
      "Ġspot": 3336,
      "Ġspir": 3337,
      "asta": 3338,
      "REAM": 3339,
      "Ġdisapp": 3340,
      "Ġcontent": 3341,
      "Ġlaughing": 3342,
      "Ġgym": 3343,
      "ĠHave": 3344,
      "Ġlikes": 3345,
      "Ġsever": 3346,
      "IND": 3347,
      "Ġelect": 3348,
      "Ġdinner": 3349,
      "ĠMichael": 3350,
      "OC": 3351,
      "RA": 3352,
      "TING": 3353,
      "aur": 3354,
      "bit": 3355,
      "je": 3356,
      "Ġbi": 3357,
      "Ġcity": 3358,
      "Ġhung": 3359,
      "Ġstren": 3360,
      "ĠGU": 3361,
      "ĠĠĠĠĠĠ": 3362,
      "Ġwear": 3363,
      "terday": 3364,
      "Ġlie": 3365,
      "ĠJO": 3366,
      "aper": 3367,
      "Ġtells": 3368,
      "Ġpoints": 3369,
      "Ġinfl": 3370,
      "ĠMaybe": 3371,
      "HING": 3372,
      "IAN": 3373,
      "ees": 3374,
      "ko": 3375,
      "Ġasking": 3376,
      "osexual": 3377,
      "Ġ65": 3378,
      "Ġfeelings": 3379,
      "Ġpregn": 3380,
      "ĠAss": 3381,
      "Ġqueen": 3382,
      "ĠANY": 3383,
      "Ġposition": 3384,
      "Ġcouple": 3385,
      "Ġlangu": 3386,
      "imate": 3387,
      "Ġrevolution": 3388,
      "ĠHOW": 3389,
      "Ġshare": 3390,
      "Ġseason": 3391,
      "Ġdement": 3392,
      "ĠHere": 3393,
      "Ġpoor": 3394,
      "ĠWHY": 3395,
      "bling": 3396,
      "THE": 3397,
      "AGE": 3398,
      "ĠHOE": 3399,
      "Ġcreated": 3400,
      "Ġ01110100": 3401,
      "QU": 3402,
      "Ġtar": 3403,
      "Ġhuh": 3404,
      "oring": 3405,
      "ushed": 3406,
      "oting": 3407,
      "ĠMORE": 3408,
      "rog": 3409,
      "ilities": 3410,
      "ĠWhile": 3411,
      "aha": 3412,
      "ference": 3413,
      "iction": 3414,
      "Ġcommon": 3415,
      "Ġsounds": 3416,
      "Ġpathetic": 3417,
      "ĠChristmas": 3418,
      "ibidi": 3419,
      "ding": 3420,
      "ois": 3421,
      "son": 3422,
      "ya": 3423,
      "Ġess": 3424,
      "Ġ....": 3425,
      "Ġbey": 3426,
      "ido": 3427,
      "ĠWO": 3428,
      "ĠPLE": 3429,
      "ĠNever": 3430,
      "ĠEarth": 3431,
      "Ġaren": 3432,
      "Ġnobody": 3433,
      "ocks": 3434,
      "Ġrock": 3435,
      "Ġchest": 3436,
      "Ġcheese": 3437,
      "Ġattempt": 3438,
      "Ġscreaming": 3439,
      "Ġmultiple": 3440,
      "69": 3441,
      "zz": 3442,
      "Ġtreat": 3443,
      "eral": 3444,
      "Ġfart": 3445,
      "asc": 3446,
      "ĠTe": 3447,
      "acher": 3448,
      "ential": 3449,
      "Ġforced": 3450,
      "ĠLIT": 3451,
      "ĠRem": 3452,
      "ĠRuss": 3453,
      "ums": 3454,
      "Ġshop": 3455,
      "Ġdemon": 3456,
      "Ġgrow": 3457,
      "Ġ40": 3458,
      "Ġresult": 3459,
      "Ġparty": 3460,
      "UUUUUUUU": 3461,
      "Ġprofess": 3462,
      "Ġengine": 3463,
      "Ġfinger": 3464,
      "Ġoriginal": 3465,
      "Ġpod": 3466,
      "ĠTUR": 3467,
      "uses": 3468,
      "ĠSee": 3469,
      "ĠBo": 3470,
      "ĠWal": 3471,
      "ĠDr": 3472,
      "Ġconn": 3473,
      "Ġalive": 3474,
      "Ġshes": 3475,
      "Ġ25": 3476,
      "Ġarous": 3477,
      "Ġwatched": 3478,
      "Ġempt": 3479,
      "ontg": 3480,
      "ĠGold": 3481,
      "Ġapart": 3482,
      "Ġbusiness": 3483,
      "ĠJapanese": 3484,
      "ĠWorld": 3485,
      "Ġdementia": 3486,
      "RO": 3487,
      "Ġcovered": 3488,
      "Ġhig": 3489,
      "Ġrul": 3490,
      "ĠOb": 3491,
      "ĠUs": 3492,
      "Ġproper": 3493,
      "ously": 3494,
      "Ġprim": 3495,
      "Ġcomputer": 3496,
      "Ġdesp": 3497,
      "Ġbuilt": 3498,
      "Ġmatch": 3499,
      "Ġsurpr": 3500,
      "Ġdiam": 3501,
      "Ġcreate": 3502,
      "Ġmovie": 3503,
      "Ġice": 3504,
      "Ġwipe": 3505,
      "Ġfet": 3506,
      "Ġdee": 3507,
      "olf": 3508,
      "andy": 3509,
      "Ġsugg": 3510,
      "Ġways": 3511,
      "order": 3512,
      "ighs": 3513,
      "Ġaccident": 3514,
      "ĠLEG": 3515,
      "YYYYYYYY": 3516,
      "eeeeeeee": 3517,
      "arrass": 3518,
      "Ġbehavior": 3519,
      "Ġpurpose": 3520,
      "AUSE": 3521,
      "Ġsuggest": 3522,
      "ULL": 3523,
      "hin": 3524,
      "Ġtong": 3525,
      "inn": 3526,
      "ĠTen": 3527,
      "ĠMil": 3528,
      "Ġrap": 3529,
      "Ġnoticed": 3530,
      "Ġdeg": 3531,
      "Ġcondit": 3532,
      "Ġconsequ": 3533,
      "OUS": 3534,
      "ĠThink": 3535,
      "Ġwouldnt": 3536,
      "ENCE": 3537,
      "ĠĠĠĠĠĠĠĠĠĠčĊ": 3538,
      "ogn": 3539,
      "Ġslight": 3540,
      "EEP": 3541,
      "Ġpartic": 3542,
      "Ġneck": 3543,
      "ohn": 3544,
      "ĠDONT": 3545,
      "Ġgoddamn": 3546,
      "58": 3547,
      "BO": 3548,
      "ror": 3549,
      "Ġfake": 3550,
      "Ġpoop": 3551,
      "Ġking": 3552,
      "ante": 3553,
      "Ġlikely": 3554,
      "Ġwhether": 3555,
      "ocr": 3556,
      "ĠThose": 3557,
      "Ġeverywhere": 3558,
      "Ġsubject": 3559,
      "ĠABOUT": 3560,
      "64": 3561,
      "got": 3562,
      "Ġcow": 3563,
      "Ġfant": 3564,
      "ĠBAD": 3565,
      "acul": 3566,
      "ids": 3567,
      "Ġstore": 3568,
      "andhi": 3569,
      "Ġworks": 3570,
      "Ġspent": 3571,
      "Ġkey": 3572,
      "Ġminute": 3573,
      "ĠHEY": 3574,
      "Ġopened": 3575,
      "Ġsuddenly": 3576,
      "AVE": 3577,
      "SH": 3578,
      "gulp": 3579,
      "view": 3580,
      "onald": 3581,
      "Ġbunch": 3582,
      "Ġdash": 3583,
      "Ġtown": 3584,
      "ĠSqu": 3585,
      "ĠSorry": 3586,
      "Ġrepe": 3587,
      "Ġstick": 3588,
      "ĠPok": 3589,
      "ĠPUSSY": 3590,
      "opp": 3591,
      "aker": 3592,
      "ella": 3593,
      "ORT": 3594,
      "Ġunless": 3595,
      "ĠSTOP": 3596,
      "Ġreading": 3597,
      "Ġprotect": 3598,
      "Ġembarrass": 3599,
      "SLATT": 3600,
      "Ġwoke": 3601,
      "Ġpu": 3602,
      "Ġhat": 3603,
      "aling": 3604,
      "ĠCome": 3605,
      "ĠGandhi": 3606,
      "Ġround": 3607,
      "unny": 3608,
      "Ġgovern": 3609,
      "aka": 3610,
      "ookie": 3611,
      "Ġemploy": 3612,
      "ĠQUE": 3613,
      "Ġminha": 3614,
      "Ġwriting": 3615,
      "Ġkinda": 3616,
      "Ġpulled": 3617,
      "ĠAmerica": 3618,
      "Ġcelebr": 3619,
      "Ġphysical": 3620,
      "ĠHOLY": 3621,
      "Ġseveral": 3622,
      "Ġstrength": 3623,
      "ault": 3624,
      "Ġwit": 3625,
      "Ġwild": 3626,
      "Ġbon": 3627,
      "ises": 3628,
      "Ġhar": 3629,
      "ĠSW": 3630,
      "ĠSAY": 3631,
      "ĠMAKE": 3632,
      "ads": 3633,
      "ading": 3634,
      "Ġforward": 3635,
      "Ġworry": 3636,
      "astic": 3637,
      "Ġscared": 3638,
      "Ġpray": 3639,
      "Ġthanks": 3640,
      "Ġ74": 3641,
      "Ġmoves": 3642,
      "ĠPLAY": 3643,
      "okes": 3644,
      "Ġtort": 3645,
      "ĠSNARL": 3646,
      "79": 3647,
      "cul": 3648,
      "gel": 3649,
      "nite": 3650,
      "Ġsour": 3651,
      "Ġsix": 3652,
      "Ġmer": 3653,
      "Ġdance": 3654,
      "orus": 3655,
      "esh": 3656,
      "Ġgent": 3657,
      "omp": 3658,
      "Ġearly": 3659,
      "Ġheld": 3660,
      "iday": 3661,
      "ames": 3662,
      "enty": 3663,
      "ĠDa": 3664,
      "ĠDes": 3665,
      "ĠGive": 3666,
      "ĠGOL": 3667,
      "ĠFort": 3668,
      "ĠLets": 3669,
      "ĠĠĠĠĠĠĠĠĠčĊ": 3670,
      "Ġprice": 3671,
      "ava": 3672,
      "Ġcruel": 3673,
      "Ġhappens": 3674,
      "Ġdecl": 3675,
      "ĠBEC": 3676,
      "Ġwrite": 3677,
      "Ġshows": 3678,
      "?!?!": 3679,
      "GRGR": 3680,
      "Ġbiggest": 3681,
      "Ġah": 3682,
      "Ġwood": 3683,
      "Ġbang": 3684,
      "itter": 3685,
      "Ġfac": 3686,
      "Ġpow": 3687,
      "orge": 3688,
      "ĠSM": 3689,
      "ĠSomet": 3690,
      "ĠAG": 3691,
      "ĠPAT": 3692,
      "Ġanal": 3693,
      "Ġlil": 3694,
      "umps": 3695,
      "Ġherself": 3696,
      "Ġconvers": 3697,
      "OND": 3698,
      "Ġblind": 3699,
      "ibility": 3700,
      "Ġgrind": 3701,
      "Ġthinks": 3702,
      "Ġcontact": 3703,
      "ĠStop": 3704,
      "Ġchee": 3705,
      "Ġsky": 3706,
      "Ġseries": 3707,
      "Ġobject": 3708,
      "AI": 3709,
      "MY": 3710,
      "gu": 3711,
      "Ġtax": 3712,
      "Ġtears": 3713,
      "Ġmir": 3714,
      "itor": 3715,
      "Ġpal": 3716,
      "ĠFur": 3717,
      "urity": 3718,
      "raw": 3719,
      "Ġclaim": 3720,
      "ikes": 3721,
      "Ġperfectly": 3722,
      "Ġbeyond": 3723,
      "Ġtongue": 3724,
      "38": 3725,
      "UH": 3726,
      "bel": 3727,
      "iant": 3728,
      "Ġident": 3729,
      "Ġthick": 3730,
      "asy": 3731,
      "Ġnet": 3732,
      "idence": 3733,
      "ĠCo": 3734,
      "ĠPO": 3735,
      "ĠPol": 3736,
      "ĠRIGHT": 3737,
      "Ġarr": 3738,
      "Ġhowever": 3739,
      "Ġcalling": 3740,
      "ighb": 3741,
      "Ġpresent": 3742,
      "Ġbuilding": 3743,
      "WW": 3744,
      "fic": 3745,
      "la": 3746,
      "miss": 3747,
      "asm": 3748,
      "Ġnaked": 3749,
      "Ġmel": 3750,
      "Ġstuck": 3751,
      "Ġhaven": 3752,
      "illed": 3753,
      "ura": 3754,
      "Ġdefe": 3755,
      "Ġvib": 3756,
      "Ġtrash": 3757,
      "Ġanyway": 3758,
      "Ġprevent": 3759,
      "Ġcalls": 3760,
      "Ġphot": 3761,
      "Ġserv": 3762,
      "Ġmusc": 3763,
      "Ġlistening": 3764,
      "Ġpriv": 3765,
      "Ġdomin": 3766,
      "ev": 3767,
      "wa": 3768,
      "inary": 3769,
      "Ġfix": 3770,
      "asons": 3771,
      "amed": 3772,
      "Ġstorm": 3773,
      "ury": 3774,
      "ĠRes": 3775,
      "ĠUh": 3776,
      "Ġintended": 3777,
      "reddit": 3778,
      "Ġunf": 3779,
      "ĠPlay": 3780,
      "Ġfollow": 3781,
      "Ġopinion": 3782,
      "FE": 3783,
      "iro": 3784,
      "sc": 3785,
      "vin": 3786,
      "zen": 3787,
      "Ġcup": 3788,
      "Ġdu": 3789,
      "usb": 3790,
      "ĠAU": 3791,
      "ĠAg": 3792,
      "ĠBy": 3793,
      "Ġdol": 3794,
      "Ġneighb": 3795,
      "ĠVal": 3796,
      "Ġhandle": 3797,
      "Ġholy": 3798,
      "Ġfurther": 3799,
      "Ġproduct": 3800,
      "Ġfilled": 3801,
      "Ġcalm": 3802,
      "Ġlocal": 3803,
      "Ġincluding": 3804,
      "ĠPLEASE": 3805,
      "CUM": 3806,
      "DAY": 3807,
      "ILE": 3808,
      "ZE": 3809,
      "back": 3810,
      "Ġetern": 3811,
      "ĠMIL": 3812,
      "Ġrelease": 3813,
      "ĠHappy": 3814,
      "ionally": 3815,
      "Ġrough": 3816,
      "Ġliber": 3817,
      "Ġbutton": 3818,
      "Ġvar": 3819,
      "Ġimage": 3820,
      "Ġenv": 3821,
      "itted": 3822,
      "pected": 3823,
      "Ġturns": 3824,
      "Ġrelig": 3825,
      "ĠNEED": 3826,
      "Ġhomosexual": 3827,
      "Ġinvest": 3828,
      "Ġangry": 3829,
      "Ġpregnant": 3830,
      "mies": 3831,
      "Ġboss": 3832,
      "Ġcamp": 3833,
      "Ġye": 3834,
      "ĠSa": 3835,
      "ĠSUCK": 3836,
      "ĠMA": 3837,
      "idontg": 3838,
      "ĠDID": 3839,
      "ĠGAY": 3840,
      "ĠPut": 3841,
      "Ġjud": 3842,
      "urs": 3843,
      "Ġweight": 3844,
      "Ġnotice": 3845,
      "ems": 3846,
      "elle": 3847,
      "ARY": 3848,
      "inda": 3849,
      "Ġputting": 3850,
      "Ġattention": 3851,
      "Ġwalking": 3852,
      "Ġdreams": 3853,
      "Ġmedia": 3854,
      "Ġplanet": 3855,
      "Ġepis": 3856,
      "Ġenemies": 3857,
      "ĠSuper": 3858,
      "68": 3859,
      "IK": 3860,
      "ba": 3861,
      "cel": 3862,
      "ker": 3863,
      "ouble": 3864,
      "Ġmount": 3865,
      "Ġcode": 3866,
      "Ġol": 3867,
      "Ġhang": 3868,
      "Ġheat": 3869,
      "Ġstret": 3870,
      "ĠLA": 3871,
      "ili": 3872,
      "Ġchair": 3873,
      "Ġwhenever": 3874,
      "Ġscient": 3875,
      "OWOW": 3876,
      "Ġtend": 3877,
      "Ġharder": 3878,
      "Ġclearly": 3879,
      "Ġbroke": 3880,
      "Ġcreep": 3881,
      "iiiiiiii": 3882,
      "Ġissue": 3883,
      "Ġsatisfied": 3884,
      "Ġdisgusting": 3885,
      "ĠBREAK": 3886,
      "Ġeconom": 3887,
      "stein": 3888,
      "Ġlanguage": 3889,
      "bre": 3890,
      "come": 3891,
      "rs": 3892,
      "vious": 3893,
      "Ġfool": 3894,
      "Ġthreat": 3895,
      "ĠMOTHER": 3896,
      "vert": 3897,
      "irm": 3898,
      "ĠFred": 3899,
      "Ġrat": 3900,
      "Ġrace": 3901,
      "ĠOur": 3902,
      "ĠĠĠĠĠĠĠ": 3903,
      "Ġwasnt": 3904,
      "Ġabove": 3905,
      "ĠTHEN": 3906,
      "ĠKing": 3907,
      "Ġsomehow": 3908,
      "ORN": 3909,
      "!!!!!": 3910,
      "Ġmoan": 3911,
      "Ġboys": 3912,
      "ĠSHE": 3913,
      "CTION": 3914,
      "Ġpassion": 3915,
      "ipping": 3916,
      "Ġrespons": 3917,
      "ĠLOVE": 3918,
      "Ġavoid": 3919,
      "Ġthousand": 3920,
      "phen": 3921,
      "Ġaud": 3922,
      "Ġsac": 3923,
      "Ġsig": 3924,
      "Ġbod": 3925,
      "Ġfly": 3926,
      "orant": 3927,
      "Ġnin": 3928,
      "icle": 3929,
      "ĠMor": 3930,
      "Ġride": 3931,
      "ĠLET": 3932,
      "Ġdoct": 3933,
      "ĠED": 3934,
      "ola": 3935,
      "though": 3936,
      "Ġcomfort": 3937,
      "ĠJesus": 3938,
      "ĠĠĠĠĠĠĠĠĠĠĠčĊ": 3939,
      "ĠTHEM": 3940,
      "Ġresist": 3941,
      "Ġdaughter": 3942,
      "ĠDoes": 3943,
      "ences": 3944,
      "AAAAAAAAAAAAAAAA": 3945,
      "Ġanimal": 3946,
      "Ġnamed": 3947,
      "Ġ01101001": 3948,
      "ĠSanta": 3949,
      "ano": 3950,
      "Ġpizza": 3951,
      "Ġgreen": 3952,
      "Ġnatural": 3953,
      "lect": 3954,
      "iron": 3955,
      "Ġseven": 3956,
      "Ġchoice": 3957,
      "Ġspl": 3958,
      "Ġanywhere": 3959,
      "Ġ300": 3960,
      "Ġteacher": 3961,
      "ĠImag": 3962,
      "Ġnews": 3963,
      "Ġmommy": 3964,
      "Ġbroken": 3965,
      "Ġeffort": 3966,
      "Ġbecomes": 3967,
      "Ġcorner": 3968,
      "Ġexactly": 3969,
      "IRE": 3970,
      "ICH": 3971,
      "uv": 3972,
      "Ġ!!": 3973,
      "Ġwhis": 3974,
      "Ġforces": 3975,
      "ĠRight": 3976,
      "Ġneg": 3977,
      "ourge": 3978,
      "aint": 3979,
      "ares": 3980,
      "ESE": 3981,
      "ENS": 3982,
      "Ġpeace": 3983,
      "Ġdaily": 3984,
      "Ġsubreddit": 3985,
      "ĠBlack": 3986,
      "Ġnigga": 3987,
      "Ġmental": 3988,
      "Ġhorse": 3989,
      "hhhhhhhh": 3990,
      "Ġ01100001": 3991,
      "aragin": 3992,
      "UND": 3993,
      "arian": 3994,
      "Ġhaha": 3995,
      ".....": 3996,
      "ĠNor": 3997,
      "aged": 3998,
      "OOP": 3999,
      "Ġchallen": 4000,
      "Ġarc": 4001,
      "Ġactual": 4002,
      "ensive": 4003,
      "Ġela": 4004,
      "Ġfinish": 4005,
      "ledge": 4006,
      "Ġcapt": 4007,
      "Ġevil": 4008,
      "ĠBOY": 4009,
      "Ġcredit": 4010,
      "Ġempty": 4011,
      "BB": 4012,
      "eb": 4013,
      "gers": 4014,
      "job": 4015,
      "min": 4016,
      "oved": 4017,
      "Ġts": 4018,
      "Ġtip": 4019,
      "onic": 4020,
      "Ġped": 4021,
      "Ġhug": 4022,
      "Ġlower": 4023,
      "Ġnuts": 4024,
      "ĠTake": 4025,
      "ĠMc": 4026,
      "ĠMOM": 4027,
      "iding": 4028,
      "idden": 4029,
      "ĠGra": 4030,
      "ĠPat": 4031,
      "Ġrich": 4032,
      "ĠLord": 4033,
      "ĠEL": 4034,
      "Ġprefer": 4035,
      "Ġemp": 4036,
      "bebe": 4037,
      "glish": 4038,
      "Ġserver": 4039,
      "Ġhumanity": 4040,
      "Ġtotal": 4041,
      "07": 4042,
      "45": 4043,
      "LER": 4044,
      "cent": 4045,
      "haps": 4046,
      "li": 4047,
      "Ġsort": 4048,
      "rection": 4049,
      "Ġbought": 4050,
      "Ġfal": 4051,
      "Ġpack": 4052,
      "ening": 4053,
      "asing": 4054,
      "Ġnone": 4055,
      "ĠAc": 4056,
      "ĠBer": 4057,
      "ĠOM": 4058,
      "aging": 4059,
      "Ġarms": 4060,
      "Ġfuckin": 4061,
      "ADY": 4062,
      "tyros": 4063,
      "Ġcoff": 4064,
      "Ġmoving": 4065,
      "hold": 4066,
      "Ġinstantly": 4067,
      "ĠNEVER": 4068,
      "Ġmovement": 4069,
      "Ġyesterday": 4070,
      "ĠATT": 4071,
      "Ġincredibly": 4072,
      "Ġbarely": 4073,
      "Ġappreciate": 4074,
      "TF": 4075,
      "ae": 4076,
      "uine": 4077,
      "Ġtall": 4078,
      "Ġmic": 4079,
      "Ġcuz": 4080,
      "ingle": 4081,
      "Ġfaz": 4082,
      "Ġbell": 4083,
      "otic": 4084,
      "ĠGame": 4085,
      "Ġchamp": 4086,
      "ĠUR": 4087,
      "ibus": 4088,
      "Ġmax": 4089,
      "SSSS": 4090,
      "ĠREF": 4091,
      "ĠBefore": 4092,
      "ĠEveryone": 4093,
      "ground": 4094,
      "Ġmember": 4095,
      "uki": 4096,
      "Ġsemen": 4097,
      "ĠSLATTSLATT": 4098,
      "Ġcurrently": 4099,
      "Ġgovernment": 4100,
      "Ġtiny": 4101,
      "Ġmur": 4102,
      "Ġcrew": 4103,
      "ĠTime": 4104,
      "ĠSEE": 4105,
      "icious": 4106,
      "Ġstro": 4107,
      "ira": 4108,
      "Ġord": 4109,
      "Ġsmart": 4110,
      "Ġstarting": 4111,
      "ĠQU": 4112,
      "Ġobviously": 4113,
      "Ġholding": 4114,
      "CHOOCHOOCHOOCHOO": 4115,
      "Ġtotally": 4116,
      "initely": 4117,
      "ĠPokmon": 4118,
      "dom": 4119,
      "ration": 4120,
      "uan": 4121,
      "Ġner": 4122,
      "ĠSince": 4123,
      "ĠBill": 4124,
      "ĠBEST": 4125,
      "ĠMO": 4126,
      "ĠMom": 4127,
      "ĠMAR": 4128,
      "ĠMESS": 4129,
      "uced": 4130,
      "ĠGAME": 4131,
      "ĠFE": 4132,
      "ĠFe": 4133,
      "Ġring": 4134,
      "Ġrain": 4135,
      "unity": 4136,
      "ĠLast": 4137,
      "ĠEd": 4138,
      "ells": 4139,
      "111": 4140,
      "Ġcompany": 4141,
      "Ġswear": 4142,
      "Ġthoughts": 4143,
      "Ġgreatest": 4144,
      "ĠAngel": 4145,
      "box": 4146,
      "ĠSPE": 4147,
      "NNNN": 4148,
      "Ġcopyp": 4149,
      "rupt": 4150,
      "Ġlosing": 4151,
      "Ġintellig": 4152,
      "bear": 4153,
      "ls": 4154,
      "ware": 4155,
      "ators": 4156,
      "Ġhide": 4157,
      "Ġgas": 4158,
      "Ġgoo": 4159,
      "ĠSUP": 4160,
      "oty": 4161,
      "ĠBET": 4162,
      "ĠGIR": 4163,
      "illa": 4164,
      "ĠRO": 4165,
      "Ġshout": 4166,
      "ability": 4167,
      "Ġchicken": 4168,
      "ĠJohn": 4169,
      "inked": 4170,
      "Ġsubs": 4171,
      "ASH": 4172,
      "Ġappear": 4173,
      "Ġ90": 4174,
      "apping": 4175,
      "Ġcarry": 4176,
      "Ġtravel": 4177,
      "ABLE": 4178,
      "OOOOOOOOOOOOOOOO": 4179,
      "ANANANAN": 4180,
      "Ġsmooth": 4181,
      "ĠImagine": 4182,
      "43": 4183,
      "PH": 4184,
      "UC": 4185,
      "mates": 4186,
      "par": 4187,
      "Ġtit": 4188,
      "Ġtail": 4189,
      "incess": 4190,
      "Ġsin": 4191,
      "Ġpath": 4192,
      "ley": 4193,
      "ĠSA": 4194,
      "ĠYout": 4195,
      "Ġkick": 4196,
      "cend": 4197,
      "ceed": 4198,
      "iem": 4199,
      "essed": 4200,
      "Ġprogr": 4201,
      "ĠWhite": 4202,
      "Ġcross": 4203,
      "Ġbitches": 4204,
      "Ġsimilar": 4205,
      "Ġpassed": 4206,
      "Ġweeks": 4207,
      "arently": 4208,
      "ĠGuess": 4209,
      "Ġtrained": 4210,
      "fortun": 4211,
      "Ġleaving": 4212,
      "Ġbuddy": 4213,
      "ĠBECAUSE": 4214,
      "Ġvers": 4215,
      "Ġdig": 4216,
      "Ġpel": 4217,
      "Ġlocked": 4218,
      "Ġyouve": 4219,
      "Ġnose": 4220,
      "omen": 4221,
      "ĠSub": 4222,
      "acc": 4223,
      "Ġcancer": 4224,
      "ĠJan": 4225,
      "ival": 4226,
      "Ġcringe": 4227,
      "Ġreport": 4228,
      "Ġmagn": 4229,
      "Ġcolor": 4230,
      "ĠĠĠĠĠĠĠĠĠĠĠĠĠĠĠĠĠĠĠĠĠĠĠĠĠĠĠĠĠĠĠĠĠĠĠĠĠĠĠĠĠĠĠĠĠĠĠĠĠĠĠĠĠĠĠĠĠĠĠĠĠĠĠĠ": 4231,
      "Ġinvolved": 4232,
      "Ġmachine": 4233,
      "Ġindustrial": 4234,
      "Ġrules": 4235,
      "ourgeois": 4236,
      "09": 4237,
      "iang": 4238,
      "kt": 4239,
      "set": 4240,
      "Ġtear": 4241,
      "onse": 4242,
      "Ġmu": 4243,
      "Ġfate": 4244,
      "Ġfresh": 4245,
      "Ġnor": 4246,
      "ĠAD": 4247,
      "Ġheaven": 4248,
      "acon": 4249,
      "ĠCE": 4250,
      "adow": 4251,
      "ĠWIN": 4252,
      "iring": 4253,
      "ĠGRE": 4254,
      "Ġjokes": 4255,
      "ĠNij": 4256,
      "Ġyours": 4257,
      "ague": 4258,
      "OOT": 4259,
      "oci": 4260,
      "yltyros": 4261,
      "Ġquiet": 4262,
      "Ġcommit": 4263,
      "Ġlaughed": 4264,
      "Ġdiscuss": 4265,
      "Ġmembers": 4266,
      "Ġcolle": 4267,
      "Ġpaying": 4268,
      "HEHE": 4269,
      "Ġhealth": 4270,
      "Ġspirit": 4271,
      "MENT": 4272,
      "WH": 4273,
      "rit": 4274,
      "wise": 4275,
      "inese": 4276,
      "erial": 4277,
      "Ġcart": 4278,
      "Ġthird": 4279,
      "omm": 4280,
      "ota": 4281,
      "oted": 4282,
      "ĠMic": 4283,
      "ĠHAS": 4284,
      "ustom": 4285,
      "ĠTHERE": 4286,
      "Ġworked": 4287,
      "Ġfeed": 4288,
      "Ġsaved": 4289,
      "ĠTHEIR": 4290,
      "Ġagree": 4291,
      "Ġblock": 4292,
      "Ġprec": 4293,
      "Ġdesper": 4294,
      "ĠSTR": 4295,
      "Ġgenuine": 4296,
      "Ġrecogn": 4297,
      "Ġresponse": 4298,
      "Ġauthor": 4299,
      "Ġopport": 4300,
      "ĠKeep": 4301,
      "Ġdeserve": 4302,
      "Ġpolitical": 4303,
      "IAL": 4304,
      "oom": 4305,
      "tw": 4306,
      "Ġwo": 4307,
      "Ġbene": 4308,
      "ĠInt": 4309,
      "Ġhusb": 4310,
      "aries": 4311,
      "oman": 4312,
      "ĠMore": 4313,
      "ima": 4314,
      "Ġmeant": 4315,
      "ĠDark": 4316,
      "Ġjoy": 4317,
      "ĠOver": 4318,
      "Ġlips": 4319,
      "ument": 4320,
      "iled": 4321,
      "Ġgoal": 4322,
      "ylphen": 4323,
      "Ġspin": 4324,
      "ĠUND": 4325,
      "ARR": 4326,
      "idered": 4327,
      "Ġ61": 4328,
      "Ġserve": 4329,
      "ĠZOOM": 4330,
      "ĠLIFE": 4331,
      "ĠLeg": 4332,
      "Ġcaused": 4333,
      "Ġgiant": 4334,
      "Ġskills": 4335,
      "Ġbigger": 4336,
      "Ġmarket": 4337,
      "Ġheavy": 4338,
      "ds": 4339,
      "port": 4340,
      "you": 4341,
      "rem": 4342,
      "ĠIQ": 4343,
      "Ġpush": 4344,
      "ĠSch": 4345,
      "ĠAh": 4346,
      "Ġreve": 4347,
      "raid": 4348,
      "rage": 4349,
      "pper": 4350,
      "ANE": 4351,
      "ocking": 4352,
      "Ġ23": 4353,
      "Ġprison": 4354,
      "Ġactions": 4355,
      "Ġseriously": 4356,
      "Ġdrown": 4357,
      "aws": 4358,
      "Ġshowed": 4359,
      "Ġconsidered": 4360,
      "Ġmemes": 4361,
      "Ġapolog": 4362,
      "Ġcorrect": 4363,
      "Ġoppon": 4364,
      "Ġdeterm": 4365,
      "Ġissues": 4366,
      "Ġculture": 4367,
      "Ġvirgin": 4368,
      "!?": 4369,
      "face": 4370,
      "girl": 4371,
      "night": 4372,
      "Ġ99": 4373,
      "Ġaim": 4374,
      "Ġfield": 4375,
      "Ġhoney": 4376,
      "Ġthighs": 4377,
      "Ġlock": 4378,
      "lee": 4379,
      "icate": 4380,
      "oster": 4381,
      "Ġmeu": 4382,
      "ĠGRR": 4383,
      "ĠOUR": 4384,
      "uns": 4385,
      "ĠRec": 4386,
      "ĠTheir": 4387,
      "ils": 4388,
      "OUSE": 4389,
      "ĠJe": 4390,
      "ĠUp": 4391,
      "Ġsuit": 4392,
      "ĠVap": 4393,
      "Ġgrad": 4394,
      "Ġended": 4395,
      "Ġposts": 4396,
      "ĠOnce": 4397,
      "ESSED": 4398,
      "Ġrule": 4399,
      "ĠBITE": 4400,
      "rrrr": 4401,
      "Ġexcited": 4402,
      "Ġenemy": 4403,
      "ĠAGAIN": 4404,
      "65": 4405,
      "73": 4406,
      "LING": 4407,
      "gh": 4408,
      "iod": 4409,
      "rate": 4410,
      "uit": 4411,
      "Ġwide": 4412,
      "rel": 4413,
      "Ġbother": 4414,
      "Ġbourgeois": 4415,
      "ĠII": 4416,
      "itude": 4417,
      "Ġfra": 4418,
      "ĠTAKE": 4419,
      "ĠBen": 4420,
      "ĠWas": 4421,
      "ĠWAT": 4422,
      "ĠHP": 4423,
      "ĠPER": 4424,
      "ĠOp": 4425,
      "una": 4426,
      "Ġsold": 4427,
      "ĠLONG": 4428,
      "ander": 4429,
      "ADE": 4430,
      "ĠBeat": 4431,
      "Ġentirely": 4432,
      "ylglutamin": 4433,
      "Ġdropped": 4434,
      "Ġfellow": 4435,
      "Ġ01101110": 4436,
      "ĠSpeer": 4437,
      "down": 4438,
      "ku": 4439,
      "pet": 4440,
      "Ġmons": 4441,
      "ett": 4442,
      "ĠCor": 4443,
      "ĠWAY": 4444,
      "Ġmeal": 4445,
      "ĠDream": 4446,
      "ĠRED": 4447,
      "ĠEAT": 4448,
      "Ġknife": 4449,
      "ORD": 4450,
      "Ġoffice": 4451,
      "obby": 4452,
      "Ġinches": 4453,
      "Ġgrav": 4454,
      "Ġmaterial": 4455,
      "Ġstrug": 4456,
      "UDE": 4457,
      "Ġtraining": 4458,
      "Ġtarget": 4459,
      "LF": 4460,
      "bbing": 4461,
      "chen": 4462,
      "yc": 4463,
      "hel": 4464,
      "onk": 4465,
      "Ġfed": 4466,
      "alk": 4467,
      "ĠApp": 4468,
      "ĠMost": 4469,
      "ĠMass": 4470,
      "Ġrese": 4471,
      "rope": 4472,
      "ĠPUT": 4473,
      "ĠEVEN": 4474,
      "Ġdeb": 4475,
      "Ġarm": 4476,
      "HHH": 4477,
      "aves": 4478,
      "Ġcover": 4479,
      "gling": 4480,
      "Ġappe": 4481,
      "Ġbread": 4482,
      "Ġrecently": 4483,
      "Ġpresident": 4484,
      "ylasparagin": 4485,
      "Ġsucking": 4486,
      "Ġgeneral": 4487,
      "ĠMinecraft": 4488,
      "Ġescape": 4489,
      "Ġcheeks": 4490,
      "ĠNijika": 4491,
      "KS": 4492,
      "dies": 4493,
      "jo": 4494,
      "rated": 4495,
      "zie": 4496,
      "inte": 4497,
      "Ġwip": 4498,
      "Ġwalls": 4499,
      "erg": 4500,
      "Ġbanned": 4501,
      "Ġdying": 4502,
      "Ġdanger": 4503,
      "ena": 4504,
      "ĠBre": 4505,
      "ĠMo": 4506,
      "imin": 4507,
      "Ġreleas": 4508,
      "Ġreference": 4509,
      "Ġreasons": 4510,
      "ieved": 4511,
      "Ġtrack": 4512,
      "ĠThanks": 4513,
      "Ġrole": 4514,
      "Ġaction": 4515,
      "ĠMEM": 4516,
      "Ġloves": 4517,
      "board": 4518,
      "Ġseemed": 4519,
      "Ġdrag": 4520,
      "Ġedge": 4521,
      "aaaaaaaa": 4522,
      "52": 4523,
      "74": 4524,
      "OG": 4525,
      "ih": 4526,
      "ram": 4527,
      "Ġing": 4528,
      "Ġahead": 4529,
      "Ġwow": 4530,
      "Ġbul": 4531,
      "Ġband": 4532,
      "Ġpil": 4533,
      "ases": 4534,
      "Ġnumb": 4535,
      "ays": 4536,
      "ĠMer": 4537,
      "ĠMag": 4538,
      "iden": 4539,
      "ĠWAR": 4540,
      "Ġreb": 4541,
      "oses": 4542,
      "ĠDIS": 4543,
      "Ġkit": 4544,
      "gend": 4545,
      "Ġ80": 4546,
      "ails": 4547,
      "ĠHELL": 4548,
      "Ġkeeps": 4549,
      "THING": 4550,
      "erman": 4551,
      "Ġdiffic": 4552,
      "ĠEverything": 4553,
      "ĠBLACK": 4554,
      "ĠHOES": 4555,
      "uzz": 4556,
      "Ġsuffering": 4557,
      "Ġjerk": 4558,
      "Ġincredible": 4559,
      "Ġvictim": 4560,
      "ĠHoly": 4561,
      "Ġvagina": 4562,
      "Ġinflu": 4563,
      "Ġdifficult": 4564,
      "76": 4565,
      "aos": 4566,
      "host": 4567,
      "ring": 4568,
      "ster": 4569,
      "wy": 4570,
      "Ġcos": 4571,
      "Ġdry": 4572,
      "Ġpound": 4573,
      "Ġlad": 4574,
      "ĠTV": 4575,
      "omach": 4576,
      "Ġbeating": 4577,
      "aly": 4578,
      "ĠACT": 4579,
      "ĠMOR": 4580,
      "ĠDem": 4581,
      "ĠPres": 4582,
      "stone": 4583,
      "Ġ64": 4584,
      "Ġmais": 4585,
      "ĠWhats": 4586,
      "Ġbreaking": 4587,
      "Ġmoon": 4588,
      "ĠBEEN": 4589,
      "Ġfinished": 4590,
      "Ġload": 4591,
      "Ġpossibly": 4592,
      "Ġbedroom": 4593,
      "Ġdefense": 4594,
      "Ġdefinitely": 4595,
      "Ġaware": 4596,
      "Ġhappening": 4597,
      "Ġfilm": 4598,
      "Ġfingers": 4599,
      "Ġfigure": 4600,
      "AZ": 4601,
      "BR": 4602,
      "CR": 4603,
      "IX": 4604,
      "IZZ": 4605,
      "PE": 4606,
      "Ġmal": 4607,
      "Ġpink": 4608,
      "Ġhint": 4609,
      "ork": 4610,
      "Ġlack": 4611,
      "Ġgig": 4612,
      "Ġej": 4613,
      "icit": 4614,
      "idge": 4615,
      "ami": 4616,
      "ĠCall": 4617,
      "ĠHATE": 4618,
      "ĠGL": 4619,
      "ĠGIVE": 4620,
      "ĠFin": 4621,
      "Ġram": 4622,
      "unn": 4623,
      "chan": 4624,
      "Ġvill": 4625,
      "ivil": 4626,
      "Ġteeth": 4627,
      "!!!!!!": 4628,
      "Ġtwist": 4629,
      "ĠINTO": 4630,
      "igger": 4631,
      "Ġpopulation": 4632,
      "GGGG": 4633,
      "Ġeduc": 4634,
      "Ġcollect": 4635,
      "Ġdoubt": 4636,
      "Ġpictures": 4637,
      "Ġleaves": 4638,
      "Ġachieve": 4639,
      "ĠBuild": 4640,
      "PER": 4641,
      "UAL": 4642,
      "yo": 4643,
      "Ġfu": 4644,
      "Ġdate": 4645,
      "aram": 4646,
      "owee": 4647,
      "ĠBU": 4648,
      "ĠBack": 4649,
      "ĠBaby": 4650,
      "ĠOK": 4651,
      "ummy": 4652,
      "Ġknees": 4653,
      "epend": 4654,
      "Ġclub": 4655,
      "Ġuses": 4656,
      "mente": 4657,
      "Ġcrush": 4658,
      "Ġheads": 4659,
      "otten": 4660,
      "Ġstanding": 4661,
      "Ġcontinued": 4662,
      "Ġdouble": 4663,
      "####": 4664,
      "amente": 4665,
      "Ġmasterp": 4666,
      "Ġprepare": 4667,
      "Ġdirectly": 4668,
      "Ġracist": 4669,
      "Ġafraid": 4670,
      "LES": 4671,
      "YS": 4672,
      "hood": 4673,
      "round": 4674,
      "Ġmill": 4675,
      "nda": 4676,
      "Ġoper": 4677,
      "Ġhtt": 4678,
      "Ġhosp": 4679,
      "Ġgro": 4680,
      "ushing": 4681,
      "ĠAH": 4682,
      "acting": 4683,
      "ĠCol": 4684,
      "ĠWA": 4685,
      "ĠPH": 4686,
      "Ġrage": 4687,
      "uman": 4688,
      "Ġshame": 4689,
      "uls": 4690,
      "Ġalb": 4691,
      "Ġtrust": 4692,
      "Ġproject": 4693,
      "ived": 4694,
      "tered": 4695,
      "Ġflesh": 4696,
      "ĠStar": 4697,
      "ALLTHE": 4698,
      "Ġskibidi": 4699,
      "Ġwritten": 4700,
      "Ġbelow": 4701,
      "Ġkilling": 4702,
      "ĠAround": 4703,
      "ounce": 4704,
      "Ġrepres": 4705,
      "ĠHOLE": 4706,
      "Ġfighting": 4707,
      "Ġcopy": 4708,
      "Ġvalue": 4709,
      "ĠYEARS": 4710,
      "Ġintellect": 4711,
      "Ġeggs": 4712,
      "Ġdollars": 4713,
      "ĠRussian": 4714,
      "Ġenviron": 4715,
      "Ġdoctor": 4716,
      "ĠREFER": 4717,
      "Ġhusband": 4718,
      "ALLTHEWAY": 4719,
      "NING": 4720,
      "fit": 4721,
      "iven": 4722,
      "pre": 4723,
      "yan": 4724,
      "Ġtick": 4725,
      "Ġtank": 4726,
      "Ġaint": 4727,
      "inux": 4728,
      "Ġbomb": 4729,
      "Ġcustom": 4730,
      "Ġfoc": 4731,
      "Ġfund": 4732,
      "Ġinn": 4733,
      "oma": 4734,
      "ĠSer": 4735,
      "etic": 4736,
      "ĠMel": 4737,
      "aming": 4738,
      "ĠHi": 4739,
      "Ġwhose": 4740,
      "ĠFire": 4741,
      "ecut": 4742,
      "elcome": 4743,
      "Ġshaking": 4744,
      "aped": 4745,
      "Ġclick": 4746,
      "Ġpee": 4747,
      "Ġthrust": 4748,
      "ords": 4749,
      "Ġstrange": 4750,
      "Ġconsum": 4751,
      "ĠAtt": 4752,
      "Ġpopular": 4753,
      "Ġquestions": 4754,
      "Ġsuperior": 4755,
      "Ġexpress": 4756,
      "Ġruined": 4757,
      "Ġutter": 4758,
      "Ġhigher": 4759,
      "Ġcoffee": 4760,
      "fortunately": 4761,
      "32": 4762,
      "BA": 4763,
      "TLE": 4764,
      "crib": 4765,
      "uf": 4766,
      "Ġbone": 4767,
      "atter": 4768,
      "ingly": 4769,
      "Ġpers": 4770,
      "Ġpicked": 4771,
      "Ġhol": 4772,
      "Ġgri": 4773,
      "Ġstomach": 4774,
      "ĠFrench": 4775,
      "Ġjack": 4776,
      "umber": 4777,
      "Ġconcl": 4778,
      "Ġlean": 4779,
      "Ġscen": 4780,
      "ivity": 4781,
      "Ġblast": 4782,
      "oyal": 4783,
      "ĠChar": 4784,
      "aze": 4785,
      "AKING": 4786,
      "ĠAmong": 4787,
      "Ġumm": 4788,
      "ĠSpawn": 4789,
      "Ġregul": 4790,
      "Ġregard": 4791,
      "Ġmotherfuck": 4792,
      "Ġ01101111": 4793,
      "Ġfailed": 4794,
      "ĠFREE": 4795,
      "Ġbodies": 4796,
      "Ġcollege": 4797,
      "TS": 4798,
      "mar": 4799,
      "wi": 4800,
      "ĠID": 4801,
      "Ġcore": 4802,
      "Ġfaster": 4803,
      "Ġtool": 4804,
      "ĠSER": 4805,
      "ication": 4806,
      "Ġbegg": 4807,
      "ĠAnt": 4808,
      "Ġmeas": 4809,
      "Ġstare": 4810,
      "ĠDAN": 4811,
      "Ġshape": 4812,
      "asty": 4813,
      "Ġamet": 4814,
      "Ġclosed": 4815,
      "ORY": 4816,
      "Ġunique": 4817,
      "uckle": 4818,
      "Ġsluts": 4819,
      "IGH": 4820,
      "Ġgene": 4821,
      "otta": 4822,
      "ensei": 4823,
      "Ġgaming": 4824,
      "Ġsongs": 4825,
      "ĠAnyway": 4826,
      "Ġbullshit": 4827,
      "Ġmanaged": 4828,
      "Ġcamera": 4829,
      "Ġweapons": 4830,
      "ĠSometimes": 4831,
      "Ġopportunity": 4832,
      "95": 4833,
      "bie": 4834,
      "mate": 4835,
      "pass": 4836,
      "Ġ!!!": 4837,
      "Ġpig": 4838,
      "Ġpred": 4839,
      "arp": 4840,
      "ushes": 4841,
      "ĠSIN": 4842,
      "ali": 4843,
      "otes": 4844,
      "eta": 4845,
      "ĠMIN": 4846,
      "ĠCALL": 4847,
      "Ġfort": 4848,
      "ĠPATH": 4849,
      "ĠFour": 4850,
      "ills": 4851,
      "ĠLight": 4852,
      "antic": 4853,
      "ĠRUFF": 4854,
      "iles": 4855,
      "ager": 4856,
      "110": 4857,
      "aving": 4858,
      "Ġdise": 4859,
      "Ġcrow": 4860,
      "Ġperiod": 4861,
      "IDEN": 4862,
      "Ġgenius": 4863,
      "ĠREAL": 4864,
      "........": 4865,
      "ancy": 4866,
      "apped": 4867,
      "Ġconfused": 4868,
      "Ġconstant": 4869,
      "Ġforgot": 4870,
      "ĠComm": 4871,
      "Ġsignific": 4872,
      "Ġterms": 4873,
      "Ġpressure": 4874,
      "Ġattractive": 4875,
      "Ġbecoming": 4876,
      "Ġorgasm": 4877,
      "Ġprofessional": 4878,
      "Ġaccidentally": 4879,
      "Ġstretch": 4880,
      "Ġcopypasta": 4881,
      "ĠZOOMB": 4882,
      "Ġmasterpiece": 4883,
      "PT": 4884,
      "hand": 4885,
      "ji": 4886,
      "oot": 4887,
      "pat": 4888,
      "ris": 4889,
      "rom": 4890,
      "ua": 4891,
      "Ġcast": 4892,
      "Ġpant": 4893,
      "Ġlen": 4894,
      "alo": 4895,
      "ĠAir": 4896,
      "ĠCle": 4897,
      "Ġrh": 4898,
      "ĠNAH": 4899,
      "ĠĠĠĠĠĠčĊ": 4900,
      "Ġsoi": 4901,
      "Ġ199": 4902,
      "OON": 4903,
      "Ġ27": 4904,
      "Ġens": 4905,
      "Ġplays": 4906,
      "ĠWhich": 4907,
      "Ġbrown": 4908,
      "Ġslide": 4909,
      "Ġflu": 4910,
      "ension": 4911,
      "Ġhumor": 4912,
      "Ġinsp": 4913,
      "Ġsecurity": 4914,
      "Ġcumming": 4915,
      "Ġinstall": 4916,
      "Ġfully": 4917,
      "Ġcausing": 4918,
      "Ġsniff": 4919,
      "Ġlights": 4920,
      "Ġmagic": 4921,
      "ĠMOTHERFUCK": 4922,
      "06": 4923,
      "48": 4924,
      "IOT": 4925,
      "PR": 4926,
      "cks": 4927,
      "fast": 4928,
      "Ġsight": 4929,
      "Ġmood": 4930,
      "Ġerection": 4931,
      "aled": 4932,
      "acity": 4933,
      "ĠWR": 4934,
      "cell": 4935,
      "oreon": 4936,
      "chi": 4937,
      "ĠTHOT": 4938,
      "ĠTHINK": 4939,
      "ĠTHOSE": 4940,
      "ffic": 4941,
      "ALK": 4942,
      "Ġemo": 4943,
      "ĠUnited": 4944,
      "Ġparag": 4945,
      "Ġmeth": 4946,
      "boys": 4947,
      "Ġsleeping": 4948,
      "lox": 4949,
      "Ġconstantly": 4950,
      "amming": 4951,
      "Ġstreet": 4952,
      "ĠRoblox": 4953,
      "Ġconversation": 4954,
      "Ġenvironment": 4955,
      "ĠREFERENCE": 4956,
      "IEND": 4957,
      "cking": 4958,
      "gar": 4959,
      "vy": 4960,
      "zed": 4961,
      "Ġaqu": 4962,
      "Ġmut": 4963,
      "isa": 4964,
      "Ġnis": 4965,
      "ĠSen": 4966,
      "ĠBel": 4967,
      "ĠBOO": 4968,
      "ĠHes": 4969,
      "ĠDel": 4970,
      "ĠGoo": 4971,
      "illy": 4972,
      "Ġkikes": 4973,
      "uris": 4974,
      "Ġsearch": 4975,
      "Ġnearly": 4976,
      "ula": 4977,
      "ulf": 4978,
      "anda": 4979,
      "aki": 4980,
      "Ġknowledge": 4981,
      "ARA": 4982,
      "Ġprogress": 4983,
      "izes": 4984,
      "ograph": 4985,
      "Ġrights": 4986,
      "Ġcompan": 4987,
      "ĠINS": 4988,
      "Ġdescri": 4989,
      "Ġentertain": 4990,
      "Ġbuff": 4991,
      "ILD": 4992,
      "Ġcharge": 4993,
      "Ġruns": 4994,
      "Ġbasic": 4995,
      "Ġdepend": 4996,
      "Ġtroll": 4997,
      "ĠGROW": 4998,
      "load": 4999,
      "Ġsadness": 5000,
      "Ġhungry": 5001,
      "Ġdiamond": 5002,
      "Ġcelebrate": 5003,
      "Ġepisode": 5004,
      "Ġhttps": 5005,
      "CL": 5006,
      "DOWN": 5007,
      "EEN": 5008,
      "IVER": 5009,
      "book": 5010,
      "core": 5011,
      "lier": 5012,
      "rick": 5013,
      "Ġq": 5014,
      "inct": 5015,
      "ona": 5016,
      "oni": 5017,
      "Ġmc": 5018,
      "Ġmob": 5019,
      "ites": 5020,
      "edy": 5021,
      "ĠMad": 5022,
      "imp": 5023,
      "ĠWall": 5024,
      "ĠHOUSE": 5025,
      "ĠGE": 5026,
      "ĠGON": 5027,
      "ooo": 5028,
      "Ġrate": 5029,
      "ilos": 5030,
      "ourn": 5031,
      "Ġplant": 5032,
      "Ġscre": 5033,
      "Ġgotten": 5034,
      "Ġsmoke": 5035,
      "Ġcompat": 5036,
      "Ġcrack": 5037,
      "Ġbeings": 5038,
      "OOOOOO": 5039,
      "Ġcummies": 5040,
      "ĠSHUT": 5041,
      "Ġcocks": 5042,
      "ĠReal": 5043,
      "Ġpurple": 5044,
      "Ġwinning": 5045,
      "Ġscreamed": 5046,
      "Ġanimals": 5047,
      "Ġwondering": 5048,
      "HHHHHHHHHHHHHHHH": 5049,
      "Ġsolid": 5050,
      "Ġyelled": 5051,
      "Ġindividuals": 5052,
      "ĠRemember": 5053,
      "idontgive": 5054,
      "bage": 5055,
      "cing": 5056,
      "tr": 5057,
      "try": 5058,
      "Ġcoc": 5059,
      "Ġder": 5060,
      "anish": 5061,
      "Ġharm": 5062,
      "lev": 5063,
      "ĠSU": 5064,
      "ĠHen": 5065,
      "Ġstage": 5066,
      "allow": 5067,
      "Ġrare": 5068,
      "abe": 5069,
      "Ġvs": 5070,
      "isten": 5071,
      "ARS": 5072,
      "Ġeveryday": 5073,
      "Ġclown": 5074,
      "Ġprinc": 5075,
      "Ġ60": 5076,
      "USH": 5077,
      "Ġends": 5078,
      "Ġboard": 5079,
      "Ġdicks": 5080,
      "Ġturning": 5081,
      "ĠClick": 5082,
      "Ġfreak": 5083,
      "?????": 5084,
      "EEEEEEEE": 5085,
      "ughty": 5086,
      "Ġstudent": 5087,
      "ĠCheese": 5088,
      "Ġilleg": 5089,
      "ĠDisorder": 5090,
      "Ġannoy": 5091,
      "ĠPEOP": 5092,
      "Ġstatus": 5093,
      "Ġdelete": 5094,
      "BALLLER": 5095,
      "Ġnecessary": 5096,
      "ĠLITTLE": 5097,
      "Ġslightly": 5098,
      "Ġsource": 5099,
      "93": 5100,
      "GA": 5101,
      "PS": 5102,
      "dar": 5103,
      "ket": 5104,
      "Ġta": 5105,
      "Ġske": 5106,
      "Ġmix": 5107,
      "Ġcu": 5108,
      "atory": 5109,
      "itary": 5110,
      "Ġopt": 5111,
      "ĠTop": 5112,
      "Ġeget": 5113,
      "ĠMen": 5114,
      "ĠMike": 5115,
      "ĠCUNT": 5116,
      "imately": 5117,
      "ĠWOULD": 5118,
      "Ġreact": 5119,
      "ĠHOR": 5120,
      "Ġstairs": 5121,
      "ĠPEN": 5122,
      "ĠFucking": 5123,
      "Ġrot": 5124,
      "Ġarent": 5125,
      "odes": 5126,
      "Ġcharm": 5127,
      "OUNT": 5128,
      "Ġtrouble": 5129,
      "Ġsperm": 5130,
      "Ġintrod": 5131,
      "Ġuns": 5132,
      "Ġpron": 5133,
      "onda": 5134,
      "Ġbrings": 5135,
      "Ġemoj": 5136,
      "Ġimpro": 5137,
      "Ġimpress": 5138,
      "Ġdecision": 5139,
      "ĠSHOW": 5140,
      "ĠREADY": 5141,
      "Ġmoder": 5142,
      "Ġrestaur": 5143,
      "Ġelement": 5144,
      "Ġcontroll": 5145,
      "Ġcapable": 5146,
      "UGH": 5147,
      "Ġyellow": 5148,
      "Ġfault": 5149,
      "Ġemotional": 5150,
      "ĠMAMMA": 5151,
      "Ġhospital": 5152,
      "BALLLERBALLLER": 5153,
      "IO": 5154,
      "MAS": 5155,
      "hist": 5156,
      "Ġtim": 5157,
      "Ġsir": 5158,
      "Ġwy": 5159,
      "Ġcoo": 5160,
      "Ġpit": 5161,
      "Ġpool": 5162,
      "Ġlore": 5163,
      "Ġloss": 5164,
      "ashed": 5165,
      "ĠSus": 5166,
      "ĠSec": 5167,
      "ĠAct": 5168,
      "ĠCum": 5169,
      "ĠPM": 5170,
      "ĠPet": 5171,
      "Ġkicked": 5172,
      "ĠLittle": 5173,
      "Ġseat": 5174,
      "INB": 5175,
      "Ġvita": 5176,
      "ours": 5177,
      "Ġexcl": 5178,
      "ORA": 5179,
      "Ġuser": 5180,
      "Ġ34": 5181,
      "ification": 5182,
      "Ġhorrible": 5183,
      "oooooooo": 5184,
      "ĠEnglish": 5185,
      "what": 5186,
      "00000000": 5187,
      "Ġreached": 5188,
      "Ġdestroyed": 5189,
      "ĠInstead": 5190,
      "ĠGIRL": 5191,
      "98": 5192,
      "TA": 5193,
      "tain": 5194,
      "Ġsust": 5195,
      "Ġmes": 5196,
      "Ġbacon": 5197,
      "Ġcash": 5198,
      "Ġcandy": 5199,
      "anch": 5200,
      "ener": 5201,
      "orious": 5202,
      "Ġgf": 5203,
      "alian": 5204,
      "ĠHon": 5205,
      "Ġstars": 5206,
      "ĠPot": 5207,
      "ĠPOP": 5208,
      "ĠFAT": 5209,
      "ERIC": 5210,
      "ellow": 5211,
      "Ġproceed": 5212,
      "ĠVe": 5213,
      "Ġ67": 5214,
      "Ġshouldn": 5215,
      "Ġ72": 5216,
      "Ġenter": 5217,
      "ĠQue": 5218,
      "Ġmoved": 5219,
      "Ġza": 5220,
      "Ġbelong": 5221,
      "Ġshowing": 5222,
      "Ġkills": 5223,
      "Ġextent": 5224,
      "FFFF": 5225,
      "Ġpurs": 5226,
      "Ġdifference": 5227,
      "Ġsnow": 5228,
      "Ġautom": 5229,
      "Ġlimited": 5230,
      "Ġpunish": 5231,
      "Ġchoose": 5232,
      "ĠFACE": 5233,
      "ĠUNDER": 5234,
      "BJ": 5235,
      "IZ": 5236,
      "RIST": 5237,
      "cher": 5238,
      "field": 5239,
      "flying": 5240,
      "gue": 5241,
      "know": 5242,
      "pa": 5243,
      "ruct": 5244,
      "sn": 5245,
      "wu": 5246,
      "well": 5247,
      "inger": 5248,
      "Ġded": 5249,
      "Ġdust": 5250,
      "enn": 5251,
      "arily": 5252,
      "Ġinch": 5253,
      "Ġinvent": 5254,
      "ĠBet": 5255,
      "ĠMal": 5256,
      "ĠCUNNY": 5257,
      "ĠGre": 5258,
      "ĠFIN": 5259,
      "ifying": 5260,
      "Ġrn": 5261,
      "ĠNa": 5262,
      "ĠRa": 5263,
      "ĠTheres": 5264,
      "Ġshr": 5265,
      "ĠEgg": 5266,
      "cean": 5267,
      "Ġabilities": 5268,
      "ntai": 5269,
      "Ġorange": 5270,
      "Ġconcept": 5271,
      "OUGH": 5272,
      "ATING": 5273,
      "Ġspell": 5274,
      "Ġquality": 5275,
      "ITS": 5276,
      "Ġassume": 5277,
      "Ġperhaps": 5278,
      "ĠStates": 5279,
      "Ġ01100100": 5280,
      "ording": 5281,
      "hess": 5282,
      "Ġimpact": 5283,
      "Ġhoes": 5284,
      "ĠMEOW": 5285,
      "Ġinstance": 5286,
      "bled": 5287,
      "Ġwalks": 5288,
      "Ġveh": 5289,
      "ĠIMP": 5290,
      "ĠTwo": 5291,
      "Ġstatement": 5292,
      "Ġepic": 5293,
      "Ġterrible": 5294,
      "Ġconvinc": 5295,
      "ĠCUMMIES": 5296,
      "Ġpaid": 5297,
      "Ġreceive": 5298,
      "Ġwitness": 5299,
      "ĠFreddy": 5300,
      "ĠOMG": 5301,
      "ylphenylalan": 5302,
      "ĠVaporeon": 5303,
      "Ġgradu": 5304,
      "Ġvitae": 5305,
      "GET": 5306,
      "The": 5307,
      "bur": 5308,
      "can": 5309,
      "rome": 5310,
      "Ġwis": 5311,
      "Ġmales": 5312,
      "Ġbast": 5313,
      "Ġdim": 5314,
      "Ġdress": 5315,
      "Ġdrain": 5316,
      "ĠAF": 5317,
      "ether": 5318,
      "ĠBro": 5319,
      "ĠBattle": 5320,
      "ĠMON": 5321,
      "ĠMaster": 5322,
      "ĠChed": 5323,
      "ador": 5324,
      "ĠHy": 5325,
      "ĠHERE": 5326,
      "osing": 5327,
      "iger": 5328,
      "ille": 5329,
      "urry": 5330,
      "ĠRock": 5331,
      "Ġshock": 5332,
      "Ġshitty": 5333,
      "ĠEvent": 5334,
      "Ġnote": 5335,
      "Ġwilling": 5336,
      "ATED": 5337,
      "Ġarri": 5338,
      "Ġbruh": 5339,
      "Ġbreast": 5340,
      "erta": 5341,
      "Ġsurround": 5342,
      "SELF": 5343,
      "Ġmemory": 5344,
      "Ġmessages": 5345,
      "Ġcapital": 5346,
      "Ġdriving": 5347,
      "Ġjoin": 5348,
      "Ġmasturbate": 5349,
      "ĠIndian": 5350,
      "Ġridicul": 5351,
      "Ġ01110011": 5352,
      "Ġdisappoint": 5353,
      "Ġvarious": 5354,
      "ĠMassacre": 5355,
      "DS": 5356,
      "TR": 5357,
      "ran": 5358,
      "under": 5359,
      "Ġtits": 5360,
      "heart": 5361,
      "Ġwed": 5362,
      "Ġbillion": 5363,
      "Ġfog": 5364,
      "Ġfaces": 5365,
      "Ġgy": 5366,
      "ĠTom": 5367,
      "ĠDUDE": 5368,
      "ĠPOOP": 5369,
      "ela": 5370,
      "Ġship": 5371,
      "Ġsepar": 5372,
      "ERM": 5373,
      "OOL": 5374,
      "abl": 5375,
      "Ġvoting": 5376,
      "Ġalright": 5377,
      "ĠYouT": 5378,
      "ĠKh": 5379,
      "ĠUmb": 5380,
      "Ġtherefore": 5381,
      "ĠVer": 5382,
      "ples": 5383,
      "Ġ68": 5384,
      "gles": 5385,
      "Ġremain": 5386,
      "Ġparts": 5387,
      "Ġdecide": 5388,
      "9999": 5389,
      "Ġgods": 5390,
      "ancing": 5391,
      "3333": 5392,
      "SEX": 5393,
      "Ġbeauty": 5394,
      "Ġpresence": 5395,
      "ĠAMERIC": 5396,
      "Ġburst": 5397,
      "Ġbrand": 5398,
      "Ġnames": 5399,
      "ĠCheddar": 5400,
      "'.": 5401,
      "63": 5402,
      "EY": 5403,
      "hit": 5404,
      "iu": 5405,
      "nes": 5406,
      "Ġou": 5407,
      "ĠIND": 5408,
      "org": 5409,
      "Ġthrew": 5410,
      "Ġinit": 5411,
      "icated": 5412,
      "vere": 5413,
      "Ġhentai": 5414,
      "ĠCap": 5415,
      "ĠPa": 5416,
      "ĠPra": 5417,
      "ĠOW": 5418,
      "Ġwaste": 5419,
      "Ġliked": 5420,
      "Ġshirt": 5421,
      "Ġsees": 5422,
      "ĠEp": 5423,
      "oli": 5424,
      "ĠTHR": 5425,
      "Ġvent": 5426,
      "Ġcomo": 5427,
      "Ġwanting": 5428,
      "Ġacting": 5429,
      "Ġsomewhere": 5430,
      "Ġprove": 5431,
      "Ġ73": 5432,
      "Ġbreasts": 5433,
      "Ġpersonally": 5434,
      "Ġgenital": 5435,
      "Ġpenet": 5436,
      "Ġlegal": 5437,
      "ĠBLESSED": 5438,
      "Ġregular": 5439,
      "Ġdragon": 5440,
      "Ġexperi": 5441,
      "Ġchanges": 5442,
      "IFE": 5443,
      "ĠMAMA": 5444,
      "Ġlucky": 5445,
      "ĠEurope": 5446,
      "Ġdivine": 5447,
      "Ġpsychological": 5448,
      "ĠFortnite": 5449,
      "Ġservice": 5450,
      "ĠAgain": 5451,
      "Ġgenuinely": 5452,
      "ACE": 5453,
      "LET": 5454,
      "SF": 5455,
      "erable": 5456,
      "Ġbust": 5457,
      "Ġpowers": 5458,
      "Ġgang": 5459,
      "Ġgrew": 5460,
      "ĠSay": 5461,
      "icc": 5462,
      "ĠWould": 5463,
      "ĠHa": 5464,
      "ĠDra": 5465,
      "ĠRES": 5466,
      "Ġshake": 5467,
      "ĠEver": 5468,
      "sex": 5469,
      "Ġallow": 5470,
      "Ġgoals": 5471,
      "ocial": 5472,
      "ĠJud": 5473,
      "Ġwhats": 5474,
      "AAA": 5475,
      "udes": 5476,
      "Ġmostly": 5477,
      "Ġremoved": 5478,
      "ĠSTUFF": 5479,
      "Ġbreeding": 5480,
      "iggle": 5481,
      "Ġcomplex": 5482,
      "ĠPRO": 5483,
      "Ġexists": 5484,
      "Ġsoup": 5485,
      "UGHT": 5486,
      "Ġsteel": 5487,
      "Ġfollowing": 5488,
      "ammer": 5489,
      "Ġhurts": 5490,
      "Ġsprint": 5491,
      "Ġinteresting": 5492,
      "Ġprovide": 5493,
      "Ġofficer": 5494,
      "Ġoccas": 5495,
      "Ġgarbage": 5496,
      "gulpgulp": 5497,
      "ĠFurina": 5498,
      "ĠBerlin": 5499,
      "iangling": 5500,
      "interest": 5501,
      "Ġparagraph": 5502,
      "IOUS": 5503,
      "aff": 5504,
      "but": 5505,
      "va": 5506,
      "Ġmund": 5507,
      "Ġcivil": 5508,
      "Ġflying": 5509,
      "Ġpunch": 5510,
      "Ġthy": 5511,
      "Ġnunc": 5512,
      "omfort": 5513,
      "ĠSy": 5514,
      "Ġbees": 5515,
      "ached": 5516,
      "ĠCur": 5517,
      "ĠPal": 5518,
      "ĠRos": 5519,
      "Ġdoors": 5520,
      "Ġvo": 5521,
      "Ġcontext": 5522,
      "Ġupd": 5523,
      "Ġips": 5524,
      "Ġgoon": 5525,
      "Ġsomebody": 5526,
      "Ġsua": 5527,
      "Ġscan": 5528,
      "aval": 5529,
      "ĠChinese": 5530,
      "Ġhappiness": 5531,
      "ountain": 5532,
      "ĠDef": 5533,
      "ĠDead": 5534,
      "Ġspeaking": 5535,
      "enced": 5536,
      "Ġdiscord": 5537,
      "Ġnigger": 5538,
      "Ġtempor": 5539,
      "Ġera": 5540,
      "Ġpersonality": 5541,
      "Ġrequire": 5542,
      "Ġcloser": 5543,
      "Ġactivity": 5544,
      "Ġsurvive": 5545,
      "ĠJoe": 5546,
      "ĠGolden": 5547,
      "Ġpupp": 5548,
      "78": 5549,
      "bro": 5550,
      "eed": 5551,
      "kward": 5552,
      "pri": 5553,
      "Ġtill": 5554,
      "hest": 5555,
      "Ġbank": 5556,
      "Ġcz": 5557,
      "Ġcage": 5558,
      "Ġdies": 5559,
      "Ġpour": 5560,
      "esome": 5561,
      "Ġlots": 5562,
      "Ġlying": 5563,
      "arter": 5564,
      "Ġinh": 5565,
      "lemen": 5566,
      "ĠSn": 5567,
      "ĠSam": 5568,
      "ĠSpl": 5569,
      "Ġbeg": 5570,
      "ĠMus": 5571,
      "ĠCent": 5572,
      "Ġwhist": 5573,
      "ĠDor": 5574,
      "Ġraw": 5575,
      "Ġsea": 5576,
      "ests": 5577,
      "Ġuseless": 5578,
      "Ġagre": 5579,
      "REE": 5580,
      "Ġguard": 5581,
      "Ġotherwise": 5582,
      "Ġcompre": 5583,
      "Ġthroughout": 5584,
      "icted": 5585,
      "Ġstrate": 5586,
      "Ġcares": 5587,
      "ENTION": 5588,
      "ĠDEATH": 5589,
      "Ġspecific": 5590,
      "Ġsquee": 5591,
      "ĠBALLS": 5592,
      "Ġbegins": 5593,
      "Ġmasturbating": 5594,
      "Ġdesigned": 5595,
      "ĠWilliam": 5596,
      "Ġ01101000": 5597,
      "woowee": 5598,
      "Ġ01110010": 5599,
      "Ġwonderful": 5600,
      "Ġdespite": 5601,
      "Ġfetish": 5602,
      "Ġharass": 5603,
      "Ġkitchen": 5604,
      "ĠZOOMBIE": 5605,
      "Ġlength": 5606,
      "HA": 5607,
      "ere": 5608,
      "gest": 5609,
      "xy": 5610,
      "Ġtou": 5611,
      "Ġwave": 5612,
      "ĠIP": 5613,
      "Ġcried": 5614,
      "itting": 5615,
      "Ġpage": 5616,
      "Ġpounds": 5617,
      "Ġpaper": 5618,
      "Ġhyp": 5619,
      "Ġlat": 5620,
      "Ġlink": 5621,
      "Ġloyal": 5622,
      "Ġgift": 5623,
      "Ġghost": 5624,
      "Ġni": 5625,
      "Ġnipp": 5626,
      "icide": 5627,
      "ĠBur": 5628,
      "ĠBra": 5629,
      "ĠBUR": 5630,
      "amin": 5631,
      "ĠHope": 5632,
      "Ġstood": 5633,
      "ĠDec": 5634,
      "ĠGRRR": 5635,
      "ĠFa": 5636,
      "ĠFree": 5637,
      "Ġasks": 5638,
      "Ġrab": 5639,
      "eler": 5640,
      "ĠTHAN": 5641,
      "arts": 5642,
      "Ġintense": 5643,
      "Ġquis": 5644,
      "Ġprincess": 5645,
      "Ġgrown": 5646,
      "ĠInter": 5647,
      "hhh": 5648,
      "Ġlaid": 5649,
      "Ġimpost": 5650,
      "Ġminor": 5651,
      "iko": 5652,
      "Ġdrunk": 5653,
      "Ġleftist": 5654,
      "Ġhighly": 5655,
      "Ġnaughty": 5656,
      "Ġwarning": 5657,
      "ĠGuy": 5658,
      "Ġfalling": 5659,
      "Ġbusy": 5660,
      "Ġpotential": 5661,
      "ĠGRRRRR": 5662,
      "Ġlearned": 5663,
      "Ġsilent": 5664,
      "ĠWORLD": 5665,
      "Ġattracted": 5666,
      "Ġconcern": 5667,
      "IBLE": 5668,
      "Ġmotiv": 5669,
      "ĠBETTER": 5670,
      "Ġalbum": 5671,
      "Ġinnoc": 5672,
      "ĠGONNA": 5673,
      "histid": 5674,
      "ĠEventually": 5675,
      "03": 5676,
      "04": 5677,
      "FL": 5678,
      "every": 5679,
      "house": 5680,
      "just": 5681,
      "Ġtag": 5682,
      "erous": 5683,
      "atives": 5684,
      "Ġdign": 5685,
      "Ġtod": 5686,
      "Ġhall": 5687,
      "ench": 5688,
      "Ġthirst": 5689,
      "Ġlord": 5690,
      "Ġnerv": 5691,
      "ĠTra": 5692,
      "icles": 5693,
      "ĠAW": 5694,
      "ĠBad": 5695,
      "ĠBAS": 5696,
      "ĠWait": 5697,
      "ifice": 5698,
      "ifically": 5699,
      "Ġweed": 5700,
      "ĠiP": 5701,
      "ocol": 5702,
      "Ġlegend": 5703,
      "Ġclap": 5704,
      "Ġgrou": 5705,
      "UTE": 5706,
      "Ġfucker": 5707,
      "Ġflick": 5708,
      "Ġapparently": 5709,
      "ĠShut": 5710,
      "cient": 5711,
      "Ġglu": 5712,
      "ĠREM": 5713,
      "ĠCHRIST": 5714,
      "Ġtrapped": 5715,
      "Ġunderstanding": 5716,
      "Ġcraft": 5717,
      "ĠAnyways": 5718,
      "ssss": 5719,
      "Ġbottle": 5720,
      "Ġaccounts": 5721,
      "Ġtrees": 5722,
      "Ġdemand": 5723,
      "Ġbalance": 5724,
      "IIIIIIII": 5725,
      "Ġvictory": 5726,
      "Ġperformance": 5727,
      "ĠYoutube": 5728,
      "08": 5729,
      "75": 5730,
      "KY": 5731,
      "URR": 5732,
      "iber": 5733,
      "off": 5734,
      "post": 5735,
      "vo": 5736,
      "xic": 5737,
      "Ġtam": 5738,
      "iner": 5739,
      "eria": 5740,
      "itz": 5741,
      "Ġfag": 5742,
      "Ġfasc": 5743,
      "Ġhost": 5744,
      "Ġnasty": 5745,
      "ĠTur": 5746,
      "lear": 5747,
      "Ġeth": 5748,
      "ĠSQU": 5749,
      "icient": 5750,
      "ĠAAAAA": 5751,
      "ĠMort": 5752,
      "Ġaspect": 5753,
      "ĠNob": 5754,
      "ĠListen": 5755,
      "Ġseu": 5756,
      "ĠEnd": 5757,
      "ulum": 5758,
      "ulate": 5759,
      "Ġplane": 5760,
      "ATS": 5761,
      "Ġshell": 5762,
      "ĠThus": 5763,
      "ĠKen": 5764,
      "Ġfeature": 5765,
      "teen": 5766,
      "ucks": 5767,
      "ĠInternet": 5768,
      "Ġadult": 5769,
      "UMM": 5770,
      "ĠGETTING": 5771,
      "Ġ','": 5772,
      "Ġconsist": 5773,
      "ĠGOING": 5774,
      "Ġbreaks": 5775,
      "Ġstands": 5776,
      "Ġaddress": 5777,
      "ĠFRIEND": 5778,
      "Ġproduction": 5779,
      "Ġadvice": 5780,
      "Ġjerking": 5781,
      "RRRRRRRRRRRRRRRR": 5782,
      "ĠOPEN": 5783,
      "Ġweapon": 5784,
      "Ġaroused": 5785,
      "Ġconditions": 5786,
      "Ġdefeat": 5787,
      "Ġreligion": 5788,
      "Ġratio": 5789,
      "ĠNorth": 5790,
      "ĠFinally": 5791,
      "ĠYouTube": 5792,
      "BI": 5793,
      "DICK": 5794,
      "NER": 5795,
      "OK": 5796,
      "YING": 5797,
      "gay": 5798,
      "nel": 5799,
      "pting": 5800,
      "vis": 5801,
      "hem": 5802,
      "Ġsam": 5803,
      "Ġboring": 5804,
      "Ġcab": 5805,
      "Ġcous": 5806,
      "Ġchess": 5807,
      "Ġpoo": 5808,
      "Ġpock": 5809,
      "Ġintern": 5810,
      "Ġisso": 5811,
      "ĠMU": 5812,
      "ĠCOME": 5813,
      "ĠWOM": 5814,
      "ĠHel": 5815,
      "Ġstress": 5816,
      "Ġstyle": 5817,
      "Ġstories": 5818,
      "ĠFUN": 5819,
      "illing": 5820,
      "Ġrom": 5821,
      "Ġrout": 5822,
      "Ġjar": 5823,
      "Ġjest": 5824,
      "unge": 5825,
      "ĠLong": 5826,
      "antage": 5827,
      "Ġliqu": 5828,
      "ĠRider": 5829,
      "sexual": 5830,
      "OOR": 5831,
      "Ġcham": 5832,
      "iped": 5833,
      "Ġgrowing": 5834,
      "Ġbrief": 5835,
      "acha": 5836,
      "Ġtalked": 5837,
      "lessly": 5838,
      "ĠCHE": 5839,
      "ungus": 5840,
      "Ġdefend": 5841,
      "ĠClack": 5842,
      "Ġdepth": 5843,
      "Ġawkward": 5844,
      "Ġmassacre": 5845,
      "mmmm": 5846,
      "Ġfailure": 5847,
      "Ġargon": 5848,
      "Ġburning": 5849,
      "Ġsummon": 5850,
      "Ġmanager": 5851,
      "Ġbirthday": 5852,
      "Ġthousands": 5853,
      "Ġsigma": 5854,
      "Ġmonster": 5855,
      "Ġipsum": 5856,
      "BT": 5857,
      "ban": 5858,
      "fy": 5859,
      "nam": 5860,
      "Ġtu": 5861,
      "inha": 5862,
      "Ġsection": 5863,
      "Ġbug": 5864,
      "Ġfro": 5865,
      "Ġhun": 5866,
      "Ġholes": 5867,
      "lla": 5868,
      "Ġlar": 5869,
      "Ġlem": 5870,
      "Ġgently": 5871,
      "Ġnic": 5872,
      "Ġnah": 5873,
      "usive": 5874,
      "Ġeight": 5875,
      "ĠSed": 5876,
      "Ġheh": 5877,
      "uto": 5878,
      "ĠCam": 5879,
      "ĠCAR": 5880,
      "verse": 5881,
      "ĠHIM": 5882,
      "entially": 5883,
      "ucing": 5884,
      "ĠYet": 5885,
      "ĠPAR": 5886,
      "Ġante": 5887,
      "Ġasleep": 5888,
      "urch": 5889,
      "ĠEv": 5890,
      "Ġbutter": 5891,
      "Ġvari": 5892,
      "ocide": 5893,
      "ylhistid": 5894,
      "Ġ22": 5895,
      "Ġimpl": 5896,
      "Ġunl": 5897,
      "ffff": 5898,
      "Ġblank": 5899,
      "ibulum": 5900,
      "Ġroad": 5901,
      "ucker": 5902,
      "Ġ2022": 5903,
      "Ġremove": 5904,
      "ĠSTE": 5905,
      "Ġphilos": 5906,
      "Ġowner": 5907,
      "Ġrecomm": 5908,
      "ĠAlright": 5909,
      "ierd": 5910,
      "Ġclever": 5911,
      "Ġmetal": 5912,
      "Ġdepressed": 5913,
      "??????": 5914,
      "ULT": 5915,
      "Ġcards": 5916,
      "Ġbeginning": 5917,
      "Ġforgive": 5918,
      "Ġcutting": 5919,
      "Ġcertainly": 5920,
      "ĠDisc": 5921,
      "Ġultimate": 5922,
      "Ġindustry": 5923,
      "Ġbooks": 5924,
      "Ġboobs": 5925,
      "Ġclimax": 5926,
      "Ġarrive": 5927,
      "Ġmuscles": 5928,
      "Ġninja": 5929,
      "Ġmaxim": 5930,
      "ĠPresident": 5931,
      "Ġcrowd": 5932,
      "ACT": 5933,
      "Cl": 5934,
      "een": 5935,
      "iat": 5936,
      "pers": 5937,
      "sa": 5938,
      "sen": 5939,
      "wee": 5940,
      "Ġic": 5941,
      "Ġ00": 5942,
      "Ġbite": 5943,
      "Ġfol": 5944,
      "Ġoil": 5945,
      "Ġpump": 5946,
      "Ġhook": 5947,
      "Ġhits": 5948,
      "Ġgall": 5949,
      "Ġnod": 5950,
      "ĠTim": 5951,
      "oms": 5952,
      "ĠSil": 5953,
      "ĠSure": 5954,
      "ĠBoy": 5955,
      "ĠHerta": 5956,
      "ĠFIVE": 5957,
      "Ġjail": 5958,
      "Ġwash": 5959,
      "ĠLBJ": 5960,
      "ĠRU": 5961,
      "ĠRing": 5962,
      "ops": 5963,
      "ĠEND": 5964,
      "Ġabort": 5965,
      "Ġaliqu": 5966,
      "Ġscience": 5967,
      "Ġoffer": 5968,
      "Ġnowhere": 5969,
      "Ġprzy": 5970,
      "ASTER": 5971,
      "ĠIns": 5972,
      "ĠCharm": 5973,
      "Ġperman": 5974,
      "AMN": 5975,
      "Ġpoke": 5976,
      "Ġskull": 5977,
      "Ġpartner": 5978,
      "ighter": 5979,
      "Ġbreed": 5980,
      "AKES": 5981,
      "Ġconsid": 5982,
      "Ġloaded": 5983,
      "bye": 5984,
      "Ġhearing": 5985,
      "Ġfurry": 5986,
      "Ġfilthy": 5987,
      "Ġangel": 5988,
      "Ġargument": 5989,
      "Ġphysically": 5990,
      "Ġsuffer": 5991,
      "Ġgrabbed": 5992,
      "Ġequal": 5993,
      "Ġfaith": 5994,
      "Ġlaws": 5995,
      "Ġfootball": 5996,
      "Ġscratch": 5997,
      "Ġmajority": 5998,
      "ĠGeorge": 5999,
      "77777777": 6000,
      "Ġtorture": 6001,
      "ĠJanus": 6002,
      "ĠBuilding": 6003,
      "Ġdisease": 6004,
      "Ġrestaurant": 6005,
      "sniff": 6006,
      "01": 6007,
      "05": 6008,
      "BARK": 6009,
      "iers": 6010,
      "met": 6011,
      "vation": 6012,
      "Ġmim": 6013,
      "erve": 6014,
      "Ġocean": 6015,
      "Ġdare": 6016,
      "Ġpic": 6017,
      "Ġhips": 6018,
      "ori": 6019,
      "Ġlady": 6020,
      "ashing": 6021,
      "ĠSum": 6022,
      "ĠAI": 6023,
      "ĠWant": 6024,
      "ĠHouse": 6025,
      "osa": 6026,
      "ĠPoke": 6027,
      "uri": 6028,
      "urple": 6029,
      "ĠLES": 6030,
      "anto": 6031,
      "Ġlived": 6032,
      "ĠRo": 6033,
      "ilia": 6034,
      "Ġframe": 6035,
      "estibulum": 6036,
      "Ġplac": 6037,
      "Ġalg": 6038,
      "Ġworsh": 6039,
      "Ġnoise": 6040,
      "Ġclock": 6041,
      "Ġqual": 6042,
      "ĠVER": 6043,
      "Ġblame": 6044,
      "Ġflowers": 6045,
      "Ġaddit": 6046,
      "ĠStill": 6047,
      "Ġ2025": 6048,
      "Ġtwenty": 6049,
      "ontroll": 6050,
      "Ġaccom": 6051,
      "ĠSpong": 6052,
      "unday": 6053,
      "Ġhitting": 6054,
      "ĠSPANK": 6055,
      "Ġdepression": 6056,
      "ABY": 6057,
      "ieces": 6058,
      "Ġcreating": 6059,
      "ĠTRUMP": 6060,
      "Ġattacks": 6061,
      "Ġavail": 6062,
      "cystein": 6063,
      "Ġsummer": 6064,
      "iques": 6065,
      "Ġstreets": 6066,
      "Ġcritic": 6067,
      "Ġtypes": 6068,
      "Ġcondition": 6069,
      "ĠSWE": 6070,
      "Ġnegative": 6071,
      "Ġintelligent": 6072,
      "Ġrepresent": 6073,
      "ĠGROWL": 6074,
      "Ġillegal": 6075,
      "81": 6076,
      "92": 6077,
      "KT": 6078,
      "LT": 6079,
      "TIEST": 6080,
      "XT": 6081,
      "cia": 6082,
      "kn": 6083,
      "meth": 6084,
      "rant": 6085,
      "uing": 6086,
      "uke": 6087,
      "wood": 6088,
      "xi": 6089,
      "Ġsle": 6090,
      "rete": 6091,
      "itions": 6092,
      "itution": 6093,
      "Ġom": 6094,
      "Ġow": 6095,
      "Ġtomor": 6096,
      "ĠTri": 6097,
      "Ġears": 6098,
      "Ġevolution": 6099,
      "ĠSand": 6100,
      "aching": 6101,
      "ĠMason": 6102,
      "ader": 6103,
      "ĠHit": 6104,
      "ĠHol": 6105,
      "Ġstock": 6106,
      "ĠDING": 6107,
      "ĠDonda": 6108,
      "Ġhah": 6109,
      "Ġrip": 6110,
      "ĠOl": 6111,
      "ural": 6112,
      "Ġlies": 6113,
      "uma": 6114,
      "ĠEU": 6115,
      "agon": 6116,
      "Ġdear": 6117,
      "Ġfrust": 6118,
      "ĠTHING": 6119,
      "ATO": 6120,
      "Ġsheer": 6121,
      "arden": 6122,
      "ĠItalian": 6123,
      "Ġanytime": 6124,
      "iper": 6125,
      "ichan": 6126,
      "Ġthrowing": 6127,
      "Ġflag": 6128,
      "Ġcrimes": 6129,
      "Ġtwice": 6130,
      "Ġdesire": 6131,
      "Ġloving": 6132,
      "ĠDOES": 6133,
      "Ġbreakfast": 6134,
      "Ġfemin": 6135,
      "Ġsetting": 6136,
      "Ġirre": 6137,
      "Ġstudents": 6138,
      "Ġraised": 6139,
      "Ġjuicy": 6140,
      "Ġshopping": 6141,
      "Ġmirror": 6142,
      "Ġfalse": 6143,
      "ĠATTENTION": 6144,
      "Ġopponent": 6145,
      "Ġpronoun": 6146,
      ".,": 6147,
      "ME": 6148,
      "cor": 6149,
      "zo": 6150,
      "heem": 6151,
      "inho": 6152,
      "Ġbol": 6153,
      "Ġcri": 6154,
      "Ġpark": 6155,
      "Ġpushed": 6156,
      "Ġhi": 6157,
      "Ġlac": 6158,
      "ĠCal": 6159,
      "ĠWTF": 6160,
      "ĠWIFE": 6161,
      "Ġreaction": 6162,
      "ĠHor": 6163,
      "ĠHog": 6164,
      "ĠDM": 6165,
      "uclear": 6166,
      "ĠFre": 6167,
      "Ġrape": 6168,
      "Ġwebs": 6169,
      "ĠEve": 6170,
      "Ġate": 6171,
      "agram": 6172,
      "Ġplaces": 6173,
      "aken": 6174,
      "elly": 6175,
      "ĠJack": 6176,
      "ĠJES": 6177,
      "ĠKar": 6178,
      "Ġunable": 6179,
      "ISE": 6180,
      "ĠTOP": 6181,
      "Ġassist": 6182,
      "Ġslur": 6183,
      "Ġcompared": 6184,
      "Ġsword": 6185,
      "Ġimpre": 6186,
      "Ġappears": 6187,
      "Ġzero": 6188,
      "Ġbunda": 6189,
      "Ġbooty": 6190,
      "Ġwrote": 6191,
      "awa": 6192,
      "AHA": 6193,
      "IMP": 6194,
      "KEY": 6195,
      "aneously": 6196,
      "Ġpossess": 6197,
      "Ġcrypt": 6198,
      "ĠFrank": 6199,
      "Ġpulls": 6200,
      "Ġmissing": 6201,
      "Ġadded": 6202,
      "ĠNext": 6203,
      "Ġhesit": 6204,
      "Ġnumerous": 6205,
      "ribution": 6206,
      "Ġ01101100": 6207,
      "IVING": 6208,
      "HOE": 6209,
      "Ġgender": 6210,
      "Ġboner": 6211,
      "Ġejacul": 6212,
      "Ġbegging": 6213,
      "ĠGoogle": 6214,
      "ĠPEOPLE": 6215,
      "ĠHORNY": 6216,
      "Ġemoji": 6217,
      "Ġaccompl": 6218,
      "','": 6219,
      "500": 6220,
      "FUL": 6221,
      "ca": 6222,
      "dicks": 6223,
      "long": 6224,
      "och": 6225,
      "ruction": 6226,
      "uj": 6227,
      "ule": 6228,
      "vest": 6229,
      "Ġtact": 6230,
      "Ġws": 6231,
      "Ġfirm": 6232,
      "Ġdur": 6233,
      "Ġlines": 6234,
      "ĠTell": 6235,
      "ĠSANE": 6236,
      "ĠBas": 6237,
      "aches": 6238,
      "ĠMAY": 6239,
      "ĠMany": 6240,
      "ĠCS": 6241,
      "ĠCOL": 6242,
      "ĠWatch": 6243,
      "entes": 6244,
      "ĠGar": 6245,
      "ĠLinux": 6246,
      "rael": 6247,
      "Ġvirt": 6248,
      "Ġplus": 6249,
      "Ġplaced": 6250,
      "andon": 6251,
      "Ġexf": 6252,
      "ARF": 6253,
      "inky": 6254,
      "ortex": 6255,
      "Ġscore": 6256,
      "EEE": 6257,
      "Ġ400": 6258,
      "Ġletters": 6259,
      "Ġpoison": 6260,
      "1011": 6261,
      "ĠWHITE": 6262,
      "Ġboom": 6263,
      "Ġstruct": 6264,
      "IRED": 6265,
      "ĠSpec": 6266,
      "ĠDev": 6267,
      "Ġconfir": 6268,
      "Ġawesome": 6269,
      "Ġestabl": 6270,
      "Ġhonor": 6271,
      "Ġhorror": 6272,
      "Ġruin": 6273,
      "Ġiron": 6274,
      "ĠBUTT": 6275,
      "Ġidiots": 6276,
      "ĠEXPL": 6277,
      "Ġhoping": 6278,
      "Ġmiserable": 6279,
      "TTTT": 6280,
      "Ġcircum": 6281,
      "Ġrubber": 6282,
      "Ġencou": 6283,
      "Ġmerely": 6284,
      "ĠWOAH": 6285,
      "Ġsurprise": 6286,
      "Ġrapid": 6287,
      "Ġprogram": 6288,
      "Ġintellectual": 6289,
      "Ġscreens": 6290,
      "everyone": 6291,
      "Ġthirsty": 6292,
      "Ġgroups": 6293,
      "Ġtomorrow": 6294,
      "cil": 6295,
      "dro": 6296,
      "iable": 6297,
      "linked": 6298,
      "wd": 6299,
      "inity": 6300,
      "Ġtherap": 6301,
      "Ġbum": 6302,
      "Ġbound": 6303,
      "atically": 6304,
      "anny": 6305,
      "Ġtow": 6306,
      "Ġnation": 6307,
      "ĠTOO": 6308,
      "Ġerect": 6309,
      "ĠSan": 6310,
      "ĠSensei": 6311,
      "ĠSunday": 6312,
      "ĠAcc": 6313,
      "ĠBiden": 6314,
      "ĠMAG": 6315,
      "ĠMOD": 6316,
      "ĠWAN": 6317,
      "ĠWERE": 6318,
      "Ġstaring": 6319,
      "ĠGirl": 6320,
      "Ġshy": 6321,
      "Ġabuse": 6322,
      "OOO": 6323,
      "acker": 6324,
      "Ġexerc": 6325,
      "Ġalarm": 6326,
      "ĠKE": 6327,
      "ĠKore": 6328,
      "ĠUH": 6329,
      "ĠUlt": 6330,
      "Ġ21": 6331,
      "Ġanyways": 6332,
      "Ġmanage": 6333,
      "Ġscrew": 6334,
      "Ġoverw": 6335,
      "avy": 6336,
      "Ġassum": 6337,
      "Ġbrill": 6338,
      "Ġsexually": 6339,
      "ahaha": 6340,
      "Ġteen": 6341,
      "ĠStr": 6342,
      "Ġgameplay": 6343,
      "Ġletting": 6344,
      "Ġ011000": 6345,
      "Ġtwitch": 6346,
      "Ġunderw": 6347,
      "Ġremem": 6348,
      "ĠHEL": 6349,
      "Ġglorious": 6350,
      "ĠREALLY": 6351,
      "Ġposting": 6352,
      "ĠSpy": 6353,
      "Ġmode": 6354,
      "Ġgamer": 6355,
      "Ġcrap": 6356,
      "Ġobvious": 6357,
      "iori": 6358,
      "Ġhorr": 6359,
      "ĠSLUTTY": 6360,
      "Ġtransform": 6361,
      "Ġloser": 6362,
      "Ġbabies": 6363,
      "Ġdolor": 6364,
      "ĠBREAKDOWN": 6365,
      "Ġbelly": 6366,
      "Ġstruggle": 6367,
      "Ġdangerous": 6368,
      "Ġreleased": 6369,
      "Ġconclusion": 6370,
      "ĠMOTHERFUCKING": 6371,
      "ĠHenry": 6372,
      "Ġimpressive": 6373,
      "Ġconvinced": 6374,
      "ĠAFTER": 6375,
      "BL": 6376,
      "VING": 6377,
      "bow": 6378,
      "gen": 6379,
      "has": 6380,
      "ias": 6381,
      "po": 6382,
      "rup": 6383,
      "uous": 6384,
      "Ġive": 6385,
      "Ġtas": 6386,
      "Ġtent": 6387,
      "ini": 6388,
      "inem": 6389,
      "Ġflex": 6390,
      "Ġdut": 6391,
      "Ġpity": 6392,
      "Ġtoy": 6393,
      "Ġled": 6394,
      "Ġlunch": 6395,
      "Ġgal": 6396,
      "ĠSim": 6397,
      "Ġbeast": 6398,
      "aline": 6399,
      "Ġhehe": 6400,
      "acle": 6401,
      "ĠMod": 6402,
      "ĠMart": 6403,
      "ĠMEN": 6404,
      "ĠWow": 6405,
      "ĠWater": 6406,
      "Ġreview": 6407,
      "ente": 6408,
      "ĠPart": 6409,
      "ĠNIGHT": 6410,
      "ĠĠĠĠĠĠĠĠčĊ": 6411,
      "INT": 6412,
      "ago": 6413,
      "ERT": 6414,
      "Ġalph": 6415,
      "ANCE": 6416,
      "oco": 6417,
      "ĠKam": 6418,
      "Ġsuicide": 6419,
      "Ġbackground": 6420,
      "Ġgrace": 6421,
      "ulla": 6422,
      "ĠStone": 6423,
      "enshin": 6424,
      "Ġinsert": 6425,
      "rences": 6426,
      "glutam": 6427,
      "Ġ70": 6428,
      "Ġputs": 6429,
      "Ġmoments": 6430,
      "Ġmatters": 6431,
      "Ġleftists": 6432,
      "Ġfinding": 6433,
      "ĠRekt": 6434,
      "Ġexplained": 6435,
      "Ġregret": 6436,
      "ĠBrit": 6437,
      "Ġsending": 6438,
      "Ġfavour": 6439,
      "ĠBRUH": 6440,
      "Ġdela": 6441,
      "Ġprofile": 6442,
      "ĠDROP": 6443,
      "Ġuncle": 6444,
      "Ġthrobbing": 6445,
      "Ġwarmth": 6446,
      "Ġactivities": 6447,
      "Ġearlier": 6448,
      "ĠBarry": 6449,
      "Ġapartment": 6450,
      "Ġsacr": 6451,
      "Ġchallenge": 6452,
      "ĠMOMMY": 6453,
      "ĠSUPER": 6454,
      "Ġnumbers": 6455,
      "Ġannoying": 6456,
      "Ġinnocent": 6457,
      "Ġargonians": 6458,
      "!.": 6459,
      "42": 6460,
      "BE": 6461,
      "au": 6462,
      "cz": 6463,
      "fish": 6464,
      "ras": 6465,
      "xx": 6466,
      "Ġtap": 6467,
      "Ġmate": 6468,
      "ĠIron": 6469,
      "Ġcave": 6470,
      "Ġcouch": 6471,
      "isions": 6472,
      "Ġthou": 6473,
      "ĠSOL": 6474,
      "ĠAbs": 6475,
      "etet": 6476,
      "ĠWood": 6477,
      "ĠHOM": 6478,
      "ĠHALL": 6479,
      "ĠHoney": 6480,
      "Ġwhore": 6481,
      "Ġforth": 6482,
      "ĠDA": 6483,
      "ĠDick": 6484,
      "ĠDown": 6485,
      "ĠYork": 6486,
      "ĠGot": 6487,
      "ĠFem": 6488,
      "Ġast": 6489,
      "eline": 6490,
      "ĠLife": 6491,
      "ĠRA": 6492,
      "ila": 6493,
      "Ġneither": 6494,
      "Ġven": 6495,
      "Ġtrade": 6496,
      "ylmeth": 6497,
      "ĠUnder": 6498,
      "indo": 6499,
      "respect": 6500,
      "Ġarrest": 6501,
      "Ġunn": 6502,
      "ETH": 6503,
      "yss": 6504,
      "OTT": 6505,
      "Ġteach": 6506,
      "Ġ47": 6507,
      "Ġswing": 6508,
      "ĠSTILL": 6509,
      "Ġmoans": 6510,
      "Ġdrinking": 6511,
      "ĠCHIN": 6512,
      "ĠAlthough": 6513,
      "UDAM": 6514,
      "Ġsubtle": 6515,
      "Ġolder": 6516,
      "Ġtrap": 6517,
      "ĠXiangling": 6518,
      "Ġmodel": 6519,
      "Ġfemales": 6520,
      "Ġcourt": 6521,
      "annel": 6522,
      "Ġmissed": 6523,
      "ĠMex": 6524,
      "utsu": 6525,
      "Ġfurries": 6526,
      "Ġfallen": 6527,
      "www": 6528,
      "Ġbreathe": 6529,
      "Ġraise": 6530,
      "Ġmeeting": 6531,
      "Ġtouching": 6532,
      "ĠWORK": 6533,
      "Ġexpected": 6534,
      "Ġcircle": 6535,
      "Ġgoddess": 6536,
      "ĠCUMMING": 6537,
      "Ġrisk": 6538,
      "Ġwaif": 6539,
      "Ġcombat": 6540,
      "Ġignore": 6541,
      "iversity": 6542,
      "Ġpractice": 6543,
      "KKKKKKKK": 6544,
      "ĠDesp": 6545,
      "Ġtitle": 6546,
      "Ġversion": 6547,
      "Ġdesperate": 6548,
      "ĠWATCH": 6549,
      "Ġmotherfucker": 6550,
      "Ġimpregn": 6551,
      "',": 6552,
      "41": 6553,
      "bies": 6554,
      "con": 6555,
      "ws": 6556,
      "yth": 6557,
      "Ġaxb": 6558,
      "hered": 6559,
      "inch": 6560,
      "Ġsap": 6561,
      "Ġsink": 6562,
      "Ġsite": 6563,
      "Ġsne": 6564,
      "Ġbxc": 6565,
      "Ġbxa": 6566,
      "Ġcub": 6567,
      "Ġcats": 6568,
      "Ġcxb": 6569,
      "Ġcxd": 6570,
      "Ġfle": 6571,
      "Ġfxe": 6572,
      "Ġfxg": 6573,
      "Ġfulf": 6574,
      "Ġoption": 6575,
      "Ġdia": 6576,
      "Ġdxc": 6577,
      "Ġdxe": 6578,
      "anking": 6579,
      "Ġhxg": 6580,
      "Ġgxf": 6581,
      "Ġgxh": 6582,
      "ĠTik": 6583,
      "Ġearn": 6584,
      "ĠAP": 6585,
      "aya": 6586,
      "ĠCont": 6587,
      "Ġrats": 6588,
      "Ġjumps": 6589,
      "anted": 6590,
      "ĠER": 6591,
      "iler": 6592,
      "Ġallowing": 6593,
      "Ġexd": 6594,
      "Ġtries": 6595,
      "ĠThree": 6596,
      "ĠJew": 6597,
      "aping": 6598,
      "aret": 6599,
      "rio": 6600,
      "Ġmanip": 6601,
      "Ġpride": 6602,
      "Ġ55": 6603,
      "OWS": 6604,
      "ĠInf": 6605,
      "ĠShes": 6606,
      "Ġpercent": 6607,
      "ĠWHERE": 6608,
      "Ġ79": 6609,
      "Ġchem": 6610,
      "Ġbuying": 6611,
      "Ġdrug": 6612,
      "Ġglad": 6613,
      "uffy": 6614,
      "oken": 6615,
      "Ġposted": 6616,
      "Ġpulling": 6617,
      "Ġdiscovered": 6618,
      "Ġretard": 6619,
      "ĠBRO": 6620,
      "Ġhello": 6621,
      "ĠYEAH": 6622,
      "Ġforgotten": 6623,
      "ĠPrime": 6624,
      "Ġinterested": 6625,
      "Ġsatisfy": 6626,
      "expected": 6627,
      "Ġultric": 6628,
      "Ġdevelopment": 6629,
      "ĠMonika": 6630,
      "Ġreplied": 6631,
      "Ġpretending": 6632,
      "Ġbatter": 6633,
      "Ġparticular": 6634,
      "mission": 6635,
      "Ġdolph": 6636,
      "Ġmurder": 6637,
      "Ġinfluence": 6638,
      "Ġeducation": 6639,
      "Ġfocus": 6640,
      "Ġholiday": 6641,
      "Ġwhistle": 6642,
      "Ġnervous": 6643,
      "Ġphilosoph": 6644,
      "Ġconsidering": 6645,
      "Ġavailable": 6646,
      "GO": 6647,
      "KI": 6648,
      "St": 6649,
      "TUB": 6650,
      "gic": 6651,
      "gent": 6652,
      "mind": 6653,
      "ners": 6654,
      "uber": 6655,
      "wr": 6656,
      "with": 6657,
      "hend": 6658,
      "Ġsan": 6659,
      "Ġmock": 6660,
      "Ġbones": 6661,
      "Ġcher": 6662,
      "atin": 6663,
      "atron": 6664,
      "Ġdild": 6665,
      "Ġdaw": 6666,
      "Ġpub": 6667,
      "arc": 6668,
      "ĠTIM": 6669,
      "alous": 6670,
      "ĠBon": 6671,
      "ĠCa": 6672,
      "ĠCe": 6673,
      "ĠHigh": 6674,
      "ĠDue": 6675,
      "ĠFOUR": 6676,
      "ĠEle": 6677,
      "ĠEaster": 6678,
      "ilty": 6679,
      "ights": 6680,
      "agn": 6681,
      "ista": 6682,
      "OUTH": 6683,
      "Ġexecut": 6684,
      "ĠJer": 6685,
      "ĠUr": 6686,
      "Ġsav": 6687,
      "Ġprost": 6688,
      "ĠTODAY": 6689,
      "peration": 6690,
      "Ġ500": 6691,
      "OWEEN": 6692,
      "Ġprem": 6693,
      "Ġcrime": 6694,
      "Ġ2024": 6695,
      "Ġtwink": 6696,
      "Ġtalent": 6697,
      "Ġapplic": 6698,
      "Ġincest": 6699,
      "ĠSTART": 6700,
      "ĠBEL": 6701,
      "Ġfunction": 6702,
      "Ġkeeping": 6703,
      "Ġcareful": 6704,
      "ĠLIVE": 6705,
      "ĠDOINB": 6706,
      "Ġconfl": 6707,
      "Ġdrops": 6708,
      "Ġdeeply": 6709,
      "AAAAAAAAAAAA": 6710,
      "Ġcountless": 6711,
      "Ġmissile": 6712,
      "Ġfrequ": 6713,
      "ĠGuard": 6714,
      "Ġsteal": 6715,
      "Ġgenerally": 6716,
      "ĠComp": 6717,
      "Ġuncomfort": 6718,
      "Ġbrothers": 6719,
      "Ġcalcul": 6720,
      "ĠLOAD": 6721,
      "Ġhopes": 6722,
      "Ġlocation": 6723,
      "Ġprepared": 6724,
      "MMMMMMMM": 6725,
      "Ġsuccessful": 6726,
      "Ġfantas": 6727,
      "Ġdeclines": 6728,
      "Ġcomfortable": 6729,
      "Ġrecognize": 6730,
      "Ġpilot": 6731,
      "ORAORA": 6732,
      "ĠVeget": 6733,
      "ĠQueen": 6734,
      "Ġridiculous": 6735,
      "hearted": 6736,
      "82": 6737,
      "FR": 6738,
      "care": 6739,
      "ray": 6740,
      "rict": 6741,
      "uis": 6742,
      "uada": 6743,
      "inated": 6744,
      "Ġwra": 6745,
      "Ġmort": 6746,
      "Ġmath": 6747,
      "erior": 6748,
      "Ġbored": 6749,
      "Ġfer": 6750,
      "Ġdop": 6751,
      "Ġdip": 6752,
      "Ġple": 6753,
      "Ġhidden": 6754,
      "Ġlit": 6755,
      "Ġlob": 6756,
      "Ġnarr": 6757,
      "Ġnuclear": 6758,
      "ĠTA": 6759,
      "leton": 6760,
      "ĠSur": 6761,
      "ĠSCH": 6762,
      "owa": 6763,
      "ĠBAN": 6764,
      "ĠHAD": 6765,
      "ĠHAND": 6766,
      "ĠDest": 6767,
      "ĠDab": 6768,
      "ĠFace": 6769,
      "ĠFIRE": 6770,
      "Ġash": 6771,
      "Ġrif": 6772,
      "Ġjog": 6773,
      "ĠLou": 6774,
      "ĠRAW": 6775,
      "estly": 6776,
      "Ġvast": 6777,
      "Ġchop": 6778,
      "ourse": 6779,
      "Ġplate": 6780,
      "Ġalthough": 6781,
      "ANC": 6782,
      "Ġworried": 6783,
      "elling": 6784,
      "ĠKILL": 6785,
      "aste": 6786,
      "rier": 6787,
      "Ġamb": 6788,
      "ITCH": 6789,
      "udo": 6790,
      "Ġprime": 6791,
      "ogus": 6792,
      "ptoph": 6793,
      "Ġdownv": 6794,
      "Ġdiss": 6795,
      "Ġtele": 6796,
      "Ġflat": 6797,
      "reek": 6798,
      "Ġinsult": 6799,
      "bered": 6800,
      "hoho": 6801,
      "ĠForce": 6802,
      "Ġ911": 6803,
      "black": 6804,
      "Ġliteral": 6805,
      "axy": 6806,
      "Ġweeke": 6807,
      "Ġcurs": 6808,
      "Ġpurch": 6809,
      "Ġideas": 6810,
      "ĠMario": 6811,
      "Ġtechniques": 6812,
      "ĠDonec": 6813,
      "Ġlevels": 6814,
      "Ġbringing": 6815,
      "Ġfollowed": 6816,
      "Ġvalid": 6817,
      "Ġforgor": 6818,
      "Ġrequired": 6819,
      "Ġrequires": 6820,
      "white": 6821,
      "Ġemotions": 6822,
      "Ġterror": 6823,
      "Ġparticip": 6824,
      "Ġrepeated": 6825,
      "Ġnetwork": 6826,
      "Ġeternal": 6827,
      "Ġeconomy": 6828,
      "ĠEDIT": 6829,
      "ĠCEO": 6830,
      "Ġprincip": 6831,
      "ĠBetter": 6832,
      "UDAMUDAM": 6833,
      "SO": 6834,
      "SR": 6835,
      "dum": 6836,
      "ju": 6837,
      "hell": 6838,
      "Ġsized": 6839,
      "oul": 6840,
      "Ġcud": 6841,
      "atar": 6842,
      "isp": 6843,
      "isse": 6844,
      "Ġfif": 6845,
      "Ġlig": 6846,
      "Ġlone": 6847,
      "Ġyoun": 6848,
      "ĠTurn": 6849,
      "ĠSUMM": 6850,
      "owe": 6851,
      "ĠBI": 6852,
      "idunt": 6853,
      "ĠCC": 6854,
      "ĠCould": 6855,
      "ĠCra": 6856,
      "ĠCons": 6857,
      "ĠCOULD": 6858,
      "ĠWin": 6859,
      "Ġstone": 6860,
      "ĠDIE": 6861,
      "ĠDEEP": 6862,
      "ĠYES": 6863,
      "ĠPar": 6864,
      "ĠFarm": 6865,
      "Ġrational": 6866,
      "eled": 6867,
      "ĠOut": 6868,
      "stan": 6869,
      "Ġshown": 6870,
      "ested": 6871,
      "Ġupv": 6872,
      "Ġextend": 6873,
      "Ġtrigger": 6874,
      "ellentes": 6875,
      "ylcystein": 6876,
      "ĠHeaven": 6877,
      "Ġunlike": 6878,
      "ITA": 6879,
      "ĠVan": 6880,
      "ISM": 6881,
      "avor": 6882,
      "ĠChamp": 6883,
      "Ġcontr": 6884,
      "iance": 6885,
      "Ġ2021": 6886,
      "Ġappl": 6887,
      "azed": 6888,
      "Ġendless": 6889,
      "Ġowners": 6890,
      "Ġglob": 6891,
      "ĠPLAN": 6892,
      "Ġbelie": 6893,
      "Ġgreater": 6894,
      "ĠNOTHING": 6895,
      "grade": 6896,
      "Ġspecies": 6897,
      "Ġeasier": 6898,
      "Ġopening": 6899,
      "Ġdeliver": 6900,
      "Ġdelicious": 6901,
      "Ġtechnological": 6902,
      "Ġpainful": 6903,
      "ĠUSA": 6904,
      "nnnn": 6905,
      "ONEY": 6906,
      "Ġadvantage": 6907,
      "Ġevidence": 6908,
      "Ġargue": 6909,
      "Ġguns": 6910,
      "HOLE": 6911,
      "Ġdeserves": 6912,
      "Ġaffect": 6913,
      "ilarious": 6914,
      "Ġpanic": 6915,
      "Ġconsequences": 6916,
      "Ġphotos": 6917,
      "Ġmuito": 6918,
      "flyingdicks": 6919,
      "ĠNobody": 6920,
      "ĠPokemon": 6921,
      "Ġconfirmed": 6922,
      "ĠWANNA": 6923,
      "ellentesque": 6924,
      "31": 6925,
      "IED": 6926,
      "SG": 6927,
      "aus": 6928,
      "hot": 6929,
      "mit": 6930,
      "mber": 6931,
      "Ġtier": 6932,
      "Ġtinc": 6933,
      "Ġawe": 6934,
      "Ġsag": 6935,
      "ouche": 6936,
      "Ġwings": 6937,
      "Ġcells": 6938,
      "Ġfishing": 6939,
      "Ġdas": 6940,
      "Ġdab": 6941,
      "anos": 6942,
      "Ġpuss": 6943,
      "Ġpieces": 6944,
      "Ġlou": 6945,
      "aro": 6946,
      "Ġnail": 6947,
      "Ġinj": 6948,
      "ĠSir": 6949,
      "ĠSING": 6950,
      "utions": 6951,
      "ĠMed": 6952,
      "ĠMuch": 6953,
      "ĠMIA": 6954,
      "ĠCel": 6955,
      "ĠCong": 6956,
      "ĠCity": 6957,
      "ados": 6958,
      "ĠWhe": 6959,
      "ĠHOP": 6960,
      "Ġstained": 6961,
      "ĠDES": 6962,
      "ĠDiam": 6963,
      "ĠGreen": 6964,
      "ĠPo": 6965,
      "ĠPOL": 6966,
      "Ġanus": 6967,
      "Ġrush": 6968,
      "ĠOB": 6969,
      "ĠOff": 6970,
      "ĠOTH": 6971,
      "ĠNone": 6972,
      "Ġvan": 6973,
      "Ġexch": 6974,
      "Ġalt": 6975,
      "ĠKel": 6976,
      "yltry": 6977,
      "Ġspect": 6978,
      "Ġlear": 6979,
      "ENC": 6980,
      "Ġameric": 6981,
      "Ġarch": 6982,
      "Ġarmor": 6983,
      "Ġlookin": 6984,
      "Ġprevious": 6985,
      "Ġflow": 6986,
      "ALI": 6987,
      "ĠWere": 6988,
      "Ġletter": 6989,
      "Ġresour": 6990,
      "Ġdesk": 6991,
      "Ġskip": 6992,
      "ĠAsh": 6993,
      "ĠShit": 6994,
      "iku": 6995,
      "ĠHECK": 6996,
      "Ġcommand": 6997,
      "orses": 6998,
      "ĠSEC": 6999,
      "Ġtopic": 7000,
      "Ġtyping": 7001,
      "ĠFriend": 7002,
      "Ġmilitary": 7003,
      "Ġcreature": 7004,
      "ĠMean": 7005,
      "Ġmentally": 7006,
      "Ġcorpor": 7007,
      "Ġnormally": 7008,
      "Ġshoes": 7009,
      "ĠSLUTTIEST": 7010,
      "ĠSeven": 7011,
      "Ġstronger": 7012,
      "Ġsentence": 7013,
      "Ġlaughter": 7014,
      "ĠUNIVER": 7015,
      "ĠFlor": 7016,
      "ĠTwitch": 7017,
      "ĠTwitter": 7018,
      "Ġchanging": 7019,
      "!!!!!!!!!!!!!!!!": 7020,
      "Ġvisit": 7021,
      "Ġvision": 7022,
      "Ġprior": 7023,
      "Ġbanana": 7024,
      "Ġtrem": 7025,
      "Ġbullets": 7026,
      "ĠEVERYTHING": 7027,
      "Ġjuice": 7028,
      "Ġconcrete": 7029,
      "Ġadmit": 7030,
      "Ġhundreds": 7031,
      "Ġincreased": 7032,
      "Ġtypical": 7033,
      "ĠTWO": 7034,
      "ĠHarry": 7035,
      "Ġjealous": 7036,
      "Ġdemonstr": 7037,
      "Ġresults": 7038,
      "Ġhanging": 7039,
      "Ġresponsible": 7040,
      "ĠMommy": 7041,
      "ANANANANANANANAN": 7042,
      "ĠSAID": 7043,
      "Ġmillions": 7044,
      "ĠUmbreon": 7045,
      "Ġoverwhel": 7046,
      "Ġconflict": 7047,
      "Ġuncomfortable": 7048,
      "Ġtincidunt": 7049,
      "ĠDiamond": 7050,
      "DER": 7051,
      "LESS": 7052,
      "bec": 7053,
      "gun": 7054,
      "rase": 7055,
      "Ġsie": 7056,
      "real": 7057,
      "Ġbub": 7058,
      "ĠIR": 7059,
      "Ġfalls": 7060,
      "Ġdating": 7061,
      "ania": 7062,
      "esse": 7063,
      "Ġtho": 7064,
      "Ġthus": 7065,
      "Ġthread": 7066,
      "Ġlm": 7067,
      "Ġlas": 7068,
      "ĠTON": 7069,
      "ĠAlex": 7070,
      "ĠBa": 7071,
      "ĠBANG": 7072,
      "ĠCock": 7073,
      "ĠWET": 7074,
      "ĠWomen": 7075,
      "ĠHard": 7076,
      "ĠPen": 7077,
      "oob": 7078,
      "ĠNAME": 7079,
      "unning": 7080,
      "stood": 7081,
      "stopp": 7082,
      "ĠRam": 7083,
      "Ġsharp": 7084,
      "ĠEV": 7085,
      "este": 7086,
      "abled": 7087,
      "Ġvault": 7088,
      "Ġchrist": 7089,
      "Ġupset": 7090,
      "Ġoutta": 7091,
      "ĠKill": 7092,
      "ĠUt": 7093,
      "aren": 7094,
      "ONS": 7095,
      "ETS": 7096,
      "Ġprz": 7097,
      "Ġpros": 7098,
      "Ġrod": 7099,
      "Ġrocks": 7100,
      "Ġcries": 7101,
      "ometry": 7102,
      "Ġ420": 7103,
      "Ġtwe": 7104,
      "Ġhoe": 7105,
      "Ġdeck": 7106,
      "Ġminim": 7107,
      "ĠShow": 7108,
      "ĠUnfortunately": 7109,
      "Ġrecover": 7110,
      "frican": 7111,
      "Ġlegit": 7112,
      "Ġcountries": 7113,
      "Ġspecifically": 7114,
      "Ġpatri": 7115,
      "Ġevents": 7116,
      "Ġanimatron": 7117,
      "Ġdevil": 7118,
      "Ġexcuse": 7119,
      "Ġhealthy": 7120,
      "ĠPhone": 7121,
      "Ġapproach": 7122,
      "Ġspring": 7123,
      "Ġfauc": 7124,
      "Ġsteps": 7125,
      "Ġpropag": 7126,
      "mbol": 7127,
      "Ġincrease": 7128,
      "Ġoccur": 7129,
      "Ġbirds": 7130,
      "Ġsandw": 7131,
      "ĠWalter": 7132,
      "Ġsurprised": 7133,
      "ĠPATR": 7134,
      "Ġeternity": 7135,
      "Ġjudge": 7136,
      "ependent": 7137,
      "Ġmalesuada": 7138,
      "Ġmundo": 7139,
      "ĠSplat": 7140,
      "Ġimpostor": 7141,
      "ĠFRIENDS": 7142,
      "Ġfolks": 7143,
      "ĠLBJALLTHEWAY": 7144,
      "Ġworship": 7145,
      "Ġyounger": 7146,
      "72": 7147,
      "NO": 7148,
      "OSS": 7149,
      "PA": 7150,
      "jj": 7151,
      "rating": 7152,
      "yes": 7153,
      "zing": 7154,
      "Ġerr": 7155,
      "Ġsins": 7156,
      "Ġwins": 7157,
      "Ġbc": 7158,
      "Ġbot": 7159,
      "Ġbond": 7160,
      "Ġdat": 7161,
      "Ġdread": 7162,
      "Ġpap": 7163,
      "orter": 7164,
      "Ġlust": 7165,
      "Ġgor": 7166,
      "Ġgain": 7167,
      "aria": 7168,
      "Ġng": 7169,
      "alt": 7170,
      "lyn": 7171,
      "ĠWON": 7172,
      "entlemen": 7173,
      "osition": 7174,
      "Ġstared": 7175,
      "ĠPri": 7176,
      "ĠPOST": 7177,
      "Ġri": 7178,
      "Ġkarm": 7179,
      "ĠLUCK": 7180,
      "ĠRUN": 7181,
      "Ġshove": 7182,
      "Ġshadow": 7183,
      "Ġsevere": 7184,
      "ĠEnt": 7185,
      "agger": 7186,
      "Ġabandon": 7187,
      "Ġknock": 7188,
      "andale": 7189,
      "Ġtrad": 7190,
      "ĠJU": 7191,
      "ĠUk": 7192,
      "Ġsaving": 7193,
      "Ġimper": 7194,
      "Ġscary": 7195,
      "ogue": 7196,
      "Ġseek": 7197,
      "Ġbrut": 7198,
      "Ġourselves": 7199,
      "Ġdisrespect": 7200,
      "obic": 7201,
      "Ġflash": 7202,
      "issa": 7203,
      "AMA": 7204,
      "VEL": 7205,
      "UUU": 7206,
      "azon": 7207,
      "Ġdecisions": 7208,
      "ashion": 7209,
      "Ġdrugs": 7210,
      "Ġfuneral": 7211,
      "ĠWhenever": 7212,
      "blue": 7213,
      "ENTS": 7214,
      "Ġsubst": 7215,
      "Ġmonkey": 7216,
      "Ġbasement": 7217,
      "ĠDEM": 7218,
      "Ġstandard": 7219,
      "mmm": 7220,
      "Ġimages": 7221,
      "Ġbrains": 7222,
      "UPID": 7223,
      "ĠSomeone": 7224,
      "ĠPhil": 7225,
      "while": 7226,
      "Ġappropri": 7227,
      "ĠCOMM": 7228,
      "Ġdeveloped": 7229,
      "Ġmovies": 7230,
      "Ġpromise": 7231,
      "Ġshooting": 7232,
      "ĠSCREAM": 7233,
      "Ġdivor": 7234,
      "ableshit": 7235,
      "Ġvolume": 7236,
      "Ġglasses": 7237,
      "Ġlabor": 7238,
      "Ġbowl": 7239,
      "Ġblowjob": 7240,
      "Ġloudly": 7241,
      "ĠSKIN": 7242,
      "Ġelectric": 7243,
      "ĠTURN": 7244,
      "Ġconnect": 7245,
      "Ġdegree": 7246,
      "ebob": 7247,
      "ĠMcD": 7248,
      "Ġdetermined": 7249,
      "Ġutterly": 7250,
      "ĠHonestly": 7251,
      "Ġrecommend": 7252,
      "Ġpokemon": 7253,
      "Ġwebsite": 7254,
      "ylmethion": 7255,
      "61": 7256,
      "Ch": 7257,
      "SU": 7258,
      "aft": 7259,
      "bi": 7260,
      "cr": 7261,
      "dzie": 7262,
      "fucking": 7263,
      "lie": 7264,
      "Ġsab": 7265,
      "oured": 7266,
      "Ġwelcome": 7267,
      "Ġtheory": 7268,
      "Ġcand": 7269,
      "isis": 7270,
      "Ġdict": 7271,
      "Ġpmo": 7272,
      "Ġlapt": 7273,
      "ĠSURE": 7274,
      "ici": 7275,
      "ĠAust": 7276,
      "etch": 7277,
      "aying": 7278,
      "ĠMi": 7279,
      "ĠWiggle": 7280,
      "Ġrevol": 7281,
      "rol": 7282,
      "ĠFEE": 7283,
      "Ġshred": 7284,
      "quer": 7285,
      "Ġchain": 7286,
      "Ġtrip": 7287,
      "Ġshel": 7288,
      "ĠJed": 7289,
      "ĠUSE": 7290,
      "Ġleap": 7291,
      "Ġacqu": 7292,
      "riage": 7293,
      "Ġsaf": 7294,
      "ĠĠĠĠĠĠĠĠĠĠ": 7295,
      "Ġcloud": 7296,
      "Ġpeak": 7297,
      "ĠVoid": 7298,
      "Ġscra": 7299,
      "ISP": 7300,
      "Ġbless": 7301,
      "Ġprze": 7302,
      "ĠChina": 7303,
      "Ġcontract": 7304,
      "ksks": 7305,
      "Ġ45": 7306,
      "renaline": 7307,
      "Ġ75": 7308,
      "aaa": 7309,
      "Ġminecraft": 7310,
      "Ġaccur": 7311,
      "holy": 7312,
      "Ġnights": 7313,
      "Ġleftism": 7314,
      "Ġloose": 7315,
      "Ġcareer": 7316,
      "athers": 7317,
      "Ġsymbol": 7318,
      "ĠIsrael": 7319,
      "Ġgamers": 7320,
      "ĠPRES": 7321,
      "Ġsusc": 7322,
      "Ġdiscover": 7323,
      "Ġmission": 7324,
      "Ġedging": 7325,
      "Ġpositive": 7326,
      "Ġmedical": 7327,
      "ĠxD": 7328,
      "Ġdirection": 7329,
      "Ġdisgusted": 7330,
      "Ġterrified": 7331,
      "Ġstrike": 7332,
      "Ġrisus": 7333,
      "Ġopinions": 7334,
      "Ġheavily": 7335,
      "Ġorganization": 7336,
      "addict": 7337,
      "Ġsweaty": 7338,
      "YYYYYYYYYYYYYYYY": 7339,
      "eeeeeeeeeeeeeeee": 7340,
      "Ġembarrassed": 7341,
      "Ġscientists": 7342,
      "Ġmoaning": 7343,
      "ĠGrand": 7344,
      "ĠOpen": 7345,
      "Ġimprove": 7346,
      "Ġgenitalia": 7347,
      "ocolate": 7348,
      "Ġliquid": 7349,
      "ĠLESB": 7350,
      "Ġfavourite": 7351,
      "EVER": 7352,
      "GOL": 7353,
      "IENT": 7354,
      "cast": 7355,
      "cause": 7356,
      "hone": 7357,
      "pis": 7358,
      "Ġsz": 7359,
      "Ġsake": 7360,
      "Ġsilly": 7361,
      "rer": 7362,
      "onc": 7363,
      "onn": 7364,
      "Ġmol": 7365,
      "Ġmouse": 7366,
      "Ġcake": 7367,
      "Ġcunt": 7368,
      "itals": 7369,
      "Ġfab": 7370,
      "Ġfought": 7371,
      "Ġobl": 7372,
      "Ġdent": 7373,
      "Ġpint": 7374,
      "Ġtoxic": 7375,
      "oro": 7376,
      "Ġyard": 7377,
      "Ġgorge": 7378,
      "ĠTEN": 7379,
      "ĠTry": 7380,
      "ĠSY": 7381,
      "ĠSUB": 7382,
      "ĠAK": 7383,
      "ĠMind": 7384,
      "ĠMISS": 7385,
      "lyl": 7386,
      "ĠHIT": 7387,
      "ĠHung": 7388,
      "lder": 7389,
      "igo": 7390,
      "Ġstir": 7391,
      "ĠDude": 7392,
      "ĠGal": 7393,
      "ĠGUN": 7394,
      "ĠPop": 7395,
      "Ġanger": 7396,
      "Ġrange": 7397,
      "tering": 7398,
      "Ġsole": 7399,
      "opper": 7400,
      "Ġshared": 7401,
      "Ġshocked": 7402,
      "ĠExt": 7403,
      "ĠTHANK": 7404,
      "aine": 7405,
      "Ġoutfit": 7406,
      "Ġtruck": 7407,
      "ĠKita": 7408,
      "Ġsports": 7409,
      "ITED": 7410,
      "Ġassoci": 7411,
      "Ġ66": 7412,
      "Ġcrim": 7413,
      "Ġactive": 7414,
      "AMAG": 7415,
      "ĠStand": 7416,
      "Ġresort": 7417,
      "ĠINST": 7418,
      "Ġswallow": 7419,
      "ultaneously": 7420,
      "Ġelit": 7421,
      "Ġ77": 7422,
      "Ġcheap": 7423,
      "Ġapply": 7424,
      "Ġremains": 7425,
      "ICC": 7426,
      "azz": 7427,
      "ĠMEAN": 7428,
      "ĠBEAT": 7429,
      "ĠBEING": 7430,
      "ĠBELL": 7431,
      "Ġboi": 7432,
      "UNG": 7433,
      "Ġuseful": 7434,
      "awk": 7435,
      "Ġworkers": 7436,
      "ĠCHILL": 7437,
      "ĠTHATS": 7438,
      "Ġperfection": 7439,
      "ĠPROT": 7440,
      "Ġcapacity": 7441,
      "Ġwarri": 7442,
      "loaded": 7443,
      "Ġporque": 7444,
      "Ġdetail": 7445,
      "Ġequip": 7446,
      "Ġreturned": 7447,
      "ĠBITCHES": 7448,
      "Ġmentioned": 7449,
      "Ġgolden": 7450,
      "Ġproperly": 7451,
      "onalds": 7452,
      "Ġrepeat": 7453,
      "Ġgente": 7454,
      "ĠGOLGOL": 7455,
      "iiiiiiiiiiiiiiii": 7456,
      "Ġreported": 7457,
      "Ġbourgeoisie": 7458,
      "Ġdescribe": 7459,
      "ĠWallave": 7460,
      "Ġcompatible": 7461,
      "Ġcharming": 7462,
      "SEXSEX": 7463,
      "Ġpocket": 7464,
      "ĠJESUS": 7465,
      "Ġweekend": 7466,
      "Ġlearning": 7467,
      "ĠTONIGHT": 7468,
      "Ġfaucibus": 7469,
      "ĠLESBIAN": 7470,
      ",,": 7471,
      "?.": 7472,
      "DO": 7473,
      "DR": 7474,
      "GY": 7475,
      "PING": 7476,
      "XX": 7477,
      "die": 7478,
      "kind": 7479,
      "rat": 7480,
      "rid": 7481,
      "sm": 7482,
      "was": 7483,
      "zt": 7484,
      "ndrome": 7485,
      "Ġcars": 7486,
      "isation": 7487,
      "isque": 7488,
      "Ġdancing": 7489,
      "Ġhott": 7490,
      "Ġhilarious": 7491,
      "Ġyall": 7492,
      "Ġnational": 7493,
      "ĠSI": 7494,
      "ĠSyl": 7495,
      "ĠSUS": 7496,
      "ĠAY": 7497,
      "ĠAv": 7498,
      "ĠMoon": 7499,
      "iders": 7500,
      "imm": 7501,
      "ĠHot": 7502,
      "Ġmechan": 7503,
      "Ġstab": 7504,
      "ĠDav": 7505,
      "ĠYuu": 7506,
      "ĠPec": 7507,
      "ĠPOT": 7508,
      "ĠPower": 7509,
      "ĠPark": 7510,
      "Ġrise": 7511,
      "ĠERE": 7512,
      "Ġvote": 7513,
      "Ġchoke": 7514,
      "Ġplat": 7515,
      "Ġtrial": 7516,
      "aku": 7517,
      "ĠThr": 7518,
      "ĠJess": 7519,
      "Ġspoke": 7520,
      "Ġnoises": 7521,
      "ARI": 7522,
      "LLLL": 7523,
      "RROR": 7524,
      "gends": 7525,
      "ĠVi": 7526,
      "Ġbright": 7527,
      "Ġprecious": 7528,
      "fton": 7529,
      "ĠChiori": 7530,
      "Ġcontacting": 7531,
      "ĠStep": 7532,
      "Ġemail": 7533,
      "Ġbeta": 7534,
      "Ġ2016": 7535,
      "Ġpoll": 7536,
      "ĠWHORE": 7537,
      "Ġkeys": 7538,
      "ĠShadow": 7539,
      "Ġgenetic": 7540,
      "IONS": 7541,
      "Ġinstrum": 7542,
      "ĠCHOO": 7543,
      "Ġindeed": 7544,
      "ĠBeing": 7545,
      "Ġinferior": 7546,
      "ĠAnn": 7547,
      "Ġpurus": 7548,
      "Ġfelis": 7549,
      "Ġholds": 7550,
      "ĠGuys": 7551,
      "ĠAnyone": 7552,
      "ĠSex": 7553,
      "ĠWithout": 7554,
      "ĠScaram": 7555,
      "ĠGrass": 7556,
      "Ġintegr": 7557,
      "ĠCrash": 7558,
      "ĠCOCKS": 7559,
      "Ġdogs": 7560,
      "ĠEmp": 7561,
      "Ġlimit": 7562,
      "Ġdemocr": 7563,
      "Ġturpis": 7564,
      "Ġofficial": 7565,
      "Ġrandomly": 7566,
      "ĠDIED": 7567,
      "ĠObi": 7568,
      "oppy": 7569,
      "evit": 7570,
      "Ġmicro": 7571,
      "Ġchampion": 7572,
      "Ġprecision": 7573,
      "ĠLegion": 7574,
      "Ġapologize": 7575,
      "Ġpanties": 7576,
      "Ġmethod": 7577,
      "Ġgyatt": 7578,
      "SFW": 7579,
      "Ġcomprehend": 7580,
      "gayf": 7581,
      "Ġexercise": 7582,
      "Ġwaifu": 7583,
      "ĠScaramouche": 7584,
      "02": 7585,
      "KR": 7586,
      "UZ": 7587,
      "fare": 7588,
      "list": 7589,
      "look": 7590,
      "pes": 7591,
      "ville": 7592,
      "zia": 7593,
      "heal": 7594,
      "Ġwoo": 7595,
      "Ġwise": 7596,
      "Ġbussy": 7597,
      "Ġfic": 7598,
      "Ġpad": 7599,
      "orable": 7600,
      "Ġnine": 7601,
      "Ġnaval": 7602,
      "Ġinevit": 7603,
      "ĠSud": 7604,
      "Ġbean": 7605,
      "oto": 7606,
      "Ġitem": 7607,
      "ĠBest": 7608,
      "ĠBIR": 7609,
      "uted": 7610,
      "immy": 7611,
      "adian": 7612,
      "ĠHans": 7613,
      "ĠHorn": 7614,
      "ĠDIR": 7615,
      "ĠDOOR": 7616,
      "ĠGN": 7617,
      "ĠPC": 7618,
      "ĠPort": 7619,
      "ĠFILL": 7620,
      "Ġrum": 7621,
      "ĠLo": 7622,
      "ĠLuc": 7623,
      "ĠLove": 7624,
      "ĠRh": 7625,
      "Ġshield": 7626,
      "Ġdoc": 7627,
      "Ġatm": 7628,
      "ulting": 7629,
      "ulated": 7630,
      "Ġvac": 7631,
      "Ġchill": 7632,
      "ĠJul": 7633,
      "ĠKa": 7634,
      "Ġsport": 7635,
      "Ġintim": 7636,
      "inder": 7637,
      "ept": 7638,
      "ORK": 7639,
      "Ġunholy": 7640,
      "ĠViv": 7641,
      "ĠVAL": 7642,
      "ĠVery": 7643,
      "ogs": 7644,
      "Ġgoth": 7645,
      "Ġgrade": 7646,
      "Ġslat": 7647,
      "Ġdisp": 7648,
      "Ġflower": 7649,
      "ĠSold": 7650,
      "Ġadvert": 7651,
      "ensively": 7652,
      "OMET": 7653,
      "ĠINF": 7654,
      "Ġswitch": 7655,
      "Ġcheating": 7656,
      "ĠShin": 7657,
      "ĠShould": 7658,
      "phone": 7659,
      "Ġmatt": 7660,
      "Ġcommitted": 7661,
      "ĠREC": 7662,
      "Ġconsent": 7663,
      "776": 7664,
      "IRST": 7665,
      "front": 7666,
      "Ġcarried": 7667,
      "Ġfamous": 7668,
      "Ġdefin": 7669,
      "ĠFriday": 7670,
      "encies": 7671,
      "ronii": 7672,
      "Ġreply": 7673,
      "Ġdrool": 7674,
      "Ġohio": 7675,
      "Ġdeeper": 7676,
      "ĠBROTHER": 7677,
      "Ġreform": 7678,
      "Ġadding": 7679,
      "Ġexperiment": 7680,
      "Ġexpression": 7681,
      "Ġimagining": 7682,
      "Ġsucks": 7683,
      "Ġcops": 7684,
      "Ġsmells": 7685,
      "Ġcolors": 7686,
      "Ġstrongest": 7687,
      "Ġgeneration": 7688,
      "works": 7689,
      "Ġstudy": 7690,
      "Ġadvanced": 7691,
      "!!!!!!!!!!": 7692,
      "Ġleader": 7693,
      "olly": 7694,
      "Ġceiling": 7695,
      "ĠProject": 7696,
      "Ġsilver": 7697,
      "Ġlawy": 7698,
      "Ġanti": 7699,
      "ĠFREAK": 7700,
      "Ġhyper": 7701,
      "Ġmotion": 7702,
      "Ġslutty": 7703,
      "Ġpillow": 7704,
      "Ġarousal": 7705,
      "Ġproperty": 7706,
      "Ġprivate": 7707,
      "Ġreligious": 7708,
      "Ġeconomic": 7709,
      "ĠĠĠĠĠĠĠĠĠĠĠĠĠĠĠĠĠĠĠĠĠĠĠĠĠĠĠĠĠĠĠĠĠĠĠĠĠĠĠĠĠĠĠĠĠĠĠĠĠĠĠĠĠĠĠĠĠĠĠĠĠĠĠĠĠĠĠĠĠĠĠĠĠĠĠĠĠĠĠĠĠĠĠĠĠĠĠĠĠĠĠĠĠĠĠĠĠĠĠĠĠĠĠĠĠĠĠĠĠĠĠĠĠĠĠĠĠĠĠĠĠĠĠĠĠĠĠĠ": 7710,
      "ergency": 7711,
      "Ġtwisted": 7712,
      "ography": 7713,
      "Ġdiamonds": 7714,
      "Ġproceeded": 7715,
      "Ġgraduated": 7716,
      "Ġupdate": 7717,
      "ĠiPhone": 7718,
      "Ġcousin": 7719,
      "ĠUNIVERSE": 7720,
      "DEN": 7721,
      "MS": 7722,
      "MAN": 7723,
      "bys": 7724,
      "bles": 7725,
      "baka": 7726,
      "cle": 7727,
      "fs": 7728,
      "god": 7729,
      "gots": 7730,
      "vi": 7731,
      "rees": 7732,
      "Ġbes": 7733,
      "nding": 7734,
      "ĠIII": 7735,
      "Ġcell": 7736,
      "itan": 7737,
      "Ġfuel": 7738,
      "Ġfashion": 7739,
      "Ġdos": 7740,
      "Ġdump": 7741,
      "anas": 7742,
      "Ġpir": 7743,
      "Ġpushing": 7744,
      "Ġtodo": 7745,
      "Ġlect": 7746,
      "Ġyout": 7747,
      "ario": 7748,
      "ĠAy": 7749,
      "eto": 7750,
      "ĠBAK": 7751,
      "ĠMiss": 7752,
      "ĠMID": 7753,
      "ĠHall": 7754,
      "ĠHUM": 7755,
      "ĠHuman": 7756,
      "osus": 7757,
      "osion": 7758,
      "Ġstim": 7759,
      "Ġforb": 7760,
      "ĠGEN": 7761,
      "ifting": 7762,
      "Ġjaw": 7763,
      "ĠOther": 7764,
      "ĠNAS": 7765,
      "ĠNSFW": 7766,
      "uno": 7767,
      "ĠEsp": 7768,
      "Ġattend": 7769,
      "agin": 7770,
      "Ġdeer": 7771,
      "odo": 7772,
      "Ġvia": 7773,
      "Ġtrib": 7774,
      "Ġgoat": 7775,
      "Ġspong": 7776,
      "rian": 7777,
      "izuki": 7778,
      "Ġmans": 7779,
      "Ġquant": 7780,
      "unks": 7781,
      "Ġscale": 7782,
      "Ġscanned": 7783,
      "Ġgrasp": 7784,
      "Ġweren": 7785,
      "Ġsmir": 7786,
      "Ġslam": 7787,
      "Ġslap": 7788,
      "Ġdisplay": 7789,
      "ĠChallen": 7790,
      "AMP": 7791,
      "ĠState": 7792,
      "Ġ2036": 7793,
      "UMB": 7794,
      "ĠINTER": 7795,
      "ĠTheyre": 7796,
      "Ġelite": 7797,
      "IDAY": 7798,
      "azi": 7799,
      "Ġgrave": 7800,
      "iki": 7801,
      "ĠHEAV": 7802,
      "Ġrelated": 7803,
      "Ġfinds": 7804,
      "Ġsym": 7805,
      "Ġfoi": 7806,
      "zyst": 7807,
      "Ġkinds": 7808,
      "Ġspeech": 7809,
      "Ġteams": 7810,
      "Ġwaited": 7811,
      "ĠTrue": 7812,
      "Ġfemboy": 7813,
      "Ġconfident": 7814,
      "Ġmassa": 7815,
      "Ġedit": 7816,
      "Ġexpand": 7817,
      "ĠDonald": 7818,
      "Ġscreams": 7819,
      "Ġbreathing": 7820,
      "Ġstreaming": 7821,
      "ODE": 7822,
      "Ġmistakes": 7823,
      "Ġinclude": 7824,
      "Ġyelling": 7825,
      "Ġsouls": 7826,
      "Ġpissed": 7827,
      "ĠSwiss": 7828,
      "Ġcondiment": 7829,
      "rogate": 7830,
      "ĠTeam": 7831,
      "ĠMilo": 7832,
      "Ġgentle": 7833,
      "Ġinvestig": 7834,
      "Ġpedoph": 7835,
      "Ġfazer": 7836,
      "Ġchampions": 7837,
      "WHORE": 7838,
      "girls": 7839,
      "Ġfortnite": 7840,
      "Ġbastard": 7841,
      "ĠMorty": 7842,
      "Ġ001011": 7843,
      "Ġbrilliant": 7844,
      "Ġphilosophy": 7845,
      "Ġlonely": 7846,
      "Ġlouder": 7847,
      "yltryptoph": 7848,
      "Ġlaptop": 7849,
      "ĠYuuka": 7850,
      "gayfurry": 7851,
      "!,": 7852,
      "COCK": 7853,
      "GHT": 7854,
      "LC": 7855,
      "MPH": 7856,
      "bal": 7857,
      "coh": 7858,
      "eon": 7859,
      "gs": 7860,
      "hus": 7861,
      "ients": 7862,
      "oft": 7863,
      "there": 7864,
      "uw": 7865,
      "zer": 7866,
      "Ġao": 7867,
      "Ġsides": 7868,
      "Ġwing": 7869,
      "Ġwid": 7870,
      "ĠIce": 7871,
      "ĠIch": 7872,
      "Ġpin": 7873,
      "Ġpist": 7874,
      "Ġpair": 7875,
      "Ġpics": 7876,
      "Ġlub": 7877,
      "omed": 7878,
      "ĠSon": 7879,
      "ĠAUG": 7880,
      "aco": 7881,
      "ache": 7882,
      "ĠMADE": 7883,
      "ĠCat": 7884,
      "enta": 7885,
      "Ġstation": 7886,
      "ĠDep": 7887,
      "ĠDOM": 7888,
      "Ġhavent": 7889,
      "ĠYear": 7890,
      "ĠFresh": 7891,
      "Ġrib": 7892,
      "Ġripped": 7893,
      "ĠOs": 7894,
      "ĠNin": 7895,
      "ĠNar": 7896,
      "ĠNational": 7897,
      "ĠLICK": 7898,
      "ĠRick": 7899,
      "ĠELE": 7900,
      "ĠEGG": 7901,
      "ĠENT": 7902,
      "iev": 7903,
      "oret": 7904,
      "Ġallows": 7905,
      "ulations": 7906,
      "ateful": 7907,
      "abor": 7908,
      "Ġchaos": 7909,
      "that": 7910,
      "Ġexha": 7911,
      "ĠKEN": 7912,
      "ĠKany": 7913,
      "ĠKronii": 7914,
      "Ġanybody": 7915,
      "gered": 7916,
      "rike": 7917,
      "Ġusual": 7918,
      "Ġoffered": 7919,
      "Ġblessed": 7920,
      "Ġroy": 7921,
      "Ġassault": 7922,
      "ĠINV": 7923,
      "ĠWHILE": 7924,
      "IGN": 7925,
      "Ġconscious": 7926,
      "Ġhelps": 7927,
      "Ġrelax": 7928,
      "?!?": 7929,
      "Ġsinging": 7930,
      "Ġmods": 7931,
      "ĠClass": 7932,
      "Ġsociet": 7933,
      "Ġideal": 7934,
      "ificial": 7935,
      "Ġarticle": 7936,
      "erring": 7937,
      "denly": 7938,
      "Ġcorp": 7939,
      "Ġsquir": 7940,
      "Ġsquish": 7941,
      "Ġsucked": 7942,
      "Ġpaint": 7943,
      "Ġtemper": 7944,
      "ĠScott": 7945,
      "Ġporra": 7946,
      "ĠAdv": 7947,
      "Ġhistor": 7948,
      "ĠChristian": 7949,
      "Ġshorts": 7950,
      "aturally": 7951,
      "Ġleads": 7952,
      "fucks": 7953,
      "Ġtreas": 7954,
      "Ġ01110111": 7955,
      "Ġfourth": 7956,
      "ĠCOMP": 7957,
      "Ġnearby": 7958,
      "Ġmoral": 7959,
      "ĠNAUGHT": 7960,
      "UUUUUUUUUUUUUUUU": 7961,
      "Ġdegener": 7962,
      "Ġpowder": 7963,
      "Ġidentify": 7964,
      "Ġfools": 7965,
      "ĠMESSI": 7966,
      "ĠGREAT": 7967,
      "Ġdiscussion": 7968,
      "Ġladies": 7969,
      "Ġthrusts": 7970,
      "Ġtouched": 7971,
      "ĠVERY": 7972,
      "ĠOTHER": 7973,
      "Ġpropaganda": 7974,
      "Ġkarma": 7975,
      "Ġgorgeous": 7976,
      "AMAGAMAG": 7977,
      "FORE": 7978,
      "JO": 7979,
      "YE": 7980,
      "iac": 7981,
      "Ġtied": 7982,
      "Ġsis": 7983,
      "Ġsen": 7984,
      "Ġsession": 7985,
      "Ġmamm": 7986,
      "Ġbout": 7987,
      "Ġbait": 7988,
      "ĠIr": 7989,
      "Ġfired": 7990,
      "anie": 7991,
      "Ġpp": 7992,
      "enas": 7993,
      "orino": 7994,
      "eda": 7995,
      "Ġga": 7996,
      "arant": 7997,
      "Ġnos": 7998,
      "Ġeby": 7999
    },
    "merges": [
      [
        "Ġ",
        "t"
      ],
      [
        "Ġ",
        "a"
      ],
      [
        "h",
        "e"
      ],
      [
        "i",
        "n"
      ],
      [
        "Ġ",
        "s"
      ],
      [
        "o",
        "u"
      ],
      [
        "Ġ",
        "w"
      ],
      [
        "r",
        "e"
      ],
      [
        "č",
        "Ċ"
      ],
      [
        "o",
        "n"
      ],
      [
        "Ġ",
        "m"
      ],
      [
        "Ġt",
        "he"
      ],
      [
        "e",
        "r"
      ],
      [
        "Ġ",
        "b"
      ],
      [
        "n",
        "d"
      ],
      [
        "Ġ",
        "I"
      ],
      [
        "Ġ",
        "c"
      ],
      [
        "a",
        "t"
      ],
      [
        "i",
        "t"
      ],
      [
        "i",
        "s"
      ],
      [
        "in",
        "g"
      ],
      [
        "Ġ",
        "f"
      ],
      [
        "Ġ",
        "o"
      ],
      [
        "Ġ",
        "d"
      ],
      [
        "a",
        "n"
      ],
      [
        "Ġ",
        "p"
      ],
      [
        "Ġt",
        "o"
      ],
      [
        "Ġ",
        "h"
      ],
      [
        "l",
        "l"
      ],
      [
        "e",
        "n"
      ],
      [
        "Ġ",
        "čĊ"
      ],
      [
        "o",
        "r"
      ],
      [
        "e",
        "d"
      ],
      [
        "e",
        "s"
      ],
      [
        "Ġt",
        "h"
      ],
      [
        "Ġ",
        "y"
      ],
      [
        "Ġa",
        "nd"
      ],
      [
        "Ġ",
        "l"
      ],
      [
        "Ġ",
        "g"
      ],
      [
        "Ġy",
        "ou"
      ],
      [
        "a",
        "r"
      ],
      [
        "a",
        "s"
      ],
      [
        "Ġ",
        "n"
      ],
      [
        "Ġo",
        "f"
      ],
      [
        "Ġ",
        "T"
      ],
      [
        "Ġ",
        "in"
      ],
      [
        "o",
        "m"
      ],
      [
        "u",
        "s"
      ],
      [
        "l",
        "e"
      ],
      [
        "Ġ",
        "e"
      ],
      [
        "Ġ",
        "Ġ"
      ],
      [
        "Ġ",
        "S"
      ],
      [
        "i",
        "c"
      ],
      [
        "v",
        "e"
      ],
      [
        "Ġb",
        "e"
      ],
      [
        "a",
        "l"
      ],
      [
        "Ġ",
        "A"
      ],
      [
        "o",
        "w"
      ],
      [
        "o",
        "t"
      ],
      [
        "e",
        "t"
      ],
      [
        "Ġ",
        "he"
      ],
      [
        "a",
        "y"
      ],
      [
        "Ġ",
        "it"
      ],
      [
        "Ġ",
        "B"
      ],
      [
        "u",
        "t"
      ],
      [
        "a",
        "c"
      ],
      [
        "Ġ",
        "is"
      ],
      [
        "Ġ",
        "M"
      ],
      [
        "i",
        "d"
      ],
      [
        "a",
        "m"
      ],
      [
        "Ġ",
        "C"
      ],
      [
        "i",
        "m"
      ],
      [
        "Ġ",
        "on"
      ],
      [
        "Ġth",
        "at"
      ],
      [
        "Ġm",
        "y"
      ],
      [
        "l",
        "y"
      ],
      [
        "a",
        "d"
      ],
      [
        "Ġ",
        "W"
      ],
      [
        "v",
        "er"
      ],
      [
        "k",
        "e"
      ],
      [
        "Ġ",
        "re"
      ],
      [
        "Ġ",
        "H"
      ],
      [
        "l",
        "d"
      ],
      [
        "en",
        "t"
      ],
      [
        "o",
        "s"
      ],
      [
        "i",
        "g"
      ],
      [
        "Ġm",
        "e"
      ],
      [
        "Ġ",
        "u"
      ],
      [
        "i",
        "on"
      ],
      [
        "Ġs",
        "t"
      ],
      [
        "Ġw",
        "h"
      ],
      [
        "Ġf",
        "or"
      ],
      [
        "Ġ",
        "D"
      ],
      [
        "r",
        "o"
      ],
      [
        "a",
        "ll"
      ],
      [
        "Ġh",
        "a"
      ],
      [
        "i",
        "r"
      ],
      [
        "it",
        "h"
      ],
      [
        "u",
        "c"
      ],
      [
        "Ġ",
        "Y"
      ],
      [
        "Ġ",
        "G"
      ],
      [
        "ou",
        "t"
      ],
      [
        "Ġ",
        "P"
      ],
      [
        "Ġw",
        "ith"
      ],
      [
        "Ġ",
        "F"
      ],
      [
        "o",
        "o"
      ],
      [
        "i",
        "f"
      ],
      [
        "i",
        "ll"
      ],
      [
        ".",
        "."
      ],
      [
        "Ġa",
        "n"
      ],
      [
        "Ġa",
        "s"
      ],
      [
        "e",
        "c"
      ],
      [
        "Ġ",
        "r"
      ],
      [
        "e",
        "l"
      ],
      [
        "Ġ",
        "j"
      ],
      [
        "Ġ",
        "O"
      ],
      [
        "Ġ",
        "N"
      ],
      [
        "Ġ",
        "k"
      ],
      [
        "u",
        "n"
      ],
      [
        "ĠĠ",
        "ĠĠ"
      ],
      [
        "u",
        "r"
      ],
      [
        "Ġth",
        "is"
      ],
      [
        "'",
        "s"
      ],
      [
        "Ġw",
        "as"
      ],
      [
        "Ġw",
        "e"
      ],
      [
        "t",
        "er"
      ],
      [
        "Ġyou",
        "r"
      ],
      [
        "h",
        "t"
      ],
      [
        "Ġs",
        "o"
      ],
      [
        "Ġ",
        "L"
      ],
      [
        "an",
        "t"
      ],
      [
        "us",
        "t"
      ],
      [
        "s",
        "t"
      ],
      [
        "Ġl",
        "i"
      ],
      [
        "Ġ",
        "R"
      ],
      [
        "o",
        "p"
      ],
      [
        "ĠT",
        "he"
      ],
      [
        "u",
        "m"
      ],
      [
        "Ġs",
        "h"
      ],
      [
        "ou",
        "ld"
      ],
      [
        "r",
        "a"
      ],
      [
        "Ġd",
        "o"
      ],
      [
        "Ġs",
        "e"
      ],
      [
        "Ġ",
        "E"
      ],
      [
        "i",
        "l"
      ],
      [
        "Ġha",
        "ve"
      ],
      [
        "c",
        "e"
      ],
      [
        "i",
        "e"
      ],
      [
        "k",
        "ing"
      ],
      [
        "Ġn",
        "ot"
      ],
      [
        "'",
        "t"
      ],
      [
        "o",
        "re"
      ],
      [
        "0",
        "0"
      ],
      [
        "I",
        "N"
      ],
      [
        "ig",
        "ht"
      ],
      [
        "Ġa",
        "t"
      ],
      [
        "a",
        "g"
      ],
      [
        "c",
        "h"
      ],
      [
        "Ġhe",
        "r"
      ],
      [
        "he",
        "r"
      ],
      [
        "Ġa",
        "re"
      ],
      [
        "!",
        "!"
      ],
      [
        "Ġb",
        "ut"
      ],
      [
        "om",
        "e"
      ],
      [
        "s",
        "e"
      ],
      [
        "Ġd",
        "e"
      ],
      [
        "Ġn",
        "e"
      ],
      [
        "Ġf",
        "r"
      ],
      [
        "all",
        "y"
      ],
      [
        "Ġ",
        "1"
      ],
      [
        "E",
        "R"
      ],
      [
        "Ġli",
        "ke"
      ],
      [
        "Ġc",
        "an"
      ],
      [
        "Ġa",
        "ll"
      ],
      [
        "p",
        "p"
      ],
      [
        "Ġg",
        "et"
      ],
      [
        "o",
        "l"
      ],
      [
        "u",
        "l"
      ],
      [
        "Ġa",
        "b"
      ],
      [
        "q",
        "u"
      ],
      [
        "ĠT",
        "H"
      ],
      [
        "O",
        "O"
      ],
      [
        "es",
        "s"
      ],
      [
        "at",
        "e"
      ],
      [
        "on",
        "e"
      ],
      [
        "ac",
        "k"
      ],
      [
        "ver",
        "y"
      ],
      [
        "n",
        "t"
      ],
      [
        "o",
        "d"
      ],
      [
        "es",
        "t"
      ],
      [
        "ar",
        "t"
      ],
      [
        "Ġo",
        "r"
      ],
      [
        "Ġj",
        "ust"
      ],
      [
        "a",
        "b"
      ],
      [
        "Ġ",
        "v"
      ],
      [
        "Ġc",
        "h"
      ],
      [
        "is",
        "t"
      ],
      [
        "Ġc",
        "on"
      ],
      [
        "ou",
        "r"
      ],
      [
        "er",
        "s"
      ],
      [
        "e",
        "m"
      ],
      [
        "a",
        "in"
      ],
      [
        "Ġu",
        "p"
      ],
      [
        "t",
        "h"
      ],
      [
        "Ġk",
        "n"
      ],
      [
        "a",
        "ke"
      ],
      [
        "Ġthe",
        "y"
      ],
      [
        "Ġc",
        "om"
      ],
      [
        "O",
        "U"
      ],
      [
        "us",
        "e"
      ],
      [
        "Ġ",
        "out"
      ],
      [
        "Ġp",
        "l"
      ],
      [
        "i",
        "ve"
      ],
      [
        "Ġw",
        "ill"
      ],
      [
        "a",
        "nd"
      ],
      [
        "Ġe",
        "x"
      ],
      [
        "Ġa",
        "l"
      ],
      [
        "Ġ",
        "i"
      ],
      [
        "Ġt",
        "r"
      ],
      [
        "Ġw",
        "he"
      ],
      [
        "A",
        "N"
      ],
      [
        "Ġg",
        "o"
      ],
      [
        "am",
        "e"
      ],
      [
        "a",
        "k"
      ],
      [
        "A",
        "T"
      ],
      [
        "o",
        "c"
      ],
      [
        "Ġh",
        "is"
      ],
      [
        "at",
        "ion"
      ],
      [
        "ic",
        "k"
      ],
      [
        "Ġw",
        "or"
      ],
      [
        "e",
        "ll"
      ],
      [
        "Ġs",
        "he"
      ],
      [
        "ĠT",
        "h"
      ],
      [
        "on",
        "g"
      ],
      [
        "ĠY",
        "ou"
      ],
      [
        "Ġ",
        "J"
      ],
      [
        "Ġ",
        "K"
      ],
      [
        "y",
        "l"
      ],
      [
        "Ġs",
        "p"
      ],
      [
        "as",
        "t"
      ],
      [
        "ar",
        "d"
      ],
      [
        "ou",
        "g"
      ],
      [
        "Ġ",
        "U"
      ],
      [
        "b",
        "er"
      ],
      [
        "a",
        "p"
      ],
      [
        "Ġ",
        "2"
      ],
      [
        "u",
        "re"
      ],
      [
        "Ġn",
        "o"
      ],
      [
        "IN",
        "G"
      ],
      [
        "v",
        "en"
      ],
      [
        "Ġkn",
        "ow"
      ],
      [
        "Ġfr",
        "om"
      ],
      [
        "C",
        "K"
      ],
      [
        "Ġin",
        "t"
      ],
      [
        "A",
        "R"
      ],
      [
        "Ġw",
        "ould"
      ],
      [
        "Ġl",
        "e"
      ],
      [
        "1",
        "1"
      ],
      [
        "a",
        "re"
      ],
      [
        "Ġf",
        "uc"
      ],
      [
        "L",
        "L"
      ],
      [
        "in",
        "d"
      ],
      [
        "im",
        "e"
      ],
      [
        "Ġwh",
        "at"
      ],
      [
        "Ġab",
        "out"
      ],
      [
        "ĠI",
        "t"
      ],
      [
        "Ġbe",
        "c"
      ],
      [
        "os",
        "t"
      ],
      [
        "id",
        "e"
      ],
      [
        "A",
        "A"
      ],
      [
        "Ġ",
        "if"
      ],
      [
        "E",
        "S"
      ],
      [
        "R",
        "R"
      ],
      [
        "i",
        "es"
      ],
      [
        "ec",
        "t"
      ],
      [
        "Ġan",
        "y"
      ],
      [
        "Ġw",
        "ant"
      ],
      [
        "Ġb",
        "y"
      ],
      [
        "a",
        "use"
      ],
      [
        "E",
        "N"
      ],
      [
        "O",
        "N"
      ],
      [
        "Ġa",
        "c"
      ],
      [
        "ou",
        "nd"
      ],
      [
        "Ġon",
        "e"
      ],
      [
        "'",
        "m"
      ],
      [
        "Ġd",
        "on"
      ],
      [
        "Ġe",
        "very"
      ],
      [
        "g",
        "e"
      ],
      [
        "r",
        "i"
      ],
      [
        "Ġf",
        "e"
      ],
      [
        "e",
        "p"
      ],
      [
        "Ġh",
        "im"
      ],
      [
        "Ġa",
        "m"
      ],
      [
        "Ġwh",
        "o"
      ],
      [
        "Ġs",
        "a"
      ],
      [
        "Ġs",
        "ome"
      ],
      [
        "ĠY",
        "OU"
      ],
      [
        "re",
        "s"
      ],
      [
        "Ġp",
        "ro"
      ],
      [
        "it",
        "y"
      ],
      [
        "ou",
        "s"
      ],
      [
        "oo",
        "d"
      ],
      [
        "in",
        "k"
      ],
      [
        "ĠĠĠĠ",
        "ĠĠĠĠ"
      ],
      [
        "..",
        "."
      ],
      [
        "in",
        "e"
      ],
      [
        "i",
        "z"
      ],
      [
        "re",
        "d"
      ],
      [
        "r",
        "y"
      ],
      [
        "Ġh",
        "as"
      ],
      [
        "Ġc",
        "l"
      ],
      [
        "as",
        "s"
      ],
      [
        "Ġthe",
        "m"
      ],
      [
        "Ġa",
        "r"
      ],
      [
        "h",
        "ing"
      ],
      [
        "O",
        "R"
      ],
      [
        "Ġwhe",
        "n"
      ],
      [
        "Ġm",
        "an"
      ],
      [
        "ĠTH",
        "E"
      ],
      [
        "or",
        "t"
      ],
      [
        "Ġs",
        "u"
      ],
      [
        "i",
        "p"
      ],
      [
        "ow",
        "n"
      ],
      [
        "os",
        "e"
      ],
      [
        "oo",
        "k"
      ],
      [
        "Ġ",
        "us"
      ],
      [
        "Ġp",
        "e"
      ],
      [
        "Ġm",
        "ore"
      ],
      [
        "Ġb",
        "ack"
      ],
      [
        "ĠH",
        "e"
      ],
      [
        "Ġ",
        "im"
      ],
      [
        "Ġint",
        "o"
      ],
      [
        "e",
        "ar"
      ],
      [
        "Ġ",
        "en"
      ],
      [
        "Ġ",
        "qu"
      ],
      [
        "Ġt",
        "ime"
      ],
      [
        "Ġbec",
        "ause"
      ],
      [
        "oug",
        "h"
      ],
      [
        "Ġu",
        "n"
      ],
      [
        "Ġthe",
        "ir"
      ],
      [
        "I",
        "T"
      ],
      [
        "o",
        "ve"
      ],
      [
        "Ġthe",
        "re"
      ],
      [
        "i",
        "le"
      ],
      [
        "an",
        "s"
      ],
      [
        "f",
        "f"
      ],
      [
        "Ġe",
        "ven"
      ],
      [
        "un",
        "k"
      ],
      [
        "E",
        "D"
      ],
      [
        "u",
        "d"
      ],
      [
        "Ġpl",
        "ay"
      ],
      [
        "Ġa",
        "g"
      ],
      [
        "Ġ",
        "V"
      ],
      [
        "Ġs",
        "c"
      ],
      [
        "i",
        "v"
      ],
      [
        "m",
        "ent"
      ],
      [
        "u",
        "e"
      ],
      [
        "Ġs",
        "ay"
      ],
      [
        "I",
        "S"
      ],
      [
        "ic",
        "h"
      ],
      [
        "Ġof",
        "f"
      ],
      [
        "Ġit",
        "s"
      ],
      [
        "ac",
        "e"
      ],
      [
        "ĠW",
        "h"
      ],
      [
        "Ġb",
        "l"
      ],
      [
        "ag",
        "e"
      ],
      [
        "i",
        "b"
      ],
      [
        "u",
        "g"
      ],
      [
        "ic",
        "e"
      ],
      [
        "E",
        "T"
      ],
      [
        "if",
        "e"
      ],
      [
        "t",
        "e"
      ],
      [
        "it",
        "e"
      ],
      [
        "y",
        "s"
      ],
      [
        "Ġh",
        "ad"
      ],
      [
        "t",
        "ing"
      ],
      [
        "op",
        "le"
      ],
      [
        "ĠA",
        "nd"
      ],
      [
        "Ġc",
        "ould"
      ],
      [
        "Ġn",
        "ow"
      ],
      [
        "i",
        "a"
      ],
      [
        "Ġthe",
        "n"
      ],
      [
        "Ġp",
        "r"
      ],
      [
        "Ġd",
        "id"
      ],
      [
        "ĠC",
        "y"
      ],
      [
        "t",
        "her"
      ],
      [
        "R",
        "E"
      ],
      [
        "w",
        "ay"
      ],
      [
        "o",
        "g"
      ],
      [
        "oc",
        "k"
      ],
      [
        "uc",
        "h"
      ],
      [
        "ĠCy",
        "ber"
      ],
      [
        "Ġh",
        "ow"
      ],
      [
        "'",
        "re"
      ],
      [
        "p",
        "unk"
      ],
      [
        "ĠCyber",
        "punk"
      ],
      [
        "ac",
        "t"
      ],
      [
        "Ġon",
        "ly"
      ],
      [
        "Ġo",
        "ver"
      ],
      [
        "Ġm",
        "ake"
      ],
      [
        "Ġ",
        "."
      ],
      [
        "N",
        "D"
      ],
      [
        "Ġ",
        "3"
      ],
      [
        "Ġd",
        "ay"
      ],
      [
        "Ġg",
        "ot"
      ],
      [
        "ĠT",
        "O"
      ],
      [
        "Ġpe",
        "ople"
      ],
      [
        "el",
        "f"
      ],
      [
        "p",
        "t"
      ],
      [
        "Ġg",
        "r"
      ],
      [
        "H",
        "H"
      ],
      [
        "Ġse",
        "e"
      ],
      [
        "Ġ",
        "0"
      ],
      [
        "p",
        "l"
      ],
      [
        "n",
        "a"
      ],
      [
        "A",
        "S"
      ],
      [
        "Ġfuc",
        "king"
      ],
      [
        "p",
        "er"
      ],
      [
        "Ġ",
        "ro"
      ],
      [
        "re",
        "at"
      ],
      [
        "uc",
        "k"
      ],
      [
        "ĠI",
        "f"
      ],
      [
        "Ġwe",
        "re"
      ],
      [
        "Ġth",
        "an"
      ],
      [
        "i",
        "re"
      ],
      [
        "Ġg",
        "u"
      ],
      [
        "O",
        "T"
      ],
      [
        "a",
        "v"
      ],
      [
        "Ġth",
        "ink"
      ],
      [
        "u",
        "ll"
      ],
      [
        "it",
        "t"
      ],
      [
        "Ġd",
        "own"
      ],
      [
        "Ġbe",
        "en"
      ],
      [
        "o",
        "y"
      ],
      [
        "on",
        "d"
      ],
      [
        "Ġas",
        "s"
      ],
      [
        "Ġ",
        "6"
      ],
      [
        "U",
        "T"
      ],
      [
        "Ġb",
        "r"
      ],
      [
        "is",
        "h"
      ],
      [
        "Ġr",
        "ight"
      ],
      [
        "as",
        "e"
      ],
      [
        "Ġo",
        "ther"
      ],
      [
        "ĠTh",
        "is"
      ],
      [
        "i",
        "ed"
      ],
      [
        "u",
        "b"
      ],
      [
        "Ġ",
        "our"
      ],
      [
        "Ġs",
        "m"
      ],
      [
        "Ġfe",
        "el"
      ],
      [
        "Ġne",
        "ed"
      ],
      [
        "Ġ",
        "5"
      ],
      [
        "f",
        "ter"
      ],
      [
        "ab",
        "le"
      ],
      [
        "O",
        "W"
      ],
      [
        "Ġto",
        "o"
      ],
      [
        "s",
        "o"
      ],
      [
        "e",
        "e"
      ],
      [
        "Ġs",
        "l"
      ],
      [
        "Ġl",
        "ook"
      ],
      [
        "Ġd",
        "is"
      ],
      [
        "ac",
        "h"
      ],
      [
        "Ġse",
        "x"
      ],
      [
        "Ġst",
        "art"
      ],
      [
        "a",
        "h"
      ],
      [
        "Ġt",
        "e"
      ],
      [
        "o",
        "b"
      ],
      [
        "ie",
        "nd"
      ],
      [
        "ad",
        "e"
      ],
      [
        "Ġp",
        "re"
      ],
      [
        "?",
        "?"
      ],
      [
        "an",
        "g"
      ],
      [
        "Ġag",
        "ain"
      ],
      [
        "ĠM",
        "y"
      ],
      [
        "Ġfuc",
        "k"
      ],
      [
        "Ġth",
        "r"
      ],
      [
        "Ġf",
        "l"
      ],
      [
        "Ġcom",
        "p"
      ],
      [
        "os",
        "s"
      ],
      [
        "ĠB",
        "ut"
      ],
      [
        "L",
        "E"
      ],
      [
        "C",
        "H"
      ],
      [
        "Ġc",
        "r"
      ],
      [
        "Ġl",
        "ife"
      ],
      [
        "f",
        "t"
      ],
      [
        "Ġth",
        "ing"
      ],
      [
        "ĠI",
        "n"
      ],
      [
        "ĠA",
        "ND"
      ],
      [
        "ĠC",
        "h"
      ],
      [
        "nd",
        "er"
      ],
      [
        "or",
        "n"
      ],
      [
        "Ġwh",
        "ich"
      ],
      [
        "ĠS",
        "o"
      ],
      [
        "Ġsa",
        "id"
      ],
      [
        "ĠS",
        "he"
      ],
      [
        "om",
        "et"
      ],
      [
        "th",
        "ing"
      ],
      [
        "Ġp",
        "er"
      ],
      [
        "ot",
        "her"
      ],
      [
        "Ġy",
        "ear"
      ],
      [
        "Ġw",
        "ay"
      ],
      [
        "U",
        "CK"
      ],
      [
        "Ġne",
        "ver"
      ],
      [
        "Ġcon",
        "t"
      ],
      [
        "k",
        "s"
      ],
      [
        "A",
        "L"
      ],
      [
        "c",
        "t"
      ],
      [
        "i",
        "ous"
      ],
      [
        "Ġm",
        "a"
      ],
      [
        "in",
        "t"
      ],
      [
        "is",
        "s"
      ],
      [
        "v",
        "ing"
      ],
      [
        "E",
        "E"
      ],
      [
        "ĠO",
        "F"
      ],
      [
        "Ġac",
        "t"
      ],
      [
        "he",
        "d"
      ],
      [
        "ĠI",
        "m"
      ],
      [
        "res",
        "s"
      ],
      [
        "A",
        "M"
      ],
      [
        "Ġw",
        "at"
      ],
      [
        "Ġ",
        "#"
      ],
      [
        "i",
        "al"
      ],
      [
        "Ġg",
        "ood"
      ],
      [
        "ur",
        "n"
      ],
      [
        "at",
        "ed"
      ],
      [
        "Ġa",
        "d"
      ],
      [
        "ĠW",
        "e"
      ],
      [
        "Ġ",
        "4"
      ],
      [
        "od",
        "y"
      ],
      [
        "w",
        "n"
      ],
      [
        "Ġre",
        "ally"
      ],
      [
        "s",
        "elf"
      ],
      [
        "ĠS",
        "t"
      ],
      [
        "i",
        "an"
      ],
      [
        "Ġbe",
        "ing"
      ],
      [
        "A",
        "D"
      ],
      [
        "Ġg",
        "ame"
      ],
      [
        "i",
        "ld"
      ],
      [
        "Ġre",
        "al"
      ],
      [
        "at",
        "h"
      ],
      [
        "Ġe",
        "m"
      ],
      [
        "Ġbe",
        "t"
      ],
      [
        "ir",
        "l"
      ],
      [
        "en",
        "s"
      ],
      [
        "O",
        "M"
      ],
      [
        "ion",
        "s"
      ],
      [
        "U",
        "S"
      ],
      [
        "A",
        "Y"
      ],
      [
        "Ġwor",
        "ld"
      ],
      [
        "Ġ",
        ","
      ],
      [
        "re",
        "am"
      ],
      [
        "en",
        "ce"
      ],
      [
        "Ġl",
        "et"
      ],
      [
        "Ġ2",
        "0"
      ],
      [
        "e",
        "nd"
      ],
      [
        "re",
        "e"
      ],
      [
        "!!",
        "!!"
      ],
      [
        "u",
        "al"
      ],
      [
        "Ġ0",
        "11"
      ],
      [
        "Ġsh",
        "it"
      ],
      [
        "Ġp",
        "o"
      ],
      [
        "a",
        "ve"
      ],
      [
        "or",
        "m"
      ],
      [
        "Ġtr",
        "y"
      ],
      [
        "U",
        "M"
      ],
      [
        "Ġre",
        "s"
      ],
      [
        "Ġt",
        "w"
      ],
      [
        "AA",
        "AA"
      ],
      [
        "Ġt",
        "ake"
      ],
      [
        "Ġl",
        "ove"
      ],
      [
        "Ġgo",
        "ing"
      ],
      [
        "1",
        "0"
      ],
      [
        "Ġs",
        "omet"
      ],
      [
        "t",
        "y"
      ],
      [
        "Ġc",
        "all"
      ],
      [
        "Ġdo",
        "es"
      ],
      [
        "A",
        "P"
      ],
      [
        "f",
        "ore"
      ],
      [
        "ĠI",
        "N"
      ],
      [
        "u",
        "ally"
      ],
      [
        "he",
        "n"
      ],
      [
        "Ġh",
        "um"
      ],
      [
        "ĠW",
        "H"
      ],
      [
        "ir",
        "st"
      ],
      [
        "ow",
        "er"
      ],
      [
        "Ġm",
        "uch"
      ],
      [
        "Ġa",
        "fter"
      ],
      [
        "x",
        "t"
      ],
      [
        "Ġhe",
        "re"
      ],
      [
        "itt",
        "le"
      ],
      [
        "at",
        "ing"
      ],
      [
        "on",
        "s"
      ],
      [
        "an",
        "ce"
      ],
      [
        "Ġwhe",
        "re"
      ],
      [
        "oug",
        "ht"
      ],
      [
        "Ġ",
        "ke"
      ],
      [
        "Ġc",
        "o"
      ],
      [
        "ĠWh",
        "at"
      ],
      [
        "V",
        "E"
      ],
      [
        "Ġwh",
        "ile"
      ],
      [
        "or",
        "d"
      ],
      [
        "on",
        "t"
      ],
      [
        "Ġin",
        "s"
      ],
      [
        "k",
        "ed"
      ],
      [
        "oo",
        "l"
      ],
      [
        "re",
        "n"
      ],
      [
        "ĠThe",
        "y"
      ],
      [
        "Ġha",
        "pp"
      ],
      [
        "n",
        "y"
      ],
      [
        "'",
        "ll"
      ],
      [
        "Ġsh",
        "ould"
      ],
      [
        "ou",
        "nt"
      ],
      [
        "b",
        "e"
      ],
      [
        "Ġm",
        "ay"
      ],
      [
        "he",
        "s"
      ],
      [
        "Ġd",
        "es"
      ],
      [
        "Ġ",
        "very"
      ],
      [
        "A",
        "LL"
      ],
      [
        "h",
        "h"
      ],
      [
        "Ġl",
        "a"
      ],
      [
        "Ġg",
        "irl"
      ],
      [
        "Ġu",
        "nder"
      ],
      [
        "Ġha",
        "nd"
      ],
      [
        "Ġdon",
        "t"
      ],
      [
        "Ġal",
        "so"
      ],
      [
        "'",
        "ve"
      ],
      [
        "or",
        "y"
      ],
      [
        "Ġs",
        "w"
      ],
      [
        "Ġ",
        "ĠčĊ"
      ],
      [
        "u",
        "p"
      ],
      [
        "Ġl",
        "ittle"
      ],
      [
        "ul",
        "t"
      ],
      [
        "Ġm",
        "ost"
      ],
      [
        "Ġth",
        "ose"
      ],
      [
        "ic",
        "al"
      ],
      [
        "v",
        "es"
      ],
      [
        "Ġe",
        "l"
      ],
      [
        "f",
        "e"
      ],
      [
        "Ġl",
        "ong"
      ],
      [
        "g",
        "l"
      ],
      [
        "Ġ",
        "7"
      ],
      [
        "Ġc",
        "he"
      ],
      [
        "Ġ",
        "ent"
      ],
      [
        "Ġim",
        "p"
      ],
      [
        "AR",
        "K"
      ],
      [
        "Ġfr",
        "iend"
      ],
      [
        "Ġsomet",
        "hing"
      ],
      [
        "Ġs",
        "k"
      ],
      [
        "U",
        "U"
      ],
      [
        "g",
        "et"
      ],
      [
        "Ġ",
        "8"
      ],
      [
        "Ġt",
        "al"
      ],
      [
        "Ġthr",
        "ough"
      ],
      [
        "v",
        "ed"
      ],
      [
        "ĠTh",
        "at"
      ],
      [
        "ers",
        "on"
      ],
      [
        "Ġa",
        "pp"
      ],
      [
        "Ġre",
        "m"
      ],
      [
        "ad",
        "y"
      ],
      [
        "ĠF",
        "UCK"
      ],
      [
        "RR",
        "RR"
      ],
      [
        "Ġp",
        "art"
      ],
      [
        "OO",
        "OO"
      ],
      [
        "I",
        "D"
      ],
      [
        "b",
        "le"
      ],
      [
        "Ġ",
        "Q"
      ],
      [
        "ve",
        "l"
      ],
      [
        "1",
        "00"
      ],
      [
        "Ġin",
        "c"
      ],
      [
        "Ġbe",
        "fore"
      ],
      [
        "Ġm",
        "ade"
      ],
      [
        "ar",
        "k"
      ],
      [
        "Ġe",
        "ver"
      ],
      [
        "ĠI",
        "S"
      ],
      [
        "ig",
        "h"
      ],
      [
        "Ġh",
        "o"
      ],
      [
        "Ġf",
        "irst"
      ],
      [
        "Ġar",
        "ound"
      ],
      [
        "Ġthe",
        "se"
      ],
      [
        "I",
        "C"
      ],
      [
        "ĠS",
        "T"
      ],
      [
        "i",
        "ly"
      ],
      [
        "n",
        "e"
      ],
      [
        "Ġp",
        "ut"
      ],
      [
        "a",
        "z"
      ],
      [
        "ic",
        "t"
      ],
      [
        "Ġt",
        "ell"
      ],
      [
        "Ġst",
        "ill"
      ],
      [
        "Ġne",
        "w"
      ],
      [
        "b",
        "s"
      ],
      [
        "Ġb",
        "re"
      ],
      [
        "Ġm",
        "om"
      ],
      [
        "Ġp",
        "h"
      ],
      [
        "us",
        "s"
      ],
      [
        "Ġe",
        "nd"
      ],
      [
        "p",
        "e"
      ],
      [
        "A",
        "K"
      ],
      [
        "Ġm",
        "o"
      ],
      [
        "I",
        "G"
      ],
      [
        "Ġ",
        "z"
      ],
      [
        "Ġd",
        "ec"
      ],
      [
        "is",
        "e"
      ],
      [
        "ĠG",
        "ET"
      ],
      [
        "Ġat",
        "t"
      ],
      [
        "a",
        "a"
      ],
      [
        "ĠM",
        "Y"
      ],
      [
        "ĠM",
        "E"
      ],
      [
        "Ġst",
        "op"
      ],
      [
        "Ġg",
        "ra"
      ],
      [
        "Ġp",
        "erson"
      ],
      [
        "way",
        "s"
      ],
      [
        "ĠB",
        "E"
      ],
      [
        "Ġm",
        "in"
      ],
      [
        "Ġs",
        "er"
      ],
      [
        "Ġb",
        "u"
      ],
      [
        "Ġg",
        "ive"
      ],
      [
        "ĠI",
        "T"
      ],
      [
        "O",
        "L"
      ],
      [
        "id",
        "ent"
      ],
      [
        "Ġb",
        "o"
      ],
      [
        "Ġs",
        "ec"
      ],
      [
        "ig",
        "n"
      ],
      [
        "a",
        "il"
      ],
      [
        "00",
        "0"
      ],
      [
        "f",
        "ul"
      ],
      [
        "ut",
        "e"
      ],
      [
        "ĠA",
        "s"
      ],
      [
        "ĠS",
        "h"
      ],
      [
        "Ġac",
        "c"
      ],
      [
        "c",
        "i"
      ],
      [
        "ĠB",
        "ARK"
      ],
      [
        "p",
        "s"
      ],
      [
        "ig",
        "g"
      ],
      [
        "Ġd",
        "ick"
      ],
      [
        "ĠĠĠĠĠĠĠĠ",
        "ĠĠĠĠĠĠĠĠ"
      ],
      [
        "im",
        "es"
      ],
      [
        "d",
        "it"
      ],
      [
        "l",
        "es"
      ],
      [
        "Ġwh",
        "y"
      ],
      [
        "ra",
        "in"
      ],
      [
        "U",
        "N"
      ],
      [
        "an",
        "k"
      ],
      [
        "Ġ1",
        "0"
      ],
      [
        "i",
        "k"
      ],
      [
        "Ġh",
        "ard"
      ],
      [
        "ar",
        "m"
      ],
      [
        "ĠH",
        "E"
      ],
      [
        "as",
        "h"
      ],
      [
        "S",
        "S"
      ],
      [
        "d",
        "ay"
      ],
      [
        "Ġb",
        "it"
      ],
      [
        "ar",
        "y"
      ],
      [
        "Ġd",
        "r"
      ],
      [
        "p",
        "ect"
      ],
      [
        "p",
        "h"
      ],
      [
        "Ġc",
        "um"
[...]
