<unk>	0
<s>	0
</s>	0
▁t	-0
▁a	-1
he	-2
in	-3
▁s	-4
ou	-5
▁w	-6
re	-7
▁m	-8
▁the	-9
on	-10
▁b	-11
er	-12
▁I	-13
nd	-14
▁c	-15
at	-16
it	-17
ing	-18
is	-19
▁f	-20
▁o	-21
▁d	-22
▁to	-23
▁p	-24
▁h	-25
an	-26
en	-27
ll	-28
ed	-29
or	-30
es	-31
▁th	-32
▁y	-33
▁and	-34
▁l	-35
▁g	-36
▁you	-37
ar	-38
as	-39
▁n	-40
▁of	-41
▁in	-42
▁T	-43
om	-44
▁e	-45
us	-46
le	-47
▁S	-48
ic	-49
ve	-50
▁be	-51
ow	-52
▁A	-53
ot	-54
al	-55
et	-56
▁he	-57
ay	-58
▁it	-59
▁is	-60
ut	-61
ac	-62
id	-63
▁my	-64
▁on	-65
im	-66
▁that	-67
▁B	-68
▁M	-69
ad	-70
ly	-71
▁re	-72
ke	-73
am	-74
ver	-75
▁W	-76
▁H	-77
ld	-78
ent	-79
▁me	-80
os	-81
▁u	-82
▁st	-83
gh	-84
ion	-85
▁for	-86
▁C	-87
▁wh	-88
▁r	-89
▁D	-90
▁ha	-91
ir	-92
ith	-93
all	-94
▁Y	-95
▁with	-96
out	-97
oo	-98
▁li	-99
▁P	-100
uc	-101
▁G	-102
▁F	-103
▁as	-104
ill	-105
▁an	-106
..	-107
ec	-108
▁j	-109
▁O	-110
▁k	-111
el	-112
ur	-113
op	-114
▁was	-115
▁N	-116
▁this	-117
ter	-118
▁your	-119
▁we	-120
ant	-121
▁so	-122
ust	-123
if	-124
ght	-125
st	-126
um	-127
▁L	-128
▁se	-129
▁The	-130
▁sh	-131
ra	-132
ould	-133
▁do	-134
ro	-135
ri	-136
▁R	-137
▁have	-138
ce	-139
king	-140
▁not	-141
▁her	-142
ore	-143
IN	-144
▁E	-145
il	-146
▁at	-147
!!	-148
un	-149
ch	-150
her	-151
ag	-152
▁but	-153
▁de	-154
▁are	-155
▁ne	-156
ome	-157
ER	-158
se	-159
ally	-160
▁can	-161
▁like	-162
▁get	-163
▁all	-164
▁TH	-165
qu	-166
ight	-167
▁ab	-168
ol	-169
ate	-170
ess	-171
ul	-172
pp	-173
nt	-174
▁just	-175
est	-176
▁v	-177
od	-178
one	-179
OO	-180
ack	-181
▁ch	-182
very	-183
em	-184
▁or	-185
ab	-186
▁con	-187
ist	-188
art	-189
OU	-190
▁up	-191
▁fr	-192
our	-193
▁ma	-194
▁1	-195
▁com	-196
ers	-197
▁kn	-198
▁pl	-199
ig	-200
▁out	-201
▁will	-202
use	-203
ain	-204
▁they	-205
▁al	-206
▁ex	-207
oc	-208
▁whe	-209
th	-210
▁she	-211
and	-212
AT	-213
AN	-214
▁his	-215
▁go	-216
ame	-217
ie	-218
ation	-219
▁wor	-220
ive	-221
▁U	-222
▁Th	-223
ING	-224
ry	-225
end	-226
ard	-227
ast	-228
ick	-229
▁sp	-230
▁You	-231
CK	-232
▁i	-233
▁from	-234
ven	-235
ure	-236
rou	-237
▁no	-238
▁int	-239
▁J	-240
▁le	-241
ell	-242
▁know	-243
LL	-244
ap	-245
▁fuc	-246
▁would	-247
AA	-248
ak	-249
are	-250
ime	-251
ind	-252
ong	-253
▁It	-254
ES	-255
▁about	-256
ect	-257
▁want	-258
EN	-259
▁by	-260
ost	-261
▁bec	-262
▁if	-263
▁2	-264
▁any	-265
▁what	-266
ON	-267
ause	-268
ide	-269
▁ac	-270
AR	-271
▁YOU	-272
▁sa	-273
▁one	-274
▁K	-275
▁don	-276
▁fe	-277
▁him	-278
▁am	-279
ep	-280
▁every	-281
ies	-282
▁who	-283
00	-284
ity	-285
▁some	-286
OR	-287
res	-288
iz	-289
▁has	-290
▁THE	-291
▁cl	-292
ood	-293
ink	-294
▁them	-295
fe	-296
▁when	-297
▁man	-298
...	-299
ge	-300
ous	-301
red	-302
ook	-303
▁su	-304
ort	-305
ose	-306
▁more	-307
▁qu	-308
▁back	-309
ine	-310
own	-311
▁He	-312
▁pe	-313
▁en	-314
ass	-315
ip	-316
RR	-317
▁into	-318
hing	-319
ear	-320
▁im	-321
▁time	-322
▁us	-323
▁pro	-324
▁un	-325
▁play	-326
▁their	-327
▁because	-328
ED	-329
ile	-330
IT	-331
ans	-332
ove	-333
▁even	-334
▁ag	-335
ake	-336
IS	-337
▁pr	-338
▁say	-339
▁there	-340
ment	-341
ET	-342
▁sc	-343
▁tr	-344
age	-345
▁its	-346
ud	-347
▁off	-348
iv	-349
ice	-350
ff	-351
▁Wh	-352
ib	-353
ace	-354
ock	-355
ue	-356
ich	-357
RE	-358
ting	-359
▁.	-360
ople	-361
▁And	-362
ther	-363
▁bl	-364
▁could	-365
▁had	-366
og	-367
way	-368
▁then	-369
ite	-370
▁did	-371
▁how	-372
▁over	-373
▁V	-374
▁only	-375
ND	-376
oy	-377
act	-378
▁make	-379
▁now	-380
▁day	-381
HH	-382
uch	-383
per	-384
▁people	-385
▁fucking	-386
elf	-387
▁see	-388
▁got	-389
▁If	-390
▁3	-391
AS	-392
OT	-393
pt	-394
ia	-395
ull	-396
▁TO	-397
▁than	-398
reat	-399
pl	-400
▁been	-401
UT	-402
▁ass	-403
itt	-404
ire	-405
▁down	-406
▁think	-407
ond	-408
▁were	-409
av	-410
▁gu	-411
▁other	-412
▁need	-413
ase	-414
▁feel	-415
na	-416
▁sex	-417
ish	-418
ob	-419
fter	-420
able	-421
▁our	-422
▁This	-423
uck	-424
▁sl	-425
▁too	-426
▁dis	-427
▁start	-428
▁look	-429
▁sm	-430
so	-431
round	-432
▁ar	-433
riend	-434
OW	-435
▁pre	-436
▁again	-437
▁My	-438
CH	-439
ach	-440
LE	-441
▁5	-442
ub	-443
ade	-444
ang	-445
▁comp	-446
▁cont	-447
ft	-448
▁right	-449
▁fuck	-450
ound	-451
▁She	-452
▁AND	-453
▁But	-454
▁said	-455
ee	-456
int	-457
oss	-458
▁So	-459
UCK	-460
▁fl	-461
▁year	-462
ah	-463
▁per	-464
▁thing	-465
▁cr	-466
▁life	-467
ber	-468
orn	-469
AL	-470
omet	-471
▁never	-472
other	-473
ys	-474
ks	-475
▁OF	-476
ough	-477
ving	-478
▁wat	-479
▁way	-480
AD	-481
thing	-482
EE	-483
ct	-484
▁In	-485
▁te	-486
AM	-487
ious	-488
▁Im	-489
▁which	-490
▁game	-491
▁ad	-492
▁br	-493
urn	-494
▁gr	-495
self	-496
ress	-497
AY	-498
irl	-499
ated	-500
wn	-501
iss	-502
▁bet	-503
▁,	-504
te	-505
▁good	-506
ied	-507
OM	-508
▁act	-509
US	-510
▁Ch	-511
ath	-512
!!!!	-513
nder	-514
▁real	-515
AAAA	-516
▁We	-517
ual	-518
UM	-519
▁world	-520
ial	-521
ens	-522
▁being	-523
▁really	-524
▁res	-525
▁em	-526
ions	-527
▁love	-528
▁let	-529
ild	-530
▁po	-531
▁take	-532
▁try	-533
ream	-534
AP	-535
hed	-536
▁shit	-537
orm	-538
??	-539
▁call	-540
▁WH	-541
▁tw	-542
ence	-543
▁4	-544
▁does	-545
ave	-546
ody	-547
ug	-548
ree	-549
fore	-550
▁somet	-551
▁going	-552
▁after	-553
▁hum	-554
▁IN	-555
ance	-556
irst	-557
▁much	-558
ower	-559
▁while	-560
ating	-561
▁ro	-562
ittle	-563
▁ke	-564
ually	-565
ons	-566
VE	-567
▁co	-568
▁St	-569
▁where	-570
▁girl	-571
ALL	-572
ked	-573
hen	-574
▁under	-575
ord	-576
▁What	-577
hes	-578
ian	-579
▁dr	-580
ty	-581
▁They	-582
ool	-583
▁ins	-584
▁may	-585
▁should	-586
▁el	-587
ren	-588
▁dont	-589
▁hand	-590
▁sw	-591
ount	-592
▁very	-593
hh	-594
▁also	-595
▁la	-596
▁those	-597
▁happ	-598
be	-599
ny	-600
▁here	-601
rough	-602
▁des	-603
▁friend	-604
UU	-605
▁little	-606
ical	-607
ves	-608
▁FUCK	-609
▁che	-610
▁most	-611
up	-612
▁ent	-613
▁long	-614
ory	-615
▁sk	-616
▁through	-617
get	-618
ult	-619
vel	-620
erson	-621
▁app	-622
ID	-623
▁rem	-624
▁something	-625
▁IS	-626
▁imp	-627
ady	-628
OOOO	-629
ved	-630
▁around	-631
▁That	-632
▁z	-633
▁ST	-634
▁GET	-635
▁before	-636
▁bre	-637
xt	-638
▁att	-639
▁still	-640
▁part	-641
▁tell	-642
▁ho	-643
▁inc	-644
▁made	-645
bs	-646
ont	-647
▁tal	-648
AK	-649
▁first	-650
ark	-651
ble	-652
▁mo	-653
IC	-654
▁gra	-655
ought	-656
IG	-657
▁8	-658
▁end	-659
igh	-660
▁BE	-661
▁dec	-662
▁mom	-663
▁these	-664
▁put	-665
▁IT	-666
kes	-667
▁20	-668
▁new	-669
▁ph	-670
▁person	-671
ident	-672
ily	-673
ways	-674
▁min	-675
▁HE	-676
▁MY	-677
▁stop	-678
▁give	-679
ict	-680
▁ser	-681
OL	-682
▁ever	-683
UN	-684
▁bu	-685
▁sec	-686
▁acc	-687
ise	-688
rain	-689
az	-690
▁big	-691
▁cum	-692
ful	-693
▁As	-694
▁dick	-695
pect	-696
ci	-697
▁6	-698
ign	-699
▁hard	-700
▁why	-701
▁SH	-702
▁que	-703
day	-704
ute	-705
▁bit	-706
▁SL	-707
▁*	-708
les	-709
aa	-710
11	-711
ope	-712
▁own	-713
▁When	-714
ash	-715
▁0	-716
ank	-717
lease	-718
ps	-719
dit	-720
▁ME	-721
imes	-722
▁ON	-723
▁fun	-724
OS	-725
ail	-726
▁ey	-727
▁PL	-728
▁sin	-729
uss	-730
▁fin	-731
arm	-732
oth	-733
▁No	-734
▁years	-735
▁better	-736
▁On	-737
ary	-738
▁YOUR	-739
gg	-740
YY	-741
▁use	-742
RRRR	-743
▁Un	-744
ible	-745
▁gon	-746
ICK	-747
izz	-748
▁wr	-749
▁mat	-750
▁Sh	-751
▁unt	-752
pe	-753
▁turn	-754
ert	-755
ii	-756
▁RE	-757
VER	-758
▁comm	-759
▁bo	-760
▁str	-761
▁face	-762
AH	-763
▁10	-764
▁come	-765
ew	-766
UR	-767
▁started	-768
▁human	-769
ations	-770
ION	-771
....	-772
▁Not	-773
IM	-774
▁gl	-775
▁cons	-776
less	-777
▁bel	-778
ILL	-779
▁gonna	-780
▁inst	-781
▁thought	-782
▁without	-783
IR	-784
ho	-785
aw	-786
ph	-787
▁head	-788
ors	-789
▁tri	-790
▁night	-791
▁show	-792
▁god	-793
▁gen	-794
▁body	-795
▁char	-796
ically	-797
ik	-798
IL	-799
▁watch	-800
▁op	-801
▁always	-802
ever	-803
SS	-804
!!!	-805
▁rec	-806
▁'	-807
▁keep	-808
▁CH	-809
▁many	-810
▁power	-811
vent	-812
ouse	-813
▁dam	-814
▁wom	-815
aking	-816
ars	-817
ple	-818
▁There	-819
▁THAT	-820
▁left	-821
HHHH	-822
▁point	-823
▁until	-824
▁nothing	-825
dy	-826
ning	-827
olog	-828
ward	-829
als	-830
eg	-831
ACK	-832
▁away	-833
▁cock	-834
▁work	-835
▁For	-836
UD	-837
oke	-838
▁kill	-839
▁mean	-840
▁9	-841
▁sy	-842
▁rel	-843
▁Am	-844
ale	-845
▁lo	-846
▁enough	-847
▁boy	-848
▁told	-849
▁hel	-850
▁having	-851
ather	-852
ness	-853
▁THIS	-854
▁um	-855
io	-856
app	-857
▁ind	-858
ling	-859
▁bad	-860
▁find	-861
ier	-862
▁since	-863
▁ext	-864
▁sit	-865
▁getting	-866
▁anything	-867
TH	-868
▁care	-869
OP	-870
▁well	-871
ARK	-872
ike	-873
▁such	-874
▁two	-875
ably	-876
▁car	-877
▁da	-878
here	-879
▁room	-880
ech	-881
iter	-882
ize	-883
ENT	-884
▁fo	-885
▁Z	-886
▁sim	-887
▁perf	-888
ense	-889
ANT	-890
▁wa	-891
▁post	-892
tern	-893
▁inf	-894
▁sure	-895
▁great	-896
anc	-897
row	-898
air	-899
▁best	-900
ump	-901
▁cle	-902
▁Al	-903
EST	-904
▁things	-905
▁next	-906
ng	-907
uff	-908
▁pen	-909
▁pass	-910
zy	-911
ified	-912
▁went	-913
▁same	-914
II	-915
▁run	-916
▁didn	-917
▁7	-918
▁Its	-919
KE	-920
▁Q	-921
CE	-922
▁LI	-923
CT	-924
▁eyes	-925
ix	-926
▁FOR	-927
erm	-928
ife	-929
rent	-930
ugh	-931
▁Oh	-932
orb	-933
▁How	-934
▁last	-935
gin	-936
ings	-937
▁hour	-938
ason	-939
ott	-940
ters	-941
▁against	-942
▁!	-943
▁youre	-944
▁second	-945
▁word	-946
▁sub	-947
AG	-948
▁someone	-949
▁Now	-950
▁else	-951
ha	-952
ates	-953
we	-954
ats	-955
▁es	-956
▁dif	-957
its	-958
▁NE	-959
uct	-960
▁myself	-961
▁everything	-962
▁sur	-963
▁wal	-964
iver	-965
▁mem	-966
▁NOT	-967
▁spe	-968
▁old	-969
und	-970
▁kind	-971
▁mon	-972
▁Every	-973
ets	-974
▁CUM	-975
▁name	-976
ately	-977
ieve	-978
▁Do	-979
▁red	-980
▁home	-981
▁entire	-982
▁another	-983
▁bas	-984
ange	-985
▁everyone	-986
▁DO	-987
▁help	-988
▁Your	-989
▁must	-990
led	-991
que	-992
▁pret	-993
▁once	-994
ung	-995
ATT	-996
▁friends	-997
▁bed	-998
ater	-999
▁fam	-1000
▁inside	-1001
ead	-1002
▁PLAP	-1003
▁fact	-1004
▁child	-1005
ek	-1006
▁team	-1007
▁FUCKING	-1008
▁Sp	-1009
▁comple	-1010
▁na	-1011
▁Be	-1012
▁ur	-1013
▁house	-1014
ird	-1015
▁SE	-1016
▁kid	-1017
▁cant	-1018
▁doing	-1019
▁full	-1020
▁hate	-1021
▁liter	-1022
ush	-1023
ism	-1024
▁used	-1025
▁BARK	-1026
▁par	-1027
▁sing	-1028
cept	-1029
▁making	-1030
▁..	-1031
▁guys	-1032
ots	-1033
▁leg	-1034
▁def	-1035
▁actually	-1036
▁few	-1037
▁Get	-1038
stand	-1039
?!	-1040
ipp	-1041
▁GO	-1042
▁hope	-1043
▁ty	-1044
ened	-1045
▁ALL	-1046
oney	-1047
▁mind	-1048
▁both	-1049
▁tra	-1050
▁charac	-1051
ret	-1052
▁saw	-1053
mon	-1054
▁All	-1055
▁top	-1056
▁poss	-1057
HT	-1058
▁each	-1059
ared	-1060
ember	-1061
▁supp	-1062
ane	-1063
▁ob	-1064
▁gam	-1065
stem	-1066
▁sch	-1067
SE	-1068
ety	-1069
▁To	-1070
▁God	-1071
med	-1072
▁sus	-1073
vol	-1074
att	-1075
▁tak	-1076
▁perfect	-1077
ese	-1078
▁high	-1079
▁came	-1080
alls	-1081
ited	-1082
▁cry	-1083
▁met	-1084
▁trying	-1085
▁DE	-1086
▁hot	-1087
ai	-1088
my	-1089
▁At	-1090
▁mus	-1091
▁makes	-1092
▁X	-1093
ERS	-1094
oun	-1095
umb	-1096
▁dad	-1097
leep	-1098
ility	-1099
▁whole	-1100
▁conf	-1101
der	-1102
▁means	-1103
ized	-1104
more	-1105
iting	-1106
▁break	-1107
▁bro	-1108
▁pop	-1109
aut	-1110
outh	-1111
▁fem	-1112
ts	-1113
ner	-1114
▁OUT	-1115
▁understand	-1116
LY	-1117
aster	-1118
▁times	-1119
▁vide	-1120
▁playing	-1121
ics	-1122
ents	-1123
▁might	-1124
▁took	-1125
eah	-1126
▁pull	-1127
▁expl	-1128
OCK	-1129
ina	-1130
▁beh	-1131
GG	-1132
ready	-1133
▁rest	-1134
▁sn	-1135
ject	-1136
▁cur	-1137
▁di	-1138
▁damage	-1139
▁guy	-1140
FF	-1141
▁PR	-1142
▁disc	-1143
enc	-1144
▁...	-1145
▁already	-1146
UST	-1147
▁Then	-1148
▁hours	-1149
▁saying	-1150
▁De	-1151
friend	-1152
cess	-1153
▁mod	-1154
▁system	-1155
▁done	-1156
ST	-1157
ussy	-1158
bably	-1159
▁SO	-1160
▁Yo	-1161
▁list	-1162
▁SP	-1163
▁pol	-1164
ao	-1165
ITH	-1166
▁pur	-1167
▁Just	-1168
▁called	-1169
END	-1170
▁ele	-1171
▁live	-1172
▁stand	-1173
ying	-1174
▁death	-1175
ude	-1176
▁rep	-1177
▁12	-1178
▁diffe	-1179
ok	-1180
ger	-1181
▁reg	-1182
ists	-1183
ooking	-1184
▁found	-1185
ESS	-1186
▁heart	-1187
▁sound	-1188
gy	-1189
ped	-1190
eric	-1191
▁hear	-1192
▁Is	-1193
arent	-1194
▁Tr	-1195
▁asked	-1196
▁literally	-1197
ities	-1198
AAAAAAAA	-1199
▁eff	-1200
▁ret	-1201
▁win	-1202
▁able	-1203
atch	-1204
▁ref	-1205
AB	-1206
▁ca	-1207
▁dep	-1208
▁water	-1209
▁school	-1210
echn	-1211
▁anymore	-1212
▁bab	-1213
▁soci	-1214
ax	-1215
ior	-1216
▁AN	-1217
▁BL	-1218
▁UP	-1219
▁aw	-1220
▁probably	-1221
▁send	-1222
arn	-1223
hip	-1224
▁eu	-1225
▁id	-1226
uring	-1227
me	-1228
▁abs	-1229
▁cra	-1230
▁become	-1231
▁complete	-1232
▁says	-1233
▁men	-1234
▁talk	-1235
▁lot	-1236
ution	-1237
arly	-1238
ific	-1239
▁free	-1240
▁After	-1241
▁today	-1242
▁believe	-1243
▁hit	-1244
▁WITH	-1245
▁gets	-1246
▁doesn	-1247
▁read	-1248
▁laugh	-1249
▁wanted	-1250
ene	-1251
000	-1252
ius	-1253
ron	-1254
▁NO	-1255
amp	-1256
▁HO	-1257
ering	-1258
▁penis	-1259
▁please	-1260
▁WE	-1261
▁est	-1262
ition	-1263
▁deep	-1264
▁stra	-1265
inking	-1266
▁set	-1267
ze	-1268
▁dra	-1269
▁swe	-1270
UDA	-1271
ms	-1272
not	-1273
rew	-1274
MM	-1275
elt	-1276
▁eas	-1277
▁mar	-1278
▁ask	-1279
▁seem	-1280
▁hands	-1281
▁BR	-1282
▁single	-1283
▁miss	-1284
▁move	-1285
▁didnt	-1286
by	-1287
IST	-1288
▁Cl	-1289
▁mil	-1290
▁DICK	-1291
▁contro	-1292
▁mess	-1293
▁family	-1294
gan	-1295
oice	-1296
▁dri	-1297
▁cour	-1298
▁dead	-1299
uh	-1300
▁MUDA	-1301
vers	-1302
▁beaut	-1303
▁count	-1304
▁ok	-1305
▁mouth	-1306
iec	-1307
orry	-1308
ently	-1309
OOF	-1310
▁WILL	-1311
▁money	-1312
▁AT	-1313
▁ap	-1314
UUUU	-1315
▁days	-1316
▁spec	-1317
uts	-1318
▁ide	-1319
ants	-1320
▁bitch	-1321
▁Bl	-1322
▁resp	-1323
▁seen	-1324
▁light	-1325
identified	-1326
KK	-1327
AND	-1328
▁ed	-1329
▁fav	-1330
▁sleep	-1331
▁yes	-1332
▁pres	-1333
▁anyone	-1334
IGHT	-1335
▁giv	-1336
ows	-1337
▁WHAT	-1338
▁Unidentified	-1339
TER	-1340
leas	-1341
▁comment	-1342
ere	-1343
▁hold	-1344
mm	-1345
▁15	-1346
▁ready	-1347
▁proble	-1348
ched	-1349
▁ASS	-1350
▁hon	-1351
ience	-1352
▁ment	-1353
▁place	-1354
ERE	-1355
ONG	-1356
▁war	-1357
▁hell	-1358
▁class	-1359
ne	-1360
▁AR	-1361
ract	-1362
utes	-1363
▁cap	-1364
▁gay	-1365
▁creat	-1366
▁exist	-1367
▁quest	-1368
▁LE	-1369
▁add	-1370
▁exper	-1371
ired	-1372
▁open	-1373
▁super	-1374
ada	-1375
▁die	-1376
▁techn	-1377
▁yourself	-1378
AVE	-1379
▁thats	-1380
ping	-1381
▁del	-1382
▁LIKE	-1383
gether	-1384
▁together	-1385
IE	-1386
▁Fr	-1387
▁remember	-1388
br	-1389
den	-1390
ins	-1391
unch	-1392
aring	-1393
▁fans	-1394
iously	-1395
▁fight	-1396
NN	-1397
▁Re	-1398
▁moment	-1399
ox	-1400
▁FR	-1401
iful	-1402
▁eat	-1403
▁maybe	-1404
▁women	-1405
igg	-1406
▁Why	-1407
▁month	-1408
▁fre	-1409
▁soc	-1410
▁imag	-1411
▁mass	-1412
▁looking	-1413
ided	-1414
ried	-1415
▁ARE	-1416
▁cor	-1417
▁small	-1418
ures	-1419
▁mag	-1420
▁sat	-1421
ORE	-1422
most	-1423
▁stuff	-1424
▁Americ	-1425
▁reason	-1426
unt	-1427
read	-1428
▁fur	-1429
▁contin	-1430
rist	-1431
▁wife	-1432
▁society	-1433
1!	-1434
▁SLUT	-1435
▁song	-1436
▁inter	-1437
ex	-1438
body	-1439
▁pos	-1440
▁mother	-1441
77	-1442
▁different	-1443
▁nec	-1444
▁WOOF	-1445
▁tried	-1446
▁exp	-1447
▁pay	-1448
▁talking	-1449
▁yo	-1450
▁norm	-1451
▁character	-1452
CHOO	-1453
ka	-1454
ma	-1455
▁looked	-1456
▁An	-1457
anna	-1458
▁sou	-1459
▁Don	-1460
lic	-1461
▁jo	-1462
▁BALL	-1463
inc	-1464
▁won	-1465
▁pat	-1466
▁train	-1467
▁cannot	-1468
▁Ar	-1469
ines	-1470
▁squ	-1471
▁funny	-1472
ern	-1473
▁Gu	-1474
ered	-1475
room	-1476
▁art	-1477
▁pain	-1478
ATE	-1479
ional	-1480
▁coll	-1481
▁gave	-1482
▁dream	-1483
▁finally	-1484
LD	-1485
ric	-1486
YYYY	-1487
▁minutes	-1488
▁Br	-1489
ient	-1490
olute	-1491
▁Morb	-1492
▁pretty	-1493
▁AM	-1494
hhhh	-1495
▁drop	-1496
▁level	-1497
to	-1498
▁Go	-1499
▁Let	-1500
▁sho	-1501
▁tem	-1502
▁sexual	-1503
UG	-1504
alf	-1505
ider	-1506
▁aut	-1507
▁door	-1508
▁scream	-1509
▁ve	-1510
▁Any	-1511
▁fan	-1512
▁hor	-1513
ANG	-1514
▁felt	-1515
▁least	-1516
ape	-1517
▁TR	-1518
eeee	-1519
▁yet	-1520
▁happy	-1521
▁course	-1522
TY	-1523
lt	-1524
ck	-1525
any	-1526
▁er	-1527
▁oh	-1528
ither	-1529
▁fore	-1530
▁porn	-1531
▁coming	-1532
▁though	-1533
▁straight	-1534
AKE	-1535
ology	-1536
▁BACK	-1537
arth	-1538
ially	-1539
▁wrong	-1540
ular	-1541
upid	-1542
▁Send	-1543
▁video	-1544
▁Ive	-1545
OOOOOOOO	-1546
▁thinking	-1547
▁watching	-1548
IP	-1549
▁DON	-1550
▁cop	-1551
▁ter	-1552
▁knew	-1553
▁true	-1554
▁black	-1555
10	-1556
EM	-1557
urb	-1558
▁suck	-1559
joy	-1560
ined	-1561
uce	-1562
▁ban	-1563
uz	-1564
ative	-1565
▁ba	-1566
owing	-1567
where	-1568
UL	-1569
IVE	-1570
▁100	-1571
▁isn	-1572
▁card	-1573
ton	-1574
▁mid	-1575
▁brain	-1576
ode	-1577
ches	-1578
▁Red	-1579
▁hom	-1580
▁woman	-1581
go	-1582
▁white	-1583
▁bring	-1584
▁build	-1585
▁clone	-1586
▁almost	-1587
oh	-1588
ta	-1589
▁GR	-1590
▁YE	-1591
▁202	-1592
▁past	-1593
▁matter	-1594
uu	-1595
arge	-1596
osed	-1597
▁med	-1598
▁por	-1599
▁beautiful	-1600
AIN	-1601
IES	-1602
ged	-1603
ction	-1604
▁cause	-1605
▁listen	-1606
ote	-1607
▁With	-1608
▁using	-1609
▁nice	-1610
▁ru	-1611
▁cre	-1612
ana	-1613
▁One	-1614
▁hes	-1615
▁music	-1616
▁favor	-1617
▁Or	-1618
▁opp	-1619
▁comes	-1620
▁control	-1621
▁instead	-1622
sh	-1623
reen	-1624
▁Rizz	-1625
▁absolute	-1626
UE	-1627
wards	-1628
DY	-1629
ado	-1630
▁heard	-1631
▁ground	-1632
cl	-1633
▁nat	-1634
▁Like	-1635
▁Please	-1636
rr	-1637
▁prof	-1638
ertain	-1639
▁leave	-1640
▁phone	-1641
▁quick	-1642
▁commun	-1643
▁strong	-1644
ital	-1645
▁fat	-1646
▁sem	-1647
ss	-1648
▁Sc	-1649
ando	-1650
▁Hey	-1651
▁EVER	-1652
▁front	-1653
▁words	-1654
▁Pl	-1655
▁form	-1656
▁goes	-1657
▁guess	-1658
▁wanna	-1659
ted	-1660
▁fell	-1661
▁morn	-1662
▁blood	-1663
▁smell	-1664
▁decided	-1665
gr	-1666
▁col	-1667
▁val	-1668
▁close	-1669
▁pussy	-1670
▁trans	-1671
ki	-1672
ues	-1673
fort	-1674
▁ang	-1675
▁fill	-1676
▁week	-1677
used	-1678
▁eng	-1679
▁inv	-1680
▁event	-1681
oph	-1682
▁joke	-1683
▁19	-1684
▁IM	-1685
▁enjoy	-1686
▁stupid	-1687
**	-1688
▁Ne	-1689
▁US	-1690
ouch	-1691
▁ago	-1692
mas	-1693
▁Me	-1694
▁looks	-1695
▁SU	-1696
▁bur	-1697
▁fall	-1698
▁foll	-1699
▁half	-1700
▁troo	-1701
▁story	-1702
ced	-1703
het	-1704
ony	-1705
iece	-1706
ween	-1707
▁BIT	-1708
▁stay	-1709
OME	-1710
iew	-1711
iiii	-1712
▁Her	-1713
▁side	-1714
▁begin	-1715
▁needs	-1716
▁throw	-1717
sel	-1718
▁Le	-1719
▁dou	-1720
iness	-1721
arents	-1722
CHOOCHOO	-1723
1!1!	-1724
medi	-1725
ross	-1726
▁Well	-1727
ught	-1728
▁job	-1729
▁suc	-1730
▁cool	-1731
▁morning	-1732
▁dev	-1733
▁ste	-1734
AST	-1735
ald	-1736
ama	-1737
side	-1738
▁num	-1739
▁plan	-1740
▁SLATT	-1741
▁gener	-1742
▁bar	-1743
▁lost	-1744
EEEE	-1745
▁Hell	-1746
▁baby	-1747
▁grabs	-1748
▁behind	-1749
▁couldn	-1750
man	-1751
▁ut	-1752
antly	-1753
▁dest	-1754
▁later	-1755
▁voice	-1756
▁change	-1757
HER	-1758
ging	-1759
▁pleas	-1760
▁DR	-1761
ield	-1762
▁fil	-1763
illion	-1764
▁happen	-1765
ces	-1766
▁OR	-1767
▁games	-1768
▁ir	-1769
itch	-1770
▁between	-1771
NY	-1772
aaaa	-1773
▁prop	-1774
▁prot	-1775
▁father	-1776
▁completely	-1777
▁balls	-1778
▁social	-1779
▁feeling	-1780
▁&	-1781
ming	-1782
▁sick	-1783
▁attack	-1784
ARD	-1785
▁IF	-1786
oooo	-1787
▁bus	-1788
▁COCK	-1789
▁forg	-1790
▁hair	-1791
▁during	-1792
iff	-1793
▁gi	-1794
▁hur	-1795
▁pot	-1796
▁fire	-1797
selves	-1798
mo	-1799
ten	-1800
wor	-1801
▁air	-1802
▁short	-1803
▁sorry	-1804
▁within	-1805
▁$	-1806
▁BUT	-1807
▁son	-1808
▁sent	-1809
▁immedi	-1810
ned	-1811
▁UN	-1812
ully	-1813
▁sign	-1814
▁stud	-1815
▁const	-1816
▁speak	-1817
▁female	-1818
▁normal	-1819
▁personal	-1820
cc	-1821
OOK	-1822
▁sad	-1823
rence	-1824
▁et	-1825
▁less	-1826
ky	-1827
ator	-1828
ru	-1829
USS	-1830
▁Can	-1831
▁voc	-1832
ement	-1833
▁possible	-1834
OWN	-1835
ears	-1836
▁non	-1837
▁weird	-1838
AW	-1839
▁vis	-1840
▁Christ	-1841
!!!!!!!!	-1842
ONE	-1843
▁CR	-1844
ised	-1845
▁011	-1846
▁CAN	-1847
▁anim	-1848
ection	-1849
▁longer	-1850
▁beat	-1851
▁thro	-1852
asturb	-1853
▁turned	-1854
▁girlfriend	-1855
APP	-1856
▁Mar	-1857
▁dog	-1858
▁dark	-1859
▁prod	-1860
##	-1861
uel	-1862
▁mas	-1863
▁JUST	-1864
▁dist	-1865
▁girls	-1866
▁known	-1867
▁import	-1868
IV	-1869
aps	-1870
▁sol	-1871
ished	-1872
▁hist	-1873
▁across	-1874
▁intern	-1875
▁far	-1876
▁Some	-1877
▁chang	-1878
vo	-1879
rib	-1880
▁adv	-1881
▁unc	-1882
▁tast	-1883
▁yeah	-1884
IF	-1885
yp	-1886
▁Pr	-1887
▁cal	-1888
▁wants	-1889
▁AL	-1890
ands	-1891
reme	-1892
▁Ill	-1893
▁idi	-1894
icked	-1895
AME	-1896
els	-1897
▁skin	-1898
HE	-1899
arr	-1900
ivid	-1901
ocked	-1902
▁HAVE	-1903
▁test	-1904
▁breat	-1905
▁fucked	-1906
▁player	-1907
▁respect	-1908
▁children	-1909
OB	-1910
irt	-1911
owed	-1912
ATION	-1913
▁food	-1914
▁lead	-1915
ecause	-1916
▁large	-1917
▁parents	-1918
▁support	-1919
▁CL	-1920
▁KN	-1921
▁Pe	-1922
▁fut	-1923
▁simp	-1924
uly	-1925
▁EX	-1926
▁ra	-1927
▁idea	-1928
▁wind	-1929
▁However	-1930
▁favorite	-1931
AV	-1932
▁cut	-1933
▁upon	-1934
▁learn	-1935
▁giving	-1936
pr	-1937
▁x	-1938
ANS	-1939
IME	-1940
ries	-1941
▁det	-1942
▁wond	-1943
ressed	-1944
▁account	-1945
▁immediately	-1946
sy	-1947
omb	-1948
oor	-1949
ales	-1950
▁male	-1951
▁order	-1952
▁state	-1953
▁three	-1954
HHHHHHHH	-1955
dle	-1956
ides	-1957
ones	-1958
▁bott	-1959
▁honest	-1960
▁himself	-1961
▁trooper	-1962
OOD	-1963
ips	-1964
unk	-1965
▁DAD	-1966
▁arg	-1967
▁wish	-1968
▁daddy	-1969
▁skill	-1970
▁LO	-1971
????	-1972
line	-1973
ended	-1974
▁Fuck	-1975
▁self	-1976
▁brother	-1977
isf	-1978
▁tor	-1979
ister	-1980
▁Even	-1981
▁deal	-1982
▁heal	-1983
▁sexy	-1984
▁question	-1985
erest	-1986
▁exam	-1987
ww	-1988
ery	-1989
▁Se	-1990
0000	-1991
aced	-1992
▁pri	-1993
▁grou	-1994
▁BALLER	-1995
▁seconds	-1996
▁happened	-1997
bl	-1998
▁ev	-1999
▁pure	-2000
▁itself	-2001
▁explain	-2002
af	-2003
ym	-2004
▁incl	-2005
▁requ	-2006
verage	-2007
wer	-2008
▁Ho	-2009
▁los	-2010
▁HEAD	-2011
▁cute	-2012
▁kept	-2013
▁milk	-2014
▁problem	-2015
ASS	-2016
▁30	-2017
ural	-2018
▁NEW	-2019
▁tre	-2020
▁experience	-2021
OD	-2022
ij	-2023
▁Ad	-2024
▁Tw	-2025
▁ep	-2026
▁fing	-2027
▁pict	-2028
▁wouldn	-2029
▁masturb	-2030
▁grab	-2031
▁slow	-2032
ume	-2033
▁Ok	-2034
apan	-2035
ibly	-2036
play	-2037
xual	-2038
▁lim	-2039
ational	-2040
iny	-2041
▁sil	-2042
right	-2043
▁dire	-2044
▁alone	-2045
20	-2046
▁ITS	-2047
▁cou	-2048
▁feet	-2049
▁phys	-2050
▁wasn	-2051
▁Fl	-2052
▁horn	-2053
▁mist	-2054
▁para	-2055
▁Reddit	-2056
GR	-2057
IA	-2058
irc	-2059
oon	-2060
ANAN	-2061
▁cat	-2062
▁gun	-2063
ito	-2064
▁Com	-2065
▁equ	-2066
ively	-2067
▁fail	-2068
▁taking	-2069
▁individ	-2070
boy	-2071
▁AS	-2072
▁iss	-2073
▁nam	-2074
▁ones	-2075
▁warm	-2076
▁Because	-2077
ANK	-2078
ipe	-2079
ube	-2080
▁AB	-2081
ians	-2082
▁May	-2083
fully	-2084
▁either	-2085
▁waiting	-2086
iet	-2087
mer	-2088
ains	-2089
▁bra	-2090
ament	-2091
▁bull	-2092
▁effect	-2093
▁forget	-2094
▁stream	-2095
CC	-2096
▁Cr	-2097
icks	-2098
▁exc	-2099
▁soon	-2100
▁doesnt	-2101
gn	-2102
▁Gr	-2103
USSY	-2104
iest	-2105
▁Dad	-2106
▁WHEN	-2107
▁EVERY	-2108
99	-2109
oop	-2110
ror	-2111
▁Min	-2112
▁PRE	-2113
velop	-2114
▁clean	-2115
▁crying	-2116
che	-2117
eks	-2118
▁11	-2119
irth	-2120
ison	-2121
▁Big	-2122
▁esc	-2123
ments	-2124
▁meet	-2125
▁step	-2126
volution	-2127
▁outside	-2128
PP	-2129
▁thr	-2130
ublic	-2131
▁grand	-2132
▁satisf	-2133
acy	-2134
ler	-2135
ured	-2136
▁ten	-2137
▁truly	-2138
▁players	-2139
33	-2140
▁#	-2141
▁ju	-2142
aked	-2143
▁DAY	-2144
▁ill	-2145
▁tot	-2146
▁suff	-2147
bo	-2148
IDE	-2149
OUT	-2150
▁low	-2151
▁ton	-2152
▁sense	-2153
▁youll	-2154
ift	-2155
▁50	-2156
hole	-2157
▁esp	-2158
▁hop	-2159
▁enem	-2160
▁knows	-2161
▁American	-2162
ATH	-2163
▁**	-2164
▁fa	-2165
▁BIG	-2166
▁ener	-2167
▁kids	-2168
▁walk	-2169
▁force	-2170
▁Qu	-2171
ages	-2172
▁WANT	-2173
▁fast	-2174
▁four	-2175
▁Ph	-2176
aces	-2177
ards	-2178
▁touch	-2179
▁chance	-2180
▁simply	-2181
ium	-2182
rap	-2183
▁Su	-2184
▁si	-2185
ique	-2186
▁COM	-2187
▁soft	-2188
atever	-2189
▁young	-2190
ZZ	-2191
ALLY	-2192
omin	-2193
▁ult	-2194
▁expect	-2195
▁average	-2196
OY	-2197
INE	-2198
ives	-2199
▁loc	-2200
▁lose	-2201
▁mult	-2202
▁BITCH	-2203
▁anime	-2204
▁tight	-2205
GN	-2206
eb	-2207
▁Ex	-2208
▁od	-2209
▁His	-2210
▁dem	-2211
▁din	-2212
▁jer	-2213
▁log	-2214
▁kiss	-2215
▁Thank	-2216
▁interest	-2217
awn	-2218
oud	-2219
▁13	-2220
irty	-2221
▁extreme	-2222
▁history	-2223
lo	-2224
aim	-2225
gth	-2226
▁Dis	-2227
▁HER	-2228
▁WOR	-2229
▁Who	-2230
▁bath	-2231
mb	-2232
OST	-2233
▁vi	-2234
▁wet	-2235
▁easy	-2236
▁wall	-2237
▁return	-2238
▁certain	-2239
ara	-2240
ika	-2241
▁ce	-2242
ades	-2243
▁buy	-2244
▁mis	-2245
▁pra	-2246
▁term	-2247
iverse	-2248
▁crazy	-2249
▁others	-2250
RRRRRRRR	-2251
▁important	-2252
head	-2253
▁sun	-2254
istic	-2255
▁okay	-2256
▁drink	-2257
▁spend	-2258
▁months	-2259
▁themselves	-2260
NT	-2261
ilt	-2262
▁OH	-2263
▁ans	-2264
▁rub	-2265
overed	-2266
▁taken	-2267
▁attract	-2268
iced	-2269
▁HOL	-2270
attle	-2271
▁plap	-2272
▁shut	-2273
▁soul	-2274
▁yell	-2275
▁takes	-2276
AC	-2277
ices	-2278
ored	-2279
▁ant	-2280
▁bal	-2281
azing	-2282
▁Death	-2283
▁sweet	-2284
NA	-2285
uge	-2286
IIII	-2287
▁YEAR	-2288
▁ball	-2289
▁disg	-2290
▁speed	-2291
▁?	-2292
100	-2293
ART	-2294
erv	-2295
▁tur	-2296
▁uma	-2297
▁burn	-2298
▁type	-2299
ounter	-2300
▁future	-2301
▁Morbius	-2302
DD	-2303
ato	-2304
▁sum	-2305
▁fine	-2306
▁absolutely	-2307
TT	-2308
uth	-2309
▁Id	-2310
edom	-2311
▁Ind	-2312
▁maj	-2313
▁save	-2314
▁Japan	-2315
▁starts	-2316
ae	-2317
rect	-2318
▁Yes	-2319
icking	-2320
▁amount	-2321
▁number	-2322
ux	-2323
▁Day	-2324
▁MAM	-2325
▁WAS	-2326
▁mad	-2327
▁Yeah	-2328
▁check	-2329
▁worse	-2330
▁internet	-2331
IB	-2332
PL	-2333
rop	-2334
▁TE	-2335
onom	-2336
raph	-2337
▁sal	-2338
ipped	-2339
▁Ball	-2340
▁godd	-2341
▁hole	-2342
▁energy	-2343
▁individual	-2344
UMP	-2345
AHAH	-2346
sych	-2347
▁HIS	-2348
▁nie	-2349
ality	-2350
hetic	-2351
ision	-2352
▁blue	-2353
▁cult	-2354
▁land	-2355
▁prep	-2356
▁weak	-2357
▁among	-2358
▁pants	-2359
▁press	-2360
▁inform	-2361
▁living	-2362
▁spread	-2363
ological	-2364
▁special	-2365
MA	-2366
UB	-2367
ASE	-2368
arch	-2369
▁SEX	-2370
▁SEND	-2371
▁emot	-2372
▁gone	-2373
▁piss	-2374
▁wait	-2375
▁DADDY	-2376
HO	-2377
erc	-2378
pop	-2379
▁Are	-2380
OTHER	-2381
itive	-2382
▁cold	-2383
▁foot	-2384
▁meat	-2385
▁shot	-2386
▁along	-2387
▁extra	-2388
▁idiot	-2389
▁smile	-2390
ecially	-2391
▁intell	-2392
▁sometimes	-2393
tt	-2394
bing	-2395
pped	-2396
roll	-2397
▁Pro	-2398
▁due	-2399
▁fig	-2400
▁mov	-2401
▁circ	-2402
▁mine	-2403
▁taste	-2404
ulation	-2405
▁develop	-2406
▁quickly	-2407
▁pleasure	-2408
ari	-2409
▁Hu	-2410
gest	-2411
oles	-2412
▁Did	-2413
▁emb	-2414
▁sud	-2415
▁clot	-2416
usting	-2417
▁floor	-2418
UNT	-2419
iqu	-2420
▁YO	-2421
▁und	-2422
▁Also	-2423
▁activ	-2424
▁piece	-2425
▁shoot	-2426
▁whatever	-2427
oj	-2428
wh	-2429
fer	-2430
ien	-2431
mor	-2432
thy	-2433
aged	-2434
ilet	-2435
rous	-2436
▁New	-2437
▁cas	-2438
▁clos	-2439
▁becom	-2440
▁working	-2441
hi	-2442
ICE	-2443
aven	-2444
▁Tod	-2445
rigin	-2446
▁leav	-2447
▁load	-2448
▁stri	-2449
nn	-2450
amb	-2451
▁PE	-2452
appy	-2453
ased	-2454
atic	-2455
▁ann	-2456
iment	-2457
▁HAPP	-2458
▁fish	-2459
▁legs	-2460
▁mark	-2461
▁catch	-2462
▁design	-2463
ECT	-2464
INK	-2465
WAY	-2466
▁SHIT	-2467
▁line	-2468
▁deser	-2469
▁eating	-2470
▁sudden	-2471
old	-2472
▁cho	-2473
▁rob	-2474
▁KNOW	-2475
▁jump	-2476
▁main	-2477
ention	-2478
▁appro	-2479
▁lives	-2480
▁master	-2481
▁relations	-2482
SL	-2483
icul	-2484
over	-2485
eless	-2486
ining	-2487
▁rock	-2488
▁dirty	-2489
EL	-2490
▁Sl	-2491
▁law	-2492
▁lay	-2493
▁CUMM	-2494
▁damn	-2495
▁quite	-2496
▁secret	-2497
▁throat	-2498
RY	-2499
▁18	-2500
▁rid	-2501
▁ver	-2502
▁near	-2503
▁rizz	-2504
▁scene	-2505
ression	-2506
▁incred	-2507
▁country	-2508
time	-2509
▁pow	-2510
▁vel	-2511
▁dumb	-2512
▁situ	-2513
ken	-2514
ued	-2515
▁egg	-2516
▁prov	-2517
▁Em	-2518
▁BRE	-2519
▁War	-2520
▁aff	-2521
▁lol	-2522
▁pun	-2523
andom	-2524
▁onto	-2525
▁prom	-2526
rought	-2527
▁PREGN	-2528
▁horny	-2529
cer	-2530
▁star	-2531
▁behav	-2532
▁thous	-2533
▁humans	-2534
UFF	-2535
amn	-2536
eth	-2537
▁SC	-2538
raft	-2539
▁CON	-2540
▁adm	-2541
ender	-2542
▁butt	-2543
▁nigg	-2544
▁rather	-2545
yr	-2546
gle	-2547
empt	-2548
▁opin	-2549
▁deals	-2550
▁feels	-2551
▁group	-2552
▁psych	-2553
▁People	-2554
▁message	-2555
▁process	-2556
com	-2557
str	-2558
▁Mon	-2559
▁div	-2560
▁rac	-2561
▁ran	-2562
▁morb	-2563
▁stat	-2564
▁stre	-2565
▁wake	-2566
▁began	-2567
▁birth	-2568
▁PREGNANT	-2569
▁relationship	-2570
do	-2571
kin	-2572
▁Ke	-2573
▁cam	-2574
▁TIME	-2575
▁huge	-2576
▁direct	-2577
▁freedom	-2578
aj	-2579
ISS	-2580
▁FA	-2581
▁OFF	-2582
▁obs	-2583
▁cent	-2584
▁repl	-2585
▁vict	-2586
▁wont	-2587
▁Daddy	-2588
▁Youre	-2589
▁brought	-2590
▁realize	-2591
▁telling	-2592
▁eventually	-2593
UP	-2594
???	-2595
rod	-2596
▁hy	-2597
like	-2598
▁NOW	-2599
ained	-2600
ishing	-2601
▁Trump	-2602
▁space	-2603
▁includ	-2604
▁killed	-2605
▁played	-2606
▁respond	-2607
ACH	-2608
ida	-2609
▁os	-2610
fuck	-2611
▁bag	-2612
▁ris	-2613
▁fear	-2614
▁lick	-2615
▁luck	-2616
▁Hello	-2617
▁toilet	-2618
▁ability	-2619
▁example	-2620
▁imagine	-2621
sp	-2622
ino	-2623
por	-2624
ince	-2625
vern	-2626
▁MAN	-2627
▁vir	-2628
▁Where	-2629
▁earth	-2630
▁invol	-2631
▁except	-2632
▁origin	-2633
▁running	-2634
▁usually	-2635
▁characters	-2636
reci	-2637
▁Leg	-2638
▁enc	-2639
▁mot	-2640
▁rad	-2641
▁safe	-2642
undred	-2643
▁Today	-2644
▁based	-2645
▁cream	-2646
▁became	-2647
▁sister	-2648
ITE	-2649
ITY	-2650
hor	-2651
▁ec	-2652
ilar	-2653
land	-2654
orts	-2655
▁ONE	-2656
▁Rep	-2657
▁age	-2658
▁scr	-2659
▁spr	-2660
▁vol	-2661
▁bare	-2662
▁drag	-2663
▁offic	-2664
▁sauce	-2665
▁public	-2666
▁asshole	-2667
▁boyfriend	-2668
50	-2669
aur	-2670
ify	-2671
▁Sw	-2672
▁FRE	-2673
▁ear	-2674
▁obv	-2675
▁FROM	-2676
▁amazing	-2677
▁million	-2678
▁serious	-2679
▁sitting	-2680
▁especially	-2681
▁14	-2682
IEST	-2683
iple	-2684
▁Spe	-2685
▁fit	-2686
▁THEY	-2687
▁roll	-2688
▁exact	-2689
▁given	-2690
▁destro	-2691
▁extremely	-2692
▁technology	-2693
lin	-2694
▁mi	-2695
UNNY	-2696
usted	-2697
▁case	-2698
▁GRRRR	-2699
▁major	-2700
▁reddit	-2701
▁shower	-2702
▁walked	-2703
ef	-2704
oof	-2705
▁af	-2706
▁200	-2707
▁eye	-2708
▁jak	-2709
▁Okay	-2710
▁heav	-2711
▁pound	-2712
▁needed	-2713
▁seeing	-2714
,000	-2715
lish	-2716
▁fly	-2717
▁org	-2718
▁sens	-2719
acking	-2720
▁appreci	-2721
▁massive	-2722
▁stopped	-2723
▁tonight	-2724
▁bathroom	-2725
▁universe	-2726
OC	-2727
key	-2728
ibid	-2729
▁mor	-2730
▁nut	-2731
▁cond	-2732
▁cook	-2733
▁corn	-2734
▁crit	-2735
▁isnt	-2736
▁purp	-2737
uction	-2738
ossible	-2739
▁clothes	-2740
▁current	-2741
▁meaning	-2742
▁mention	-2743
ja	-2744
akes	-2745
ball	-2746
izza	-2747
roud	-2748
▁Wor	-2749
▁ain	-2750
▁vag	-2751
▁GOOD	-2752
▁dude	-2753
▁often	-2754
▁table	-2755
▁middle	-2756
▁slowly	-2757
▁forever	-2758
▁basically	-2759
AUS	-2760
ISH	-2761
aid	-2762
men	-2763
▁uh	-2764
▁ya	-2765
BALL	-2766
▁smo	-2767
▁Edit	-2768
▁From	-2769
▁mach	-2770
▁surv	-2771
▁polit	-2772
▁worth	-2773
▁bottom	-2774
▁powerful	-2775
ye	-2776
zi	-2777
OUR	-2778
▁EN	-2779
ploy	-2780
▁Tao	-2781
▁sed	-2782
▁typ	-2783
ption	-2784
▁LOOK	-2785
▁Look	-2786
▁bear	-2787
▁draw	-2788
▁rece	-2789
▁view	-2790
▁clear	-2791
▁towards	-2792
bed	-2793
gly	-2794
▁NA	-2795
▁SN	-2796
anks	-2797
form	-2798
▁Rob	-2799
▁ach	-2800
anger	-2801
inite	-2802
ivers	-2803
▁Dont	-2804
▁doll	-2805
▁susp	-2806
ession	-2807
▁HAPPY	-2808
▁grass	-2809
▁shall	-2810
▁screen	-2811
▁consider	-2812
ams	-2813
ero	-2814
sequ	-2815
▁ARF	-2816
▁GOD	-2817
ature	-2818
▁Sant	-2819
▁reac	-2820
▁Great	-2821
▁accept	-2822
▁couldnt	-2823
▁hundred	-2824
ica	-2825
angu	-2826
▁bud	-2827
▁comb	-2828
▁conv	-2829
▁YOURE	-2830
▁round	-2831
ination	-2832
▁Baller	-2833
OSE	-2834
ency	-2835
▁Gen	-2836
▁HOT	-2837
▁pan	-2838
▁book	-2839
▁meme	-2840
▁weap	-2841
▁incre	-2842
▁sweat	-2843
▁breast	-2844
▁police	-2845
FT	-2846
ata	-2847
icy	-2848
ief	-2849
ugs	-2850
▁Co	-2851
KKKK	-2852
OULD	-2853
allen	-2854
▁HARD	-2855
▁died	-2856
▁pick	-2857
▁SLUTS	-2858
▁organ	-2859
ization	-2860
▁modern	-2861
▁window	-2862
ges	-2863
let	-2864
rog	-2865
▁FL	-2866
work	-2867
▁WHO	-2868
▁gar	-2869
ances	-2870
itten	-2871
▁area	-2872
▁cred	-2873
▁size	-2874
▁breath	-2875
▁simple	-2876
▁theyre	-2877
▁continue	-2878
ey	-2879
VEN	-2880
ios	-2881
▁OP	-2882
uter	-2883
▁GOT	-2884
▁box	-2885
▁ign	-2886
▁map	-2887
imate	-2888
▁Good	-2889
▁Note	-2890
▁pract	-2891
▁random	-2892
▁Nothing	-2893
▁counter	-2894
▁picture	-2895
▁impossible	-2896
apt	-2897
OUND	-2898
▁etc	-2899
gress	-2900
▁lets	-2901
▁prec	-2902
▁slut	-2903
▁tired	-2904
▁caught	-2905
▁community	-2906
RRR	-2907
osp	-2908
▁TW	-2909
MMMM	-2910
acks	-2911
eral	-2912
▁hey	-2913
▁ONLY	-2914
▁port	-2915
ucking	-2916
▁Thats	-2917
▁drive	-2918
▁proud	-2919
▁married	-2920
▁reality	-2921
osh	-2922
une	-2923
▁24	-2924
esus	-2925
ires	-2926
ores	-2927
▁Fin	-2928
▁imm	-2929
▁pet	-2930
eding	-2931
usion	-2932
▁DOWN	-2933
▁OVER	-2934
▁SOME	-2935
▁hero	-2936
▁sell	-2937
▁viol	-2938
▁gives	-2939
▁tells	-2940
▁access	-2941
▁honestly	-2942
co	-2943
wo	-2944
▁@	-2945
how	-2946
ora	-2947
▁bi	-2948
asta	-2949
bers	-2950
itty	-2951
▁lab	-2952
▁occ	-2953
anced	-2954
▁chat	-2955
▁fair	-2956
▁five	-2957
▁hung	-2958
▁spot	-2959
▁These	-2960
▁seems	-2961
▁indust	-2962
▁necess	-2963
▁record	-2964
▁problems	-2965
19	-2966
TO	-2967
kn	-2968
ARE	-2969
OOM	-2970
▁DI	-2971
▁HOE	-2972
▁Man	-2973
light	-2974
ories	-2975
rible	-2976
▁base	-2977
▁conc	-2978
▁tree	-2979
▁reach	-2980
▁sever	-2981
▁battle	-2982
▁easily	-2983
▁points	-2984
▁knowing	-2985
▁situation	-2986
ral	-2987
sus	-2988
▁BY	-2989
HING	-2990
▁boo	-2991
izing	-2992
▁text	-2993
▁loved	-2994
▁worst	-2995
ference	-2996
▁answer	-2997
▁dement	-2998
RA	-2999
bt	-3000
ko	-3001
BER	-3002
▁EM	-3003
▁SK	-3004
REAM	-3005
icken	-3006
rench	-3007
▁arri	-3008
▁bird	-3009
▁gold	-3010
▁loud	-3011
▁pill	-3012
▁tend	-3013
▁First	-3014
osexual	-3015
▁dinner	-3016
▁wonder	-3017
▁wearing	-3018
▁existence	-3019
2.	-3020
OG	-3021
bit	-3022
ees	-3023
era	-3024
ico	-3025
▁25	-3026
▁AG	-3027
▁Jo	-3028
7777	-3029
rial	-3030
▁ble	-3031
▁bow	-3032
▁lie	-3033
▁unf	-3034
▁....	-3035
▁MORE	-3036
▁Mark	-3037
▁cost	-3038
▁ugly	-3039
terday	-3040
▁While	-3041
▁final	-3042
▁compet	-3043
▁nature	-3044
▁allowed	-3045
▁changed	-3046
rum	-3047
▁Gl	-3048
TING	-3049
▁ANY	-3050
▁PLE	-3051
ibidi	-3052
▁farm	-3053
▁fart	-3054
▁poor	-3055
▁wear	-3056
▁chair	-3057
▁compl	-3058
▁pregn	-3059
▁queen	-3060
▁stren	-3061
ilities	-3062
▁online	-3063
▁season	-3064
▁perform	-3065
▁protect	-3066
▁success	-3067
▁dementia	-3068
▁laughing	-3069
▁position	-3070
▁realized	-3071
▁Christmas	-3072
AGE	-3073
aha	-3074
ido	-3075
ids	-3076
lex	-3077
▁69	-3078
▁Mr	-3079
▁Con	-3080
▁Ste	-3081
using	-3082
▁Will	-3083
▁city	-3084
ughter	-3085
▁Never	-3086
▁arous	-3087
▁asking	-3088
▁content	-3089
15	-3090
fl	-3091
IAN	-3092
IND	-3093
ager	-3094
ighs	-3095
oint	-3096
▁Ass	-3097
▁WHY	-3098
acked	-3099
iling	-3100
▁desc	-3101
▁shes	-3102
▁spir	-3103
▁elect	-3104
▁truth	-3105
▁disapp	-3106
YYYYYYYY	-3107
eeeeeeee	-3108
▁pretend	-3109
▁multiple	-3110
▁screaming	-3111
PER	-3112
lebr	-3113
▁pod	-3114
aining	-3115
▁likes	-3116
▁forced	-3117
▁videos	-3118
▁profess	-3119
16	-3120
ann	-3121
▁El	-3122
▁Sk	-3123
▁Sm	-3124
AUSE	-3125
inge	-3126
load	-3127
▁Che	-3128
▁den	-3129
▁prim	-3130
▁tong	-3131
iction	-3132
▁demon	-3133
▁gotta	-3134
▁langu	-3135
▁thank	-3136
▁treat	-3137
UUUUUUUU	-3138
▁wouldnt	-3139
▁pathetic	-3140
▁supposed	-3141
aby	-3142
ala	-3143
rit	-3144
FUCK	-3145
▁Ang	-3146
▁LIT	-3147
▁gym	-3148
▁huh	-3149
ookie	-3150
▁DONT	-3151
▁hurt	-3152
▁mere	-3153
ential	-3154
▁Earth	-3155
▁apart	-3156
▁chest	-3157
▁match	-3158
▁result	-3159
▁sounds	-3160
▁attempt	-3161
▁behavior	-3162
ani	-3163
yle	-3164
▁GU	-3165
▁HOW	-3166
▁hig	-3167
▁tar	-3168
SLATT	-3169
acher	-3170
andhi	-3171
order	-3172
oting	-3173
▁Have	-3174
▁Russ	-3175
▁born	-3176
▁dele	-3177
▁empt	-3178
▁wipe	-3179
▁share	-3180
▁partic	-3181
▁theres	-3182
▁destroy	-3183
▁mistake	-3184
▁noticed	-3185
yy	-3186
OUS	-3187
▁En	-3188
▁Ob	-3189
▁Us	-3190
▁WO	-3191
ENCE	-3192
▁BAD	-3193
▁QUE	-3194
▁Rem	-3195
▁sky	-3196
▁blow	-3197
▁grow	-3198
▁late	-3199
▁minha	-3200
▁likely	-3201
▁accident	-3202
▁business	-3203
THE	-3204
cul	-3205
the	-3206
tle	-3207
ums	-3208
▁16	-3209
resh	-3210
uses	-3211
▁HEY	-3212
▁Har	-3213
▁ess	-3214
▁rul	-3215
ising	-3216
▁Inst	-3217
▁Only	-3218
▁STOP	-3219
▁clim	-3220
▁decl	-3221
▁ways	-3222
▁Gandhi	-3223
▁common	-3224
▁couple	-3225
▁engine	-3226
▁subject	-3227
▁comments	-3228
▁computer	-3229
▁information	-3230
QU	-3231
za	-3232
olf	-3233
▁Ag	-3234
ding	-3235
▁Eng	-3236
▁GOL	-3237
▁Per	-3238
▁Pok	-3239
▁SAY	-3240
▁fet	-3241
▁lad	-3242
ushed	-3243
▁conn	-3244
▁fant	-3245
▁infl	-3246
action	-3247
arrass	-3248
▁ABOUT	-3249
▁PUSSY	-3250
▁domin	-3251
▁movie	-3252
▁spent	-3253
▁create	-3254
▁insane	-3255
▁pulled	-3256
▁watched	-3257
EEP	-3258
amm	-3259
▁CO	-3260
▁LEG	-3261
▁gre	-3262
▁ice	-3263
atter	-3264
▁Lets	-3265
▁king	-3266
▁woke	-3267
▁Those	-3268
▁blind	-3269
▁cruel	-3270
▁grind	-3271
▁price	-3272
▁follow	-3273
▁biggest	-3274
▁consequ	-3275
▁purpose	-3276
▁several	-3277
▁whether	-3278
GE	-3279
uk	-3280
ULL	-3281
unc	-3282
▁Of	-3283
ante	-3284
aper	-3285
enty	-3286
iday	-3287
shit	-3288
▁TUR	-3289
ggest	-3290
▁PLAY	-3291
▁diam	-3292
▁held	-3293
▁shop	-3294
▁wild	-3295
▁built	-3296
▁glass	-3297
▁party	-3298
▁store	-3299
▁remind	-3300
▁suggest	-3301
▁Japanese	-3302
▁feelings	-3303
▁suddenly	-3304
GH	-3305
ya	-3306
iam	-3307
lly	-3308
ney	-3309
nie	-3310
▁BEC	-3311
▁Fur	-3312
▁lil	-3313
▁neg	-3314
▁six	-3315
iving	-3316
oring	-3317
ously	-3318
▁Here	-3319
▁pray	-3320
▁Think	-3321
▁employ	-3322
▁object	-3323
▁tongue	-3324
▁strength	-3325
▁Ge	-3326
ring	-3327
void	-3328
▁fac	-3329
▁hat	-3330
▁HOLY	-3331
▁Sorry	-3332
▁ident	-3333
▁moves	-3334
▁surpr	-3335
▁works	-3336
▁scared	-3337
▁convers	-3338
▁herself	-3339
▁embarrass	-3340
▁revolution	-3341
wa	-3342
ffe	-3343
▁Ab	-3344
▁PAT	-3345
▁Wal	-3346
▁tax	-3347
ected	-3348
▁Come	-3349
▁Give	-3350
▁gent	-3351
▁neck	-3352
▁poop	-3353
▁thinks	-3354
▁covered	-3355
▁however	-3356
OND	-3357
ORT	-3358
fic	-3359
ocr	-3360
ogn	-3361
▁SW	-3362
▁je	-3363
▁See	-3364
▁dee	-3365
▁gas	-3366
▁tort	-3367
▁calls	-3368
▁shows	-3369
▁stuck	-3370
ibility	-3371
▁finger	-3372
▁goddamn	-3373
▁opinion	-3374
▁intended	-3375
▁original	-3376
▁everywhere	-3377
UH	-3378
ga	-3379
gu	-3380
yl	-3381
CUM	-3382
ole	-3383
▁Bu	-3384
▁SM	-3385
▁Uh	-3386
?!?!	-3387
▁Squ	-3388
▁cow	-3389
▁dol	-3390
▁env	-3391
▁pal	-3392
itter	-3393
▁MAKE	-3394
▁aren	-3395
▁bang	-3396
▁desp	-3397
▁repe	-3398
▁sand	-3399
▁Maybe	-3400
▁naked	-3401
▁stick	-3402
▁PLEASE	-3403
▁nobody	-3404
▁unless	-3405
▁calling	-3406
▁physical	-3407
DAY	-3408
ava	-3409
eds	-3410
raw	-3411
usb	-3412
acul	-3413
ighb	-3414
orge	-3415
▁GAY	-3416
▁bey	-3417
astic	-3418
▁anal	-3419
▁boss	-3420
▁epis	-3421
▁musc	-3422
▁phot	-3423
▁priv	-3424
▁Happy	-3425
▁RIGHT	-3426
▁Somet	-3427
▁cheese	-3428
▁invest	-3429
▁slight	-3430
▁thanks	-3431
▁release	-3432
▁perfectly	-3433
AI	-3434
asc	-3435
vin	-3436
▁1.	-3437
imin	-3438
nite	-3439
▁deg	-3440
▁mir	-3441
▁SUCK	-3442
▁kinda	-3443
▁rough	-3444
▁thick	-3445
▁worry	-3446
vernment	-3447
▁America	-3448
▁created	-3449
▁forward	-3450
▁reading	-3451
yn	-3452
for	-3453
urs	-3454
zen	-3455
▁av	-3456
miss	-3457
▁bon	-3458
▁cup	-3459
▁rap	-3460
inary	-3461
itted	-3462
▁NEED	-3463
▁calm	-3464
▁moan	-3465
▁stom	-3466
▁town	-3467
ocking	-3468
▁angry	-3469
▁etern	-3470
▁storm	-3471
▁celebr	-3472
iiiiiiii	-3473
▁happens	-3474
▁homosexual	-3475
asm	-3476
aker	-3477
asons	-3478
▁claim	-3479
▁early	-3480
▁handle	-3481
▁minute	-3482
▁neighb	-3483
▁weight	-3484
▁contact	-3485
▁present	-3486
▁satisfied	-3487
AAAAAAAAAAAAAAAA	-3488
1.	-3489
de	-3490
uj	-3491
▁AU	-3492
▁Da	-3493
▁ye	-3494
ocks	-3495
rest	-3496
view	-3497
illed	-3498
▁serv	-3499
▁sour	-3500
pected	-3501
▁Santa	-3502
▁liber	-3503
▁tears	-3504
▁turns	-3505
▁econom	-3506
▁writing	-3507
▁pregnant	-3508
RI	-3509
li	-3510
ENS	-3511
lox	-3512
▁MA	-3513
▁ol	-3514
▁vo	-3515
mies	-3516
▁Des	-3517
▁wit	-3518
aging	-3519
aling	-3520
▁Mich	-3521
▁Stop	-3522
▁dash	-3523
▁fake	-3524
▁holy	-3525
▁whis	-3526
idence	-3527
▁BREAK	-3528
▁alive	-3529
▁broke	-3530
▁pizza	-3531
ionally	-3532
▁MOTHER	-3533
▁effort	-3534
▁filled	-3535
▁notice	-3536
▁opened	-3537
▁threat	-3538
▁clearly	-3539
▁comfort	-3540
▁natural	-3541
▁including	-3542
▁40	-3543
▁Dr	-3544
▁ED	-3545
▁LA	-3546
OWOW	-3547
airs	-3548
amed	-3549
▁MOR	-3550
▁Pol	-3551
▁arc	-3552
▁ela	-3553
▁var	-3554
▁THEN	-3555
▁hang	-3556
▁avoid	-3557
▁horse	-3558
▁image	-3559
▁mommy	-3560
▁write	-3561
▁dreams	-3562
▁proper	-3563
▁series	-3564
▁further	-3565
▁passion	-3566
BB	-3567
MY	-3568
kk	-3569
ls	-3570
ILE	-3571
URE	-3572
oom	-3573
par	-3574
bebe	-3575
iron	-3576
unny	-3577
▁BOY	-3578
▁DID	-3579
▁LET	-3580
▁MAR	-3581
▁nin	-3582
▁tip	-3583
.....	-3584
▁defe	-3585
▁doct	-3586
▁haha	-3587
▁heat	-3588
▁ride	-3589
▁wood	-3590
ecraft	-3591
▁Jesus	-3592
▁media	-3593
▁condit	-3594
▁harder	-3595
▁planet	-3596
1!1!1!1!	-3597
▁exactly	-3598
▁putting	-3599
▁teacher	-3600
▁walking	-3601
▁language	-3602
▁whenever	-3603
ADY	-3604
ili	-3605
▁!!	-3606
▁2.	-3607
ames	-3608
iant	-3609
itor	-3610
lect	-3611
▁MIL	-3612
▁Our	-3613
▁fix	-3614
▁har	-3615
▁hug	-3616
!!!!!	-3617
CTION	-3618
ences	-3619
▁Fort	-3620
▁Lord	-3621
▁THEM	-3622
ration	-3623
▁Super	-3624
▁World	-3625
▁bunch	-3626
▁local	-3627
▁nigga	-3628
▁relig	-3629
▁seven	-3630
▁credit	-3631
▁prefer	-3632
▁scient	-3633
▁server	-3634
▁enemies	-3635
▁building	-3636
▁appreciate	-3637
6.	-3638
FE	-3639
of	-3640
irm	-3641
▁Te	-3642
▁ts	-3643
ibus	-3644
orant	-3645
▁camp	-3646
▁race	-3647
ground	-3648
though	-3649
▁above	-3650
▁haven	-3651
▁issue	-3652
▁stret	-3653
rection	-3654
▁choice	-3655
hhhhhhhh	-3656
▁thousand	-3657
▁SLATTSLATT	-3658
12	-3659
uv	-3660
OOP	-3661
▁JO	-3662
▁QU	-3663
cend	-3664
▁jud	-3665
▁key	-3666
▁lif	-3667
▁spl	-3668
ledge	-3669
onald	-3670
▁Imag	-3671
▁scan	-3672
▁NEVER	-3673
▁empty	-3674
▁semen	-3675
▁Pokmon	-3676
▁anyway	-3677
▁broken	-3678
▁button	-3679
▁prevent	-3680
▁listening	-3681
CHOOCHOOCHOOCHOO	-3682
WW	-3683
ICH	-3684
ael	-3685
cel	-3686
▁UR	-3687
NNNN	-3688
back	-3689
haps	-3690
ises	-3691
▁300	-3692
▁ATT	-3693
▁SHE	-3694
▁faz	-3695
▁inn	-3696
▁max	-3697
▁LOVE	-3698
▁capt	-3699
▁stro	-3700
ipping	-3701
▁champ	-3702
▁animal	-3703
▁beyond	-3704
▁challen	-3705
▁respons	-3706
▁attention	-3707
ZE	-3708
ba	-3709
rs	-3710
ARL	-3711
ARY	-3712
LER	-3713
ohn	-3714
son	-3715
uan	-3716
uki	-3717
▁3.	-3718
####	-3719
oyal	-3720
▁bod	-3721
▁net	-3722
▁sig	-3723
asing	-3724
▁MESS	-3725
▁rich	-3726
▁named	-3727
▁wasnt	-3728
▁barely	-3729
▁corner	-3730
ANANANAN	-3731
asy	-3732
ems	-3733
esh	-3734
oty	-3735
▁EL	-3736
ares	-3737
uine	-3738
vert	-3739
▁GIR	-3740
▁HOR	-3741
▁REF	-3742
▁rat	-3743
▁fool	-3744
▁copyp	-3745
▁creep	-3746
▁daily	-3747
▁mount	-3748
▁total	-3749
ability	-3750
▁resist	-3751
▁becomes	-3752
▁Everyone	-3753
▁daughter	-3754
▁yesterday	-3755
▁disgusting	-3756
OOOOOOOOOOOOOOOO	-3757
ura	-3758
▁Mc	-3759
ette	-3760
rupt	-3761
▁emp	-3762
▁mic	-3763
▁vib	-3764
ables	-3765
ening	-3766
idden	-3767
urity	-3768
▁GAME	-3769
▁code	-3770
agraph	-3771
▁Since	-3772
▁lower	-3773
▁peace	-3774
▁bought	-3775
▁losing	-3776
▁trained	-3777
18	-3778
zz	-3779
ASH	-3780
▁OM	-3781
▁ge	-3782
ails	-3783
ikes	-3784
onse	-3785
oved	-3786
▁BET	-3787
▁SEE	-3788
▁ner	-3789
ingle	-3790
ughed	-3791
▁BEST	-3792
▁King	-3793
▁Play	-3794
▁fate	-3795
▁hide	-3796
▁news	-3797
reddit	-3798
▁carry	-3799
▁swear	-3800
▁BECAUSE	-3801
▁anywhere	-3802
▁thoughts	-3803
▁instantly	-3804
30	-3805
BR	-3806
PH	-3807
ov	-3808
iro	-3809
rag	-3810
▁FE	-3811
ells	-3812
omen	-3813
ware	-3814
wise	-3815
▁Nij	-3816
▁SPE	-3817
▁dig	-3818
▁nor	-3819
arian	-3820
▁HACK	-3821
▁nuts	-3822
apping	-3823
ensive	-3824
▁cross	-3825
▁jokes	-3826
▁rules	-3827
▁weeks	-3828
▁Before	-3829
▁actual	-3830
▁member	-3831
▁paying	-3832
▁discuss	-3833
▁response	-3834
7.	-3835
UC	-3836
IRE	-3837
OOT	-3838
pre	-3839
uke	-3840
▁SA	-3841
ABLE	-3842
otic	-3843
rrrr	-3844
▁HAS	-3845
▁Mom	-3846
▁Pat	-3847
▁WIN	-3848
▁aud	-3849
▁gri	-3850
▁ord	-3851
inked	-3852
mates	-3853
▁Time	-3854
▁none	-3855
▁pack	-3856
▁ring	-3857
▁Guess	-3858
▁THEIR	-3859
▁quiet	-3860
▁trash	-3861
▁yours	-3862
▁youve	-3863
initely	-3864
▁appear	-3865
▁cancer	-3866
▁finish	-3867
▁fuckin	-3868
▁health	-3869
▁moving	-3870
▁passed	-3871
▁travel	-3872
▁chicken	-3873
▁holding	-3874
▁members	-3875
▁totally	-3876
▁movement	-3877
▁starting	-3878
WH	-3879
sc	-3880
OSS	-3881
▁By	-3882
gers	-3883
uced	-3884
▁Car	-3885
▁Mil	-3886
▁Nor	-3887
▁sob	-3888
▁John	-3889
▁arms	-3890
▁subs	-3891
▁tall	-3892
▁THERE	-3893
▁color	-3894
▁green	-3895
▁shout	-3896
▁author	-3897
▁determ	-3898
▁forces	-3899
▁mental	-3900
▁spirit	-3901
▁Imagine	-3902
▁bitches	-3903
▁obviously	-3904
▁government	-3905
88	-3906
IK	-3907
ui	-3908
ESE	-3909
UND	-3910
aul	-3911
job	-3912
ork	-3913
▁CE	-3914
▁IQ	-3915
▁mu	-3916
NING	-3917
come	-3918
ican	-3919
▁Gra	-3920
▁meu	-3921
▁sac	-3922
iding	-3923
pping	-3924
ument	-3925
unity	-3926
▁cart	-3927
▁husb	-3928
▁push	-3929
▁rain	-3930
▁dance	-3931
▁enemy	-3932
▁progr	-3933
▁issues	-3934
▁locked	-3935
▁thighs	-3936
▁culture	-3937
▁genuine	-3938
▁laughed	-3939
▁somehow	-3940
▁intellig	-3941
alk	-3942
min	-3943
oll	-3944
ota	-3945
▁La	-3946
orus	-3947
umps	-3948
▁MOM	-3949
▁OUR	-3950
▁Vap	-3951
rated	-3952
ustom	-3953
▁Bill	-3954
▁cand	-3955
▁path	-3956
▁AGAIN	-3957
▁Angel	-3958
▁Speer	-3959
▁buddy	-3960
▁serve	-3961
▁bigger	-3962
▁desper	-3963
▁showed	-3964
▁Michael	-3965
5.	-3966
ita	-3967
set	-3968
▁22	-3969
▁AD	-3970
▁ah	-3971
MENT	-3972
▁Put	-3973
ESSED	-3974
▁Take	-3975
▁evil	-3976
▁drown	-3977
▁knife	-3978
▁memes	-3979
▁smart	-3980
arently	-3981
▁cringe	-3982
▁correct	-3983
▁leaving	-3984
▁similar	-3985
!?	-3986
SH	-3987
▁23	-3988
▁Ah	-3989
▁II	-3990
OUSE	-3991
ague	-3992
hold	-3993
iled	-3994
inda	-3995
onic	-3996
oted	-3997
▁UND	-3998
▁cuz	-3999
▁fal	-4000
▁joy	-4001
▁ped	-4002
▁tit	-4003
aries	-4004
▁Make	-4005
▁boys	-4006
▁lips	-4007
▁Dream	-4008
▁agree	-4009
▁colle	-4010
▁heavy	-4011
▁oppon	-4012
▁Nijika	-4013
▁apolog	-4014
▁virgin	-4015
▁deserve	-4016
▁product	-4017
▁training	-4018
▁currently	-4019
da	-4020
wy	-4021
acc	-4022
aws	-4023
oci	-4024
onk	-4025
ury	-4026
▁Eu	-4027
▁HP	-4028
ival	-4029
▁Ber	-4030
▁GRE	-4031
▁mur	-4032
▁pel	-4033
▁unb	-4034
cious	-4035
iring	-4036
▁Once	-4037
▁reve	-4038
▁spin	-4039
▁vers	-4040
▁wide	-4041
fortun	-4042
▁Right	-4043
▁third	-4044
▁commit	-4045
▁fellow	-4046
▁heaven	-4047
▁dropped	-4048
▁entirely	-4049
▁reference	-4050
▁subreddit	-4051
14	-4052
TF	-4053
gl	-4054
OTT	-4055
UDE	-4056
hin	-4057
▁Ac	-4058
aint	-4059
ceed	-4060
▁arm	-4061
▁fed	-4062
▁ing	-4063
▁HELL	-4064
▁HOES	-4065
▁LONG	-4066
▁Over	-4067
▁appe	-4068
▁bene	-4069
▁crew	-4070
▁magn	-4071
▁nose	-4072
▁sort	-4073
▁trou	-4074
amente	-4075
idered	-4076
▁Their	-4077
▁bread	-4078
▁field	-4079
▁cheeks	-4080
▁inches	-4081
▁office	-4082
▁prison	-4083
▁report	-4084
▁skills	-4085
▁machine	-4086
▁sucking	-4087
▁recently	-4088
▁considered	-4089
RO	-4090
ku	-4091
la	-4092
ADE	-4093
omm	-4094
▁Fe	-4095
HEHE	-4096
rage	-4097
rate	-4098
▁Int	-4099
▁MEM	-4100
▁Res	-4101
▁Val	-4102
▁aim	-4103
ander	-4104
icate	-4105
inese	-4106
▁BEEN	-4107
▁Game	-4108
▁LIFE	-4109
▁edge	-4110
▁feed	-4111
▁goal	-4112
▁hall	-4113
▁lock	-4114
▁mais	-4115
▁rule	-4116
▁tiny	-4117
icious	-4118
▁meant	-4119
▁posts	-4120
▁saved	-4121
▁escape	-4122
▁opport	-4123
▁recogn	-4124
▁incredibly	-4125
▁industrial	-4126
LF	-4127
tw	-4128
ANE	-4129
dom	-4130
GGGG	-4131
LING	-4132
icit	-4133
rove	-4134
▁PER	-4135
▁RED	-4136
▁mel	-4137
▁pil	-4138
▁Beat	-4139
▁EVEN	-4140
▁Holy	-4141
▁flow	-4142
▁grav	-4143
▁hint	-4144
▁kick	-4145
▁tail	-4146
▁vill	-4147
▁Whats	-4148
▁ended	-4149
▁fresh	-4150
▁market	-4151
▁smooth	-4152
▁vagina	-4153
▁defense	-4154
▁seriously	-4155
CR	-4156
tr	-4157
ORD	-4158
alo	-4159
rif	-4160
you	-4161
zie	-4162
▁00	-4163
▁SI	-4164
down	-4165
raid	-4166
▁Rec	-4167
▁WAT	-4168
▁bri	-4169
▁kit	-4170
▁mer	-4171
▁reb	-4172
ATING	-4173
THING	-4174
erial	-4175
mente	-4176
▁Dark	-4177
▁TAKE	-4178
▁role	-4179
▁tear	-4180
ficult	-4181
▁White	-4182
▁giant	-4183
▁bother	-4184
▁actions	-4185
▁bedroom	-4186
▁breaking	-4187
▁humanity	-4188
▁difficult	-4189
yc	-4190
EEN	-4191
HHH	-4192
IAL	-4193
box	-4194
uit	-4195
upp	-4196
▁MO	-4197
adow	-4198
aram	-4199
cent	-4200
chen	-4201
ends	-4202
ffee	-4203
owee	-4204
▁DIS	-4205
▁Mor	-4206
▁Ten	-4207
▁WAR	-4208
essed	-4209
▁HOLE	-4210
▁More	-4211
▁eggs	-4212
▁grad	-4213
▁moon	-4214
ALLTHE	-4215
▁BLACK	-4216
▁knees	-4217
▁teeth	-4218
▁Thanks	-4219
▁danger	-4220
ALLTHEWAY	-4221
▁greatest	-4222
▁involved	-4223
KS	-4224
wi	-4225
LES	-4226
UAL	-4227
ami	-4228
aos	-4229
ira	-4230
opp	-4231
▁PH	-4232
▁WA	-4233
hood	-4234
illa	-4235
inux	-4236
mate	-4237
ummy	-4238
▁Ben	-4239
▁Par	-4240
▁Sch	-4241
▁WAY	-4242
▁dry	-4243
▁htt	-4244
▁aint	-4245
▁club	-4246
▁jerk	-4247
▁rage	-4248
▁sold	-4249
▁aware	-4250
▁cover	-4251
▁utter	-4252
▁doctor	-4253
▁figure	-4254
▁target	-4255
▁thrust	-4256
▁environ	-4257
▁reasons	-4258
▁standing	-4259
▁superior	-4260
▁continued	-4261
▁everybody	-4262
▁intellect	-4263
▁president	-4264
AZ	-4265
got	-4266
ima	-4267
▁17	-4268
ster	-4269
uman	-4270
▁PUT	-4271
▁bul	-4272
▁umm	-4273
▁vit	-4274
AKING	-4275
ators	-4276
oster	-4277
▁Keep	-4278
▁cast	-4279
▁date	-4280
▁educ	-4281
▁numb	-4282
▁uses	-4283
!!!!!!	-4284
▁Among	-4285
▁crush	-4286
▁dying	-4287
▁sluts	-4288
▁trust	-4289
▁Around	-4290
▁seemed	-4291
▁victim	-4292
▁achieve	-4293
▁dollars	-4294
▁husband	-4295
▁skibidi	-4296
▁stomach	-4297
ih	-4298
ji	-4299
ano	-4300
rom	-4301
▁90	-4302
▁AH	-4303
▁ID	-4304
▁Up	-4305
icle	-4306
▁alb	-4307
▁deb	-4308
▁sle	-4309
ensei	-4310
itude	-4311
▁Fire	-4312
▁fund	-4313
▁meas	-4314
incess	-4315
resent	-4316
▁shape	-4317
▁track	-4318
▁banned	-4319
▁higher	-4320
▁racist	-4321
▁Russian	-4322
▁beating	-4323
▁general	-4324
▁written	-4325
3.	-4326
IZZ	-4327
ORY	-4328
ali	-4329
▁TV	-4330
etic	-4331
▁CAR	-4332
▁SIN	-4333
▁cos	-4334
▁wip	-4335
gging	-4336
night	-4337
ushes	-4338
▁0110	-4339
▁amet	-4340
▁lack	-4341
▁mill	-4342
▁oper	-4343
▁scen	-4344
▁REFER	-4345
▁ahead	-4346
▁click	-4347
▁keeps	-4348
▁consum	-4349
▁worked	-4350
▁collect	-4351
▁prepare	-4352
▁shaking	-4353
▁material	-4354
▁political	-4355
▁suffering	-4356
▁definitely	-4357
BO	-4358
ev	-4359
chi	-4360
fit	-4361
ket	-4362
roc	-4363
ros	-4364
▁Ed	-4365
▁RO	-4366
aled	-4367
dies	-4368
iles	-4369
▁Dem	-4370
▁SER	-4371
▁soi	-4372
ieved	-4373
ivity	-4374
oogle	-4375
umber	-4376
▁GIVE	-4377
▁PATH	-4378
▁lean	-4379
▁mons	-4380
▁pant	-4381
ording	-4382
ushing	-4383
▁YEARS	-4384
▁blast	-4385
▁humor	-4386
▁shame	-4387
▁stare	-4388
▁value	-4389
▁action	-4390
▁custom	-4391
▁double	-4392
▁releas	-4393
........	-4394
▁excited	-4395
▁popular	-4396
▁fighting	-4397
▁finished	-4398
▁pictures	-4399
▁signific	-4400
▁attractive	-4401
▁professional	-4402
BA	-4403
au	-4404
▁80	-4405
▁BO	-4406
▁BU	-4407
▁HA	-4408
▁ej	-4409
aped	-4410
ases	-4411
chan	-4412
girl	-4413
ivil	-4414
▁App	-4415
▁NAH	-4416
▁Ser	-4417
▁Was	-4418
▁der	-4419
▁foc	-4420
▁wow	-4421
antic	-4422
epend	-4423
▁Back	-4424
▁Call	-4425
▁HATE	-4426
▁Last	-4427
▁band	-4428
▁hosp	-4429
▁rese	-4430
▁tool	-4431
acting	-4432
▁Build	-4433
▁doubt	-4434
▁influ	-4435
▁terms	-4436
▁Roblox	-4437
▁coffee	-4438
▁leaves	-4439
▁orgasm	-4440
▁regard	-4441
▁company	-4442
▁cumming	-4443
▁install	-4444
▁weapons	-4445
▁bullshit	-4446
▁copypasta	-4447
▁MOTHERFUCK	-4448
▁accidentally	-4449
22	-4450
PE	-4451
aka	-4452
iod	-4453
ram	-4454
ulf	-4455
una	-4456
zed	-4457
▁34	-4458
▁GL	-4459
▁PO	-4460
▁Sn	-4461
▁gh	-4462
▁wy	-4463
port	-4464
▁Att	-4465
▁Bar	-4466
▁DAN	-4467
▁Eur	-4468
▁len	-4469
▁nis	-4470
oreon	-4471
▁buff	-4472
▁core	-4473
▁film	-4474
▁meth	-4475
▁pers	-4476
▁flesh	-4477
▁fully	-4478
▁https	-4479
▁kikes	-4480
▁loves	-4481
▁plays	-4482
▁slide	-4483
▁songs	-4484
▁caused	-4485
▁charge	-4486
▁gaming	-4487
▁ruined	-4488
▁college	-4489
▁episode	-4490
▁fingers	-4491
▁sadness	-4492
▁confused	-4493
▁erection	-4494
▁questions	-4495
▁incredible	-4496
▁environment	-4497
PT	-4498
OON	-4499
▁wo	-4500
DOWN	-4501
GRGR	-4502
SSSS	-4503
acre	-4504
iden	-4505
idge	-4506
otes	-4507
rick	-4508
▁!!!	-4509
▁Sen	-4510
▁pig	-4511
acity	-4512
apped	-4513
▁CALL	-4514
▁INTO	-4515
▁SHUT	-4516
▁Star	-4517
▁copy	-4518
▁tank	-4519
▁tick	-4520
▁THINK	-4521
▁below	-4522
▁sniff	-4523
▁Anyway	-4524
▁United	-4525
▁afraid	-4526
▁hungry	-4527
▁rights	-4528
▁unique	-4529
▁express	-4530
▁strange	-4531
▁celebrate	-4532
▁knowledge	-4533
▁opportunity	-4534
HHHHHHHHHHHHHHHH	-4535
8.	-4536
TS	-4537
▁q	-4538
TLE	-4539
aly	-4540
gun	-4541
ulp	-4542
ecut	-4543
ffic	-4544
hand	-4545
▁COR	-4546
▁aqu	-4547
▁mal	-4548
otten	-4549
ounce	-4550
ropri	-4551
uckle	-4552
▁Baby	-4553
amming	-4554
▁regul	-4555
▁sight	-4556
▁solid	-4557
▁whose	-4558
BALLLER	-4559
▁forgot	-4560
▁search	-4561
▁winning	-4562
▁Disorder	-4563
▁sleeping	-4564
▁REFERENCE	-4565
▁Sometimes	-4566
▁happening	-4567
▁Everything	-4568
▁motherfuck	-4569
▁population	-4570
▁conversation	-4571
CL	-4572
ds	-4573
ua	-4574
ALK	-4575
ays	-4576
ran	-4577
unn	-4578
▁WR	-4579
▁rh	-4580
aves	-4581
boys	-4582
edic	-4583
ills	-4584
ilos	-4585
ived	-4586
ship	-4587
▁ACT	-4588
▁GON	-4589
▁Hes	-4590
▁STR	-4591
▁ens	-4592
▁opt	-4593
▁CUNT	-4594
▁Gold	-4595
▁Most	-4596
▁bone	-4597
▁eget	-4598
▁jack	-4599
▁mood	-4600
▁rate	-4601
ograph	-4602
▁MAMMA	-4603
▁READY	-4604
▁THOSE	-4605
▁Which	-4606
▁strug	-4607
▁twist	-4608
angling	-4609
▁French	-4610
▁bodies	-4611
▁brings	-4612
▁camera	-4613
▁failed	-4614
▁genius	-4615
▁cummies	-4616
▁student	-4617
▁Remember	-4618
▁possibly	-4619
▁screamed	-4620
BALLLERBALLLER	-4621
MAS	-4622
aze	-4623
▁Op	-4624
▁PM	-4625
ENIS	-4626
oman	-4627
ords	-4628
▁mob	-4629
board	-4630
erman	-4631
▁Pres	-4632
▁REAL	-4633
▁fort	-4634
▁prev	-4635
▁pron	-4636
▁seat	-4637
▁tele	-4638
ension	-4639
▁Black	-4640
▁HOUSE	-4641
▁charm	-4642
▁dicks	-4643
▁heads	-4644
▁magic	-4645
imately	-4646
▁LITTLE	-4647
▁compat	-4648
00000000	-4649
▁Fucking	-4650
▁managed	-4651
▁directly	-4652
▁everyday	-4653
▁wondering	-4654
fortunately	-4655
ILD	-4656
ORA	-4657
OTS	-4658
abe	-4659
aki	-4660
oot	-4661
uzz	-4662
▁Hi	-4663
izes	-4664
▁FAT	-4665
▁hol	-4666
▁mes	-4667
tered	-4668
ughty	-4669
▁FREE	-4670
▁GIRL	-4671
▁PEOP	-4672
▁bomb	-4673
▁rare	-4674
▁sust	-4675
▁Click	-4676
▁beast	-4677
▁board	-4678
▁brand	-4679
▁cocks	-4680
▁enter	-4681
▁princ	-4682
▁sperm	-4683
▁extent	-4684
▁faster	-4685
▁nearly	-4686
▁animals	-4687
▁element	-4688
▁killing	-4689
▁limited	-4690
▁stretch	-4691
▁becoming	-4692
▁constant	-4693
▁progress	-4694
▁necessary	-4695
13	-4696
BJ	-4697
PR	-4698
ext	-4699
gar	-4700
iem	-4701
ils	-4702
ste	-4703
uls	-4704
IVER	-4705
hess	-4706
ntai	-4707
▁Air	-4708
▁MIN	-4709
▁lob	-4710
▁mix	-4711
▁wee	-4712
▁Blue	-4713
▁SHOW	-4714
▁crow	-4715
▁dise	-4716
▁pool	-4717
▁purs	-4718
▁suit	-4719
ending	-4720
▁CUNNY	-4721
▁SNARL	-4722
▁accom	-4723
▁basic	-4724
▁clown	-4725
▁vitae	-4726
▁choose	-4727
▁introd	-4728
▁picked	-4729
▁status	-4730
▁street	-4731
▁CUMMIES	-4732
▁impress	-4733
▁turning	-4734
▁Vaporeon	-4735
▁decision	-4736
▁instance	-4737
▁security	-4738
▁constantly	-4739
25	-4740
80	-4741
TR	-4742
GET	-4743
IGH	-4744
ITS	-4745
ego	-4746
nam	-4747
oni	-4748
▁Bo	-4749
▁gf	-4750
▁ou	-4751
▁rn	-4752
OUNT	-4753
RIST	-4754
ault	-4755
bage	-4756
▁Cum	-4757
▁Egg	-4758
▁MON	-4759
▁Men	-4760
▁coo	-4761
▁dom	-4762
▁tim	-4763
▁veh	-4764
field	-4765
▁Does	-4766
▁HERE	-4767
▁bruh	-4768
▁ends	-4769
▁pred	-4770
▁trad	-4771
▁user	-4772
orious	-4773
▁arent	-4774
▁autom	-4775
▁kills	-4776
▁males	-4777
▁plant	-4778
▁refer	-4779
▁walks	-4780
▁Indian	-4781
▁States	-4782
▁gotten	-4783
▁English	-4784
▁perhaps	-4785
▁receive	-4786
ification	-4787
▁slightly	-4788
▁abilities	-4789
▁individuals	-4790
40	-4791
SEX	-4792
UGH	-4793
rel	-4794
ATED	-4795
IDEN	-4796
cher	-4797
cing	-4798
fast	-4799
▁POP	-4800
▁Umb	-4801
isten	-4802
▁POOP	-4803
▁dust	-4804
▁epic	-4805
▁hoes	-4806
▁lore	-4807
▁pink	-4808
▁scre	-4809
elcome	-4810
▁annoy	-4811
▁react	-4812
▁beings	-4813
▁kicked	-4814
▁voting	-4815
aaaaaaaa	-4816
▁Instead	-4817
▁quality	-4818
▁willing	-4819
▁hospital	-4820
▁presence	-4821
▁surround	-4822
▁entertain	-4823
▁masturbate	-4824
1,	-4825
IO	-4826
vy	-4827
yo	-4828
hel	-4829
oma	-4830
pat	-4831
▁OK	-4832
▁Xi	-4833
▁om	-4834
3333	-4835
ENDS	-4836
asty	-4837
ener	-4838
odes	-4839
onda	-4840
onds	-4841
what	-4842
▁BOO	-4843
▁IND	-4844
▁Pot	-4845
▁fog	-4846
arily	-4847
ashed	-4848
iggle	-4849
▁bund	-4850
▁como	-4851
▁gods	-4852
▁harm	-4853
▁loss	-4854
▁ship	-4855
▁vent	-4856
▁separ	-4857
▁smoke	-4858
▁spell	-4859
▁stage	-4860
▁threw	-4861
▁walls	-4862
▁Intern	-4863
▁Master	-4864
▁belong	-4865
▁closed	-4866
▁hentai	-4867
▁lights	-4868
▁punish	-4869
EEEEEEEE	-4870
oooooooo	-4871
▁capable	-4872
▁reached	-4873
▁controll	-4874
▁pressure	-4875
▁Minecraft	-4876
▁difference	-4877
▁psychological	-4878
60	-4879
pa	-4880
ait	-4881
asp	-4882
rio	-4883
▁cu	-4884
ERIC	-4885
ancy	-4886
book	-4887
cean	-4888
inct	-4889
▁FIN	-4890
▁IMP	-4891
▁INS	-4892
▁Que	-4893
▁Sec	-4894
▁Top	-4895
▁coc	-4896
▁hun	-4897
▁pit	-4898
▁uns	-4899
anish	-4900
atory	-4901
▁Comm	-4902
▁DUDE	-4903
▁FACE	-4904
▁MAMA	-4905
▁Wall	-4906
▁cash	-4907
▁excl	-4908
▁runs	-4909
▁soup	-4910
▁tits	-4911
▁Again	-4912
▁drain	-4913
▁maint	-4914
▁stars	-4915
▁troll	-4916
ication	-4917
▁Berlin	-4918
▁Furina	-4919
▁assume	-4920
▁beauty	-4921
▁experi	-4922
▁mostly	-4923
▁remain	-4924
▁source	-4925
▁yelled	-4926
▁BLESSED	-4927
▁breasts	-4928
▁changes	-4929
▁driving	-4930
▁genuinely	-4931
'.	-4932
GA	-4933
IZ	-4934
PS	-4935
arp	-4936
ini	-4937
owe	-4938
ula	-4939
▁27	-4940
▁Ap	-4941
IOUS	-4942
SELF	-4943
UGHT	-4944
erta	-4945
know	-4946
oses	-4947
▁fel	-4948
▁sua	-4949
▁thy	-4950
▁wed	-4951
aving	-4952
itary	-4953
osing	-4954
▁grew	-4955
▁inch	-4956
▁insp	-4957
▁mund	-4958
▁note	-4959
▁nunc	-4960
▁sees	-4961
▁snow	-4962
▁goals	-4963
▁penet	-4964
▁AMERIC	-4965
▁period	-4966
▁genital	-4967
▁officer	-4968
▁proceed	-4969
wu	-4970
ARA	-4971
IFE	-4972
LET	-4973
NER	-4974
REE	-4975
ley	-4976
▁vs	-4977
FFFF	-4978
iven	-4979
ples	-4980
ruct	-4981
uuuu	-4982
▁EAT	-4983
▁Joe	-4984
▁OMG	-4985
▁RES	-4986
▁bat	-4987
▁dim	-4988
▁dur	-4989
▁era	-4990
▁ips	-4991
▁pee	-4992
▁pin	-4993
▁sea	-4994
arted	-4995
▁bast	-4996
▁goon	-4997
woowee	-4998
▁Event	-4999
▁Light	-5000
▁Spawn	-5001
▁WOULD	-5002
▁doors	-5003
▁dress	-5004
▁hurts	-5005
▁illeg	-5006
▁names	-5007
▁shock	-5008
▁Theres	-5009
▁compan	-5010
▁decide	-5011
▁dragon	-5012
▁length	-5013
▁strate	-5014
▁tempor	-5015
▁provide	-5016
▁regular	-5017
▁restaur	-5018
▁trouble	-5019
▁various	-5020
▁breeding	-5021
▁emotional	-5022
▁otherwise	-5023
▁masturbating	-5024
17	-5025
4.	-5026
DS	-5027
HA	-5028
ACE	-5029
ERM	-5030
ERT	-5031
erg	-5032
ett	-5033
gue	-5034
icc	-5035
ola	-5036
oli	-5037
ris	-5038
urg	-5039
▁IP	-5040
▁cz	-5041
▁ta	-5042
OUGH	-5043
inal	-5044
ophy	-5045
ribe	-5046
▁Def	-5047
▁lat	-5048
▁upd	-5049
▁Four	-5050
▁THAN	-5051
▁join	-5052
▁quis	-5053
AAAAAA	-5054
erable	-5055
▁STUFF	-5056
▁allow	-5057
▁burst	-5058
▁crack	-5059
▁faces	-5060
▁gradu	-5061
▁legal	-5062
▁punch	-5063
▁shake	-5064
▁shirt	-5065
▁Little	-5066
▁fetish	-5067
▁shitty	-5068
▁causing	-5069
▁complex	-5070
▁leftist	-5071
▁project	-5072
▁require	-5073
▁wanting	-5074
▁speaking	-5075
▁disappoint	-5076
▁personally	-5077
agn	-5078
edy	-5079
ici	-5080
lls	-5081
▁GE	-5082
anch	-5083
aval	-5084
face	-5085
pers	-5086
rows	-5087
ssss	-5088
▁Ant	-5089
▁Boy	-5090
▁Dec	-5091
▁glu	-5092
▁mut	-5093
▁rom	-5094
▁sir	-5095
▁tod	-5096
▁wis	-5097
alian	-5098
aming	-5099
bbing	-5100
enced	-5101
kward	-5102
ocial	-5103
piece	-5104
▁Real	-5105
▁asks	-5106
▁bank	-5107
▁bust	-5108
▁gift	-5109
ENTION	-5110
ancing	-5111
omfort	-5112
rified	-5113
▁00100	-5114
▁BALLS	-5115
▁block	-5116
▁brown	-5117
▁craft	-5118
▁fault	-5119
▁innoc	-5120
▁loyal	-5121
▁prove	-5122
▁squee	-5123
▁swall	-5124
▁trigg	-5125
▁BETTER	-5126
▁memory	-5127
▁powers	-5128
▁Anyways	-5129
▁context	-5130
▁discord	-5131
▁garbage	-5132
▁kitchen	-5133
▁showing	-5134
▁warning	-5135
▁attracted	-5136
▁following	-5137
▁happiness	-5138
45	-5139
KY	-5140
OOR	-5141
eed	-5142
erb	-5143
iat	-5144
▁4.	-5145
▁AF	-5146
▁Hy	-5147
endo	-5148
ites	-5149
lear	-5150
udes	-5151
ulum	-5152
▁Bre	-5153
▁FRI	-5154
▁Mus	-5155
▁Pra	-5156
▁Sub	-5157
▁seu	-5158
▁Mike	-5159
▁YouT	-5160
▁busy	-5161
▁dign	-5162
▁jest	-5163
▁lift	-5164
▁paid	-5165
▁till	-5166
▁wave	-5167
▁GOING	-5168
▁GONNA	-5169
▁album	-5170
▁freak	-5171
▁guard	-5172
▁liked	-5173
▁motiv	-5174
▁begins	-5175
▁closer	-5176
▁defeat	-5177
▁pounds	-5178
▁silent	-5179
▁thirst	-5180
IIIIIIII	-5181
▁GETTING	-5182
▁aroused	-5183
▁billion	-5184
▁concept	-5185
▁jerking	-5186
▁removed	-5187
▁00100000	-5188
▁horrible	-5189
▁messages	-5190
▁statement	-5191
▁Eventually	-5192
67	-5193
89	-5194
OK	-5195
cy	-5196
ATS	-5197
URR	-5198
nes	-5199
ops	-5200
▁gy	-5201
DICK	-5202
core	-5203
illy	-5204
mmmm	-5205
vere	-5206
▁Act	-5207
▁BAS	-5208
▁Bet	-5209
▁FUN	-5210
▁Pal	-5211
▁tam	-5212
ached	-5213
arter	-5214
erous	-5215
every	-5216
lemen	-5217
▁COME	-5218
▁Hope	-5219
▁chec	-5220
▁clap	-5221
▁feat	-5222
▁isso	-5223
illing	-5224
▁Clack	-5225
▁Rider	-5226
▁argon	-5227
▁chess	-5228
▁concl	-5229
▁cried	-5230
▁moved	-5231
▁occas	-5232
▁parts	-5233
▁stood	-5234
▁CHRIST	-5235
▁Europe	-5236
▁aspect	-5237
▁divine	-5238
▁impact	-5239
▁stress	-5240
▁summon	-5241
▁Finally	-5242
▁concern	-5243
▁despite	-5244
▁naughty	-5245
▁service	-5246
▁shouldn	-5247
▁activity	-5248
▁terrible	-5249
▁paragraph	-5250
▁interesting	-5251
▁personality	-5252
▁understanding	-5253
49	-5254
EY	-5255
jo	-5256
ARS	-5257
OOL	-5258
OOO	-5259
UTE	-5260
bro	-5261
ekt	-5262
osa	-5263
pet	-5264
val	-5265
▁60	-5266
▁Je	-5267
arts	-5268
eler	-5269
ffff	-5270
hest	-5271
inha	-5272
▁Guy	-5273
▁Hon	-5274
▁Sed	-5275
▁Sim	-5276
▁flu	-5277
▁fro	-5278
▁rot	-5279
▁tou	-5280
esome	-5281
ether	-5282
ucing	-5283
under	-5284
ungus	-5285
▁Mort	-5286
▁OPEN	-5287
▁ante	-5288
▁cham	-5289
▁fasc	-5290
▁laid	-5291
▁nipp	-5292
▁weed	-5293
ibulum	-5294
▁Inter	-5295
▁cards	-5296
▁civil	-5297
▁ipsum	-5298
▁lying	-5299
▁whist	-5300
▁acting	-5301
▁arrive	-5302
▁bottle	-5303
▁clever	-5304
▁compre	-5305
▁exists	-5306
▁gently	-5307
▁highly	-5308
▁purple	-5309
▁balance	-5310
▁consist	-5311
▁intense	-5312
▁learned	-5313
▁survive	-5314
▁trapped	-5315
▁birthday	-5316
▁specific	-5317
▁potential	-5318
▁wonderful	-5319
▁throughout	-5320
BT	-5321
XT	-5322
YS	-5323
UMM	-5324
nel	-5325
rem	-5326
sen	-5327
▁Af	-5328
▁OW	-5329
AKES	-5330
IBLE	-5331
aded	-5332
agon	-5333
geon	-5334
lier	-5335
post	-5336
well	-5337
▁Bad	-5338
▁LBJ	-5339
▁REM	-5340
▁Say	-5341
▁heh	-5342
▁hyp	-5343
▁inh	-5344
▁nah	-5345
▁rab	-5346
▁raw	-5347
▁sam	-5348
▁tag	-5349
ocket	-5350
▁Shut	-5351
▁Thus	-5352
▁agre	-5353
▁dies	-5354
▁impl	-5355
▁lady	-5356
▁nerv	-5357
▁pour	-5358
▁przy	-5359
▁vari	-5360
sexual	-5361
▁DEATH	-5362
▁aliqu	-5363
▁brief	-5364
▁ghost	-5365
▁grown	-5366
▁ninja	-5367
▁owner	-5368
▁sigma	-5369
▁steel	-5370
▁trees	-5371
▁waste	-5372
▁advice	-5373
▁butter	-5374
▁recomm	-5375
▁stands	-5376
▁weapon	-5377
77777777	-5378
▁Alright	-5379
▁Chinese	-5380
▁awkward	-5381
▁cutting	-5382
▁falling	-5383
▁Building	-5384
▁Fortnite	-5385
▁accounts	-5386
▁argument	-5387
▁ultimate	-5388
▁somewhere	-5389
▁masterpiece	-5390
iu	-5391
no	-5392
ARR	-5393
USH	-5394
aff	-5395
but	-5396
can	-5397
hem	-5398
uto	-5399
▁Ha	-5400
▁Ve	-5401
anto	-5402
ierd	-5403
pper	-5404
▁End	-5405
▁HIM	-5406
▁Jud	-5407
▁LES	-5408
▁Mex	-5409
▁THR	-5410
▁Yet	-5411
▁fle	-5412
▁fra	-5413
▁jar	-5414
▁lem	-5415
▁ske	-5416
cient	-5417
icide	-5418
iques	-5419
lying	-5420
ulate	-5421
▁Cent	-5422
▁Dead	-5423
▁Ever	-5424
▁FIVE	-5425
▁hips	-5426
▁hits	-5427
▁host	-5428
▁init	-5429
▁lord	-5430
▁lots	-5431
itting	-5432
lessly	-5433
▁Herta	-5434
▁SPANK	-5435
▁WORLD	-5436
▁addit	-5437
▁clock	-5438
▁depth	-5439
▁drunk	-5440
▁maxim	-5441
▁style	-5442
▁asleep	-5443
▁breaks	-5444
▁delete	-5445
▁flying	-5446
▁legend	-5447
▁loaded	-5448
▁philos	-5449
▁suffer	-5450
▁talked	-5451
▁burning	-5452
▁forgive	-5453
▁grabbed	-5454
▁hearing	-5455
▁muscles	-5456
▁partner	-5457
▁streets	-5458
▁victory	-5459
▁witness	-5460
estibulum	-5461
▁religion	-5462
▁somebody	-5463
9.	-5464
BI	-5465
AMN	-5466
bre	-5467
itz	-5468
xic	-5469
▁EU	-5470
ocol	-5471
rict	-5472
▁Cur	-5473
▁SWE	-5474
▁Spl	-5475
▁Sus	-5476
▁Two	-5477
▁cab	-5478
▁fol	-5479
▁lou	-5480
▁nod	-5481
▁oil	-5482
ichan	-5483
▁DING	-5484
▁Disc	-5485
▁Fred	-5486
▁Mass	-5487
▁Sand	-5488
▁Want	-5489
▁link	-5490
▁liqu	-5491
▁Donda	-5492
▁Spong	-5493
▁boobs	-5494
▁femin	-5495
▁frame	-5496
▁holes	-5497
▁juicy	-5498
▁minor	-5499
▁offer	-5500
▁types	-5501
▁Listen	-5502
▁desire	-5503
▁mirror	-5504
▁perman	-5505
▁remove	-5506
▁YouTube	-5507
▁anytime	-5508
▁attacks	-5509
▁convinc	-5510
▁designed	-5511
▁shopping	-5512
▁ATTENTION	-5513
▁destroyed	-5514
▁therefore	-5515
2,	-5516
FL	-5517
LT	-5518
AHA	-5519
HOE	-5520
IMP	-5521
isa	-5522
off	-5523
▁5.	-5524
▁DM	-5525
▁MU	-5526
▁Sa	-5527
▁ic	-5528
▁tu	-5529
cell	-5530
ench	-5531
heem	-5532
inho	-5533
▁Arg	-5534
▁BUR	-5535
▁Bel	-5536
▁Col	-5537
▁END	-5538
▁Gre	-5539
▁Hog	-5540
▁PAR	-5541
▁Sex	-5542
▁Ver	-5543
▁WOM	-5544
▁bol	-5545
▁eth	-5546
▁gig	-5547
▁lac	-5548
▁lar	-5549
▁mim	-5550
▁unl	-5551
arden	-5552
icles	-5553
inger	-5554
pting	-5555
unday	-5556
verse	-5557
▁BITE	-5558
▁DOES	-5559
▁GROW	-5560
▁Ring	-5561
▁cous	-5562
▁dare	-5563
▁gall	-5564
▁gang	-5565
▁pump	-5566
▁road	-5567
▁rout	-5568
antage	-5569
▁adult	-5570
▁blank	-5571
▁breed	-5572
▁bunda	-5573
▁hesit	-5574
▁metal	-5575
▁paper	-5576
▁unable	-5577
▁begging	-5578
▁program	-5579
▁pronoun	-5580
▁ridicul	-5581
▁science	-5582
▁scratch	-5583
▁useless	-5584
▁majority	-5585
▁opponent	-5586
▁students	-5587
▁thousands	-5588
▁physically	-5589
▁intelligent	-5590
▁performance	-5591
EEE	-5592
bye	-5593
ona	-5594
pis	-5595
▁Sy	-5596
▁ws	-5597
IRED	-5598
TTTT	-5599
anda	-5600
elle	-5601
▁Cor	-5602
▁POR	-5603
▁Sam	-5604
ASTER	-5605
TIEST	-5606
entes	-5607
ieces	-5608
ingly	-5609
usive	-5610
▁WOAH	-5611
▁dear	-5612
▁ears	-5613
▁emoj	-5614
▁hook	-5615
▁meal	-5616
▁page	-5617
▁plac	-5618
▁poke	-5619
▁pupp	-5620
▁qual	-5621
▁tact	-5622
??????	-5623
itions	-5624
▁Linux	-5625
▁North	-5626
▁Still	-5627
▁THING	-5628
▁angel	-5629
▁booty	-5630
▁equal	-5631
▁honor	-5632
▁ocean	-5633
▁pulls	-5634
▁sword	-5635
▁whats	-5636
▁crimes	-5637
▁critic	-5638
▁demand	-5639
▁places	-5640
▁summer	-5641
▁twenty	-5642
everyone	-5643
ribution	-5644
▁address	-5645
▁appears	-5646
▁capital	-5647
▁manager	-5648
▁nowhere	-5649
▁torture	-5650
▁compared	-5651
▁throwing	-5652
▁beginning	-5653
▁evolution	-5654
▁apparently	-5655
RRRRRRRRRRRRRRRR	-5656
29	-5657
65	-5658
SF	-5659
cz	-5660
ABY	-5661
avy	-5662
hhh	-5663
ois	-5664
uma	-5665
vis	-5666
▁Ma	-5667
▁ni	-5668
▁za	-5669
aken	-5670
ests	-5671
eter	-5672
iper	-5673
ners	-5674
uris	-5675
▁203	-5676
▁CHE	-5677
▁JES	-5678
▁STE	-5679
▁Spy	-5680
▁VER	-5681
▁fer	-5682
▁hah	-5683
aches	-5684
gling	-5685
inity	-5686
ounds	-5687
▁BUTT	-5688
▁Next	-5689
▁SANE	-5690
▁cage	-5691
▁slur	-5692
▁tour	-5693
atives	-5694
atural	-5695
linked	-5696
▁Biden	-5697
▁HORNY	-5698
▁added	-5699
▁belly	-5700
▁crowd	-5701
▁crypt	-5702
▁eight	-5703
▁frust	-5704
▁gamer	-5705
▁lucky	-5706
▁lunch	-5707
▁noise	-5708
▁score	-5709
▁stock	-5710
▁twice	-5711
▁George	-5712
▁SLUTTY	-5713
▁Sensei	-5714
▁assist	-5715
▁filthy	-5716
▁loving	-5717
▁raised	-5718
▁rubber	-5719
entially	-5720
▁growing	-5721
▁stories	-5722
▁thirsty	-5723
▁glorious	-5724
▁numerous	-5725
▁BREAKDOWN	-5726
▁President	-5727
▁condition	-5728
▁depressed	-5729
▁miserable	-5730
▁represent	-5731
▁depression	-5732
▁impressive	-5733
▁restaurant	-5734
▁intellectual	-5735
ME	-5736
PA	-5737
je	-5738
po	-5739
ACT	-5740
ENC	-5741
FUL	-5742
OWS	-5743
cil	-5744
iko	-5745
oms	-5746
ooo	-5747
wee	-5748
▁AI	-5749
▁KE	-5750
just	-5751
pass	-5752
rome	-5753
ucks	-5754
ulla	-5755
uous	-5756
urch	-5757
▁Inf	-5758
▁PRO	-5759
▁SQU	-5760
▁TOO	-5761
▁TOP	-5762
▁bug	-5763
▁flo	-5764
▁prz	-5765
▁rip	-5766
▁tom	-5767
ahaha	-5768
iable	-5769
ortex	-5770
▁BRUH	-5771
▁Poke	-5772
▁Rekt	-5773
▁Sure	-5774
▁WIFE	-5775
▁bite	-5776
▁firm	-5777
▁lies	-5778
▁plus	-5779
▁wash	-5780
▁zero	-5781
enshin	-5782
▁Charm	-5783
▁Umbre	-5784
▁alarm	-5785
▁avail	-5786
▁dolor	-5787
▁estab	-5788
▁impre	-5789
▁nasty	-5790
▁plane	-5791
▁skull	-5792
itution	-5793
▁PEOPLE	-5794
▁circum	-5795
▁confir	-5796
▁favour	-5797
▁gender	-5798
▁groups	-5799
▁harass	-5800
▁orange	-5801
▁therap	-5802
ropriate	-5803
▁disease	-5804
▁illegal	-5805
▁posting	-5806
▁profile	-5807
▁creating	-5808
▁gameplay	-5809
▁leftists	-5810
▁negative	-5811
▁argonians	-5812
▁breakfast	-5813
▁challenge	-5814
▁throbbing	-5815
▁transform	-5816
▁background	-5817
▁MOTHERFUCKING	-5818
uf	-5819
wd	-5820
ISE	-5821
KEY	-5822
has	-5823
ias	-5824
yan	-5825
▁0.	-5826
▁RU	-5827
UDAM	-5828
elly	-5829
etet	-5830
iers	-5831
indo	-5832
iori	-5833
rant	-5834
ront	-5835
utsu	-5836
▁Abs	-5837
▁Bro	-5838
▁HOM	-5839
▁Hor	-5840
▁Ins	-5841
▁Ken	-5842
▁ate	-5843
▁beg	-5844
IVING	-5845
▁Hall	-5846
▁cave	-5847
▁puts	-5848
▁rape	-5849
▁teen	-5850
▁thou	-5851
▁waif	-5852
aching	-5853
ashing	-5854
urally	-5855
▁TRUMP	-5856
▁WHITE	-5857
▁encou	-5858
▁erect	-5859
▁exerc	-5860
▁furry	-5861
▁moans	-5862
▁ratio	-5863
▁remem	-5864
▁tomor	-5865
ruction	-5866
▁Google	-5867
▁REALLY	-5868
▁Sunday	-5869
▁consid	-5870
▁idiots	-5871
▁stairs	-5872
▁struct	-5873
▁underw	-5874
▁warmth	-5875
KKKKKKKK	-5876
atically	-5877
▁CUMMING	-5878
▁accompl	-5879
▁females	-5880
▁goddess	-5881
▁hitting	-5882
▁letting	-5883
▁moments	-5884
▁obvious	-5885
▁section	-5886
▁staring	-5887
▁Internet	-5888
▁download	-5889
▁drinking	-5890
▁innocent	-5891
▁sexually	-5892
▁Xiangling	-5893
▁desperate	-5894
!.	-5895
BE	-5896
BL	-5897
xi	-5898
aus	-5899
ker	-5900
ras	-5901
tra	-5902
yss	-5903
9999	-5904
ANCE	-5905
inky	-5906
kend	-5907
long	-5908
uing	-5909
▁Cle	-5910
▁Fem	-5911
▁Hol	-5912
▁MAG	-5913
▁MAY	-5914
▁Mer	-5915
▁dut	-5916
▁gal	-5917
▁ive	-5918
▁shr	-5919
▁tas	-5920
▁DROP	-5921
▁Down	-5922
▁Girl	-5923
▁Long	-5924
▁Shes	-5925
▁Spec	-5926
▁Tell	-5927
▁WERE	-5928
▁alph	-5929
▁dela	-5930
▁diss	-5931
▁flag	-5932
▁flex	-5933
▁fulf	-5934
▁irre	-5935
▁ruin	-5936
▁tent	-5937
▁Would	-5938
▁abort	-5939
▁boner	-5940
▁brill	-5941
▁couch	-5942
▁dolph	-5943
▁lines	-5944
▁lived	-5945
▁model	-5946
▁overw	-5947
▁raise	-5948
▁title	-5949
▁tries	-5950
respect	-5951
▁babies	-5952
▁boring	-5953
▁buying	-5954
▁climax	-5955
▁combat	-5956
▁ejacul	-5957
▁fucker	-5958
▁insert	-5959
▁invent	-5960
▁manage	-5961
▁merely	-5962
▁missed	-5963
▁placed	-5964
▁regret	-5965
▁subtle	-5966
▁ultric	-5967
▁yellow	-5968
aneously	-5969
ifically	-5970
iversity	-5971
▁awesome	-5972
▁finding	-5973
▁holiday	-5974
▁impregn	-5975
▁missing	-5976
▁neither	-5977
▁satisfy	-5978
▁screens	-5979
▁allowing	-5980
▁football	-5981
▁practice	-5982
▁apartment	-5983
▁certainly	-5984
▁activities	-5985
',	-5986
23	-5987
47	-5988
xx	-5989
INB	-5990
ULT	-5991
ads	-5992
awa	-5993
aya	-5994
oid	-5995
rup	-5996
uri	-5997
▁DA	-5998
▁ng	-5999
ador	-6000
amin	-6001
iber	-6002
lict	-6003
rael	-6004
uffy	-6005
▁Acc	-6006
▁COL	-6007
▁Due	-6008
▁Fre	-6009
▁GRR	-6010
▁Hit	-6011
▁MEN	-6012
▁Mad	-6013
▁Mic	-6014
▁Sat	-6015
▁Sil	-6016
▁Tik	-6017
▁WAN	-6018
▁WTF	-6019
▁cri	-6020
▁dia	-6021
OWEEN	-6022
aping	-6023
ocide	-6024
▁Cont	-6025
▁Desp	-6026
▁FOUR	-6027
▁Free	-6028
▁LOAD	-6029
▁boom	-6030
▁hehe	-6031
▁pity	-6032
▁rats	-6033
ORAORA	-6034
uclear	-6035
▁Guard	-6036
▁NIGHT	-6037
▁STILL	-6038
▁faith	-6039
▁grace	-6040
▁honey	-6041
▁loser	-6042
▁manip	-6043
▁rapid	-6044
▁swing	-6045
▁wrote	-6046
hearted	-6047
mission	-6048
▁Monika	-6049
▁arrest	-6050
▁pushed	-6051
▁twitch	-6052
MMMMMMMM	-6053
▁alright	-6054
▁breathe	-6055
▁furries	-6056
▁monster	-6057
▁replied	-6058
▁declines	-6059
▁expected	-6060
▁tomorrow	-6061
▁education	-6062
▁pretending	-6063
.,	-6064
66	-6065
Cl	-6066
KI	-6067
KT	-6068
TA	-6069
INT	-6070
The	-6071
gic	-6072
pan	-6073
▁CS	-6074
▁RA	-6075
▁TA	-6076
gged	-6077
ilty	-6078
inem	-6079
ogue	-6080
oken	-6081
vest	-6082
▁Dab	-6083
▁HEL	-6084
▁Kam	-6085
▁MOD	-6086
▁SCH	-6087
▁Tra	-6088
▁bum	-6089
▁cub	-6090
▁dab	-6091
▁daw	-6092
▁dun	-6093
▁pic	-6094
▁tap	-6095
▁ven	-6096
ights	-6097
mical	-6098
▁Char	-6099
▁HALL	-6100
▁York	-6101
▁cats	-6102
▁curs	-6103
▁drug	-6104
▁earn	-6105
▁merc	-6106
▁mock	-6107
▁mode	-6108
▁park	-6109
▁prem	-6110
▁site	-6111
▁webs	-6112
▁01100	-6113
▁AFTER	-6114
▁Donec	-6115
▁Mario	-6116
▁Queen	-6117
▁START	-6118
▁TODAY	-6119
▁Veget	-6120
▁WATCH	-6121
▁cares	-6122
▁crime	-6123
▁downv	-6124
▁forth	-6125
▁pride	-6126
▁prime	-6127
▁trade	-6128
▁whore	-6129
▁011011	-6130
▁applic	-6131
▁calcul	-6132
▁fallen	-6133
UDAMUDAM	-6134
expected	-6135
▁letters	-6136
▁network	-6137
▁numbers	-6138
▁sending	-6139
▁setting	-6140
▁Although	-6141
▁annoying	-6142
▁particip	-6143
▁princess	-6144
▁dangerous	-6145
▁explained	-6146
▁forgotten	-6147
▁discovered	-6148
▁particular	-6149
▁successful	-6150
▁techniques	-6151
▁comfortable	-6152
3,	-6153
SR	-6154
zo	-6155
11!	-6156
ITA	-6157
cia	-6158
dum	-6159
gen	-6160
met	-6161
oco	-6162
owa	-6163
▁47	-6164
▁55	-6165
▁AW	-6166
▁BI	-6167
▁Kn	-6168
acle	-6169
ista	-6170
ogus	-6171
uada	-6172
▁BEL	-6173
▁BRO	-6174
▁ash	-6175
▁ast	-6176
▁cud	-6177
▁dip	-6178
▁hyd	-6179
▁rod	-6180
▁sav	-6181
▁shy	-6182
▁tow	-6183
▁upv	-6184
erior	-6185
house	-6186
idunt	-6187
▁Dick	-6188
▁EDIT	-6189
▁Rock	-6190
▁risk	-6191
▁virt	-6192
rences	-6193
▁Mommy	-6194
▁Under	-6195
▁Watch	-6196
▁abuse	-6197
▁books	-6198
▁hopes	-6199
▁muito	-6200
▁panic	-6201
▁pilot	-6202
▁sheer	-6203
▁sized	-6204
▁steal	-6205
▁subsc	-6206
▁Easter	-6207
▁Golden	-6208
▁fantas	-6209
▁hoping	-6210
▁levels	-6211
▁owners	-6212
ellentes	-6213
▁Italian	-6214
▁economy	-6215
▁possess	-6216
▁princip	-6217
▁pulling	-6218
▁trigger	-6219
▁weekend	-6220
▁whistle	-6221
▁worried	-6222
▁worship	-6223
▁conflict	-6224
▁prepared	-6225
▁reaction	-6226
▁surprise	-6227
▁generally	-6228
▁uncomfort	-6229
ellentesque	-6230
SO	-6231
sn	-6232
ALI	-6233
arc	-6234
bel	-6235
mit	-6236
udo	-6237
ule	-6238
YING	-6239
fish	-6240
hoho	-6241
ille	-6242
mind	-6243
ript	-6244
▁911	-6245
▁Bur	-6246
▁MIA	-6247
▁Nob	-6248
▁SOL	-6249
▁Tom	-6250
▁Tri	-6251
▁das	-6252
▁dop	-6253
▁ham	-6254
▁poo	-6255
▁pub	-6256
▁rif	-6257
▁san	-6258
▁sie	-6259
▁sne	-6260
▁unn	-6261
▁wra	-6262
ading	-6263
anted	-6264
bered	-6265
estly	-6266
hered	-6267
orses	-6268
▁GRRR	-6269
▁SAID	-6270
▁YEAH	-6271
▁appl	-6272
▁cher	-6273
▁desk	-6274
▁flat	-6275
▁iron	-6276
▁mate	-6277
▁math	-6278
▁mort	-6279
▁tinc	-6280
▁COULD	-6281
▁Mason	-6282
▁UNDER	-6283
▁argue	-6284
▁bored	-6285
▁cells	-6286
▁decis	-6287
▁focus	-6288
▁frequ	-6289
▁older	-6290
▁purch	-6291
▁uncle	-6292
▁valid	-6293
▁visit	-6294
▁Heaven	-6295
▁forgor	-6296
▁hidden	-6297
▁option	-6298
▁poison	-6299
▁talent	-6300
ilarious	-6301
▁Umbreon	-6302
▁anyways	-6303
▁endless	-6304
▁literal	-6305
▁meeting	-6306
▁nervous	-6307
▁painful	-6308
▁results	-6309
▁suicide	-6310
▁typical	-6311
▁followed	-6312
▁rational	-6313
▁released	-6314
▁repeated	-6315
▁required	-6316
▁requires	-6317
▁SLUTTIEST	-6318
▁recognize	-6319
▁tincidunt	-6320
▁technological	-6321
ANANANANANANANAN	-6322
DER	-6323
ETH	-6324
rad	-6325
▁Mo	-6326
▁Ut	-6327
▁pa	-6328
LESS	-6329
atin	-6330
cast	-6331
ente	-6332
iner	-6333
mber	-6334
wood	-6335
▁500	-6336
▁BAN	-6337
▁Bra	-6338
▁DES	-6339
▁Hel	-6340
▁Mag	-6341
▁OTH	-6342
▁Pen	-6343
▁TON	-6344
▁USA	-6345
▁Ult	-6346
▁jog	-6347
▁sag	-6348
▁tho	-6349
andon	-6350
entin	-6351
ouche	-6352
rican	-6353
▁2025	-6354
▁BANG	-6355
▁Cock	-6356
▁Comp	-6357
▁DEEP	-6358
▁EXPL	-6359
▁HECK	-6360
▁Mean	-6361
▁PLAN	-6362
▁RUFF	-6363
▁SING	-6364
▁chop	-6365
▁fauc	-6366
▁glob	-6367
▁sink	-6368
anking	-6369
ometry	-6370
▁House	-6371
▁Women	-6372
▁armor	-6373
▁assum	-6374
▁candy	-6375
▁court	-6376
▁cries	-6377
▁moder	-6378
▁mundo	-6379
▁prior	-6380
▁twink	-6381
ountain	-6382
▁Freddy	-6383
▁Walter	-6384
▁banana	-6385
▁batter	-6386
▁easier	-6387
▁horror	-6388
▁ignore	-6389
▁incest	-6390
▁nation	-6391
▁pieces	-6392
▁posted	-6393
▁review	-6394
▁terror	-6395
▁FRIENDS	-6396
▁NOTHING	-6397
▁bullets	-6398
▁eternal	-6399
▁fishing	-6400
▁greater	-6401
▁hanging	-6402
▁percent	-6403
▁version	-6404
▁although	-6405
▁bringing	-6406
▁demonstr	-6407
▁eternity	-6408
▁function	-6409
▁laughter	-6410
▁location	-6411
▁touching	-6412
▁according	-6413
▁available	-6414
▁confirmed	-6415
▁influence	-6416
▁malesuada	-6417
▁EVERYTHING	-6418
▁LBJALLTHEWAY	-6419
▁consequences	-6420
▁motherfucker	-6421
AAA	-6422
aro	-6423
han	-6424
isp	-6425
mmm	-6426
nal	-6427
ray	-6428
rid	-6429
www	-6430
▁1,	-6431
▁Ce	-6432
▁Ev	-6433
▁OB	-6434
▁UH	-6435
▁fu	-6436
▁iP	-6437
atar	-6438
hend	-6439
nnnn	-6440
rier	-6441
▁400	-6442
▁CEO	-6443
▁Cal	-6444
▁Eve	-6445
▁HAD	-6446
▁HOP	-6447
▁McD	-6448
▁SEC	-6449
▁Sou	-6450
▁WET	-6451
▁YES	-6452
▁dat	-6453
▁fif	-6454
▁gor	-6455
▁hoe	-6456
▁pap	-6457
▁ple	-6458
▁sap	-6459
alous	-6460
ested	-6461
ourse	-6462
while	-6463
▁2024	-6464
▁HAND	-6465
▁LUCK	-6466
▁SUMM	-6467
▁Shit	-6468
▁Show	-6469
▁WORK	-6470
▁arch	-6471
▁deck	-6472
▁jour	-6473
▁karm	-6474
andale	-6475
▁Champ	-6476
▁Phone	-6477
▁Prime	-6478
▁WANNA	-6479
▁WHERE	-6480
▁Water	-6481
▁bones	-6482
▁bound	-6483
▁imper	-6484
▁juice	-6485
▁labor	-6486
▁minim	-6487
▁sandw	-6488
▁steps	-6489
▁Better	-6490
▁Wiggle	-6491
▁corpor	-6492
▁deeply	-6493
▁execut	-6494
▁images	-6495
▁insult	-6496
▁letter	-6497
▁lookin	-6498
▁loudly	-6499
▁photos	-6500
▁stared	-6501
▁thread	-6502
▁volume	-6503
entlemen	-6504
▁Someone	-6505
▁glasses	-6506
▁healthy	-6507
▁keeping	-6508
▁nuclear	-6509
▁utterly	-6510
▁mentally	-6511
▁conditions	-6512
▁determined	-6513
▁uncomfortable	-6514
!!!!!!!!!!!!!!!!	-6515
90	-6516
NO	-6517
St	-6518
jj	-6519
ws	-6520
ANC	-6521
ETS	-6522
ISM	-6523
VEL	-6524
aft	-6525
iku	-6526
onc	-6527
uis	-6528
uns	-6529
▁JU	-6530
▁Uk	-6531
▁du	-6532
▁xD	-6533
anos	-6534
bear	-6535
ebob	-6536
este	-6537
immy	-6538
obic	-6539
rase	-6540
▁DEM	-6541
▁DIE	-6542
▁Jew	-6543
▁Mal	-6544
▁TIM	-6545
▁TWO	-6546
▁WON	-6547
▁Wow	-6548
▁alt	-6549
▁gro	-6550
▁las	-6551
▁pad	-6552
▁pmo	-6553
▁van	-6554
stood	-6555
▁Kore	-6556
▁LESB	-6557
▁Many	-6558
▁None	-6559
▁POST	-6560
▁Part	-6561
▁SURE	-6562
▁Turn	-6563
▁Were	-6564
▁anus	-6565
▁crap	-6566
▁glad	-6567
▁guns	-6568
▁lapt	-6569
▁lone	-6570
▁pros	-6571
▁seek	-6572
▁shel	-6573
▁susc	-6574
▁thus	-6575
▁vast	-6576
OOOOOO	-6577
ashion	-6578
athers	-6579
▁blame	-6580
▁divor	-6581
▁falls	-6582
▁folks	-6583
▁hello	-6584
▁integ	-6585
▁prost	-6586
▁risus	-6587
▁shown	-6588
▁subst	-6589
▁dating	-6590
▁edging	-6591
▁murder	-6592
▁resour	-6593
▁saving	-6594
▁sweaty	-6595
▁vision	-6596
▁Twitter	-6597
▁deliver	-6598
▁failure	-6599
▁funeral	-6600
▁leftism	-6601
▁matters	-6602
▁medical	-6603
▁missile	-6604
▁moaning	-6605
▁Whenever	-6606
▁approach	-6607
▁creature	-6608
▁military	-6609
▁normally	-6610
▁overwhel	-6611
▁stronger	-6612
▁disgusted	-6613
▁favourite	-6614
▁increased	-6615
▁disrespect	-6616
▁interested	-6617
▁scientists	-6618
▁considering	-6619
YYYYYYYYYYYYYYYY	-6620
eeeeeeeeeeeeeeee	-6621
SU	-6622
XX	-6623
wr	-6624
GOL	-6625
axy	-6626
eta	-6627
oob	-6628
yer	-6629
▁32	-6630
▁CC	-6631
▁EV	-6632
▁IR	-6633
▁Mi	-6634
▁sz	-6635
AMAG	-6636
EVER	-6637
HOLE	-6638
OUTH	-6639
UPID	-6640
dzie	-6641
ilia	-6642
zing	-6643
▁420	-6644
▁Cap	-6645
▁Dev	-6646
▁Ent	-6647
▁Jed	-6648
▁Reg	-6649
▁doc	-6650
▁fag	-6651
▁inj	-6652
▁lit	-6653
abled	-6654
inder	-6655
riage	-6656
▁BELL	-6657
▁Brit	-6658
▁CHIN	-6659
▁City	-6660
▁Dest	-6661
▁Face	-6662
▁Hung	-6663
▁Open	-6664
▁SKIN	-6665
▁acqu	-6666
▁dent	-6667
▁elit	-6668
▁gain	-6669
▁lear	-6670
▁lust	-6671
▁nail	-6672
▁peak	-6673
▁sake	-6674
▁wins	-6675
SEXSEX	-6676
vation	-6677
▁BEING	-6678
▁Harry	-6679
▁MOMMY	-6680
▁THANK	-6681
▁admit	-6682
▁drops	-6683
▁false	-6684
▁flash	-6685
▁gente	-6686
▁legit	-6687
▁outta	-6688
▁rocks	-6689
▁sharp	-6690
▁shoes	-6691
▁shred	-6692
▁trail	-6693
▁trend	-6694
▁GOLGOL	-6695
▁GRRRRR	-6696
▁UNIVER	-6697
▁affect	-6698
▁americ	-6699
▁circle	-6700
▁gamers	-6701
▁outfit	-6702
▁porque	-6703
▁resort	-6704
▁severe	-6705
▁theory	-6706
▁unlike	-6707
▁BITCHES	-6708
▁LESBIAN	-6709
▁Pokemon	-6710
▁TONIGHT	-6711
▁Wallave	-6712
▁blowjob	-6713
▁command	-6714
▁earlier	-6715
▁mission	-6716
▁pokemon	-6717
▁recover	-6718
▁remains	-6719
▁Honestly	-6720
▁capacity	-6721
▁charming	-6722
▁faucibus	-6723
▁increase	-6724
▁millions	-6725
▁shooting	-6726
▁standard	-6727
▁advantage	-6728
▁genitalia	-6729
▁terrified	-6730
▁ridiculous	-6731
1!1!1!1!1!1!	-6732
▁embarrassed	-6733
iiiiiiiiiiiiiiii	-6734
,,	-6735
AMA	-6736
ATO	-6737
ICC	-6738
SFW	-6739
UUU	-6740
bow	-6741
▁AP	-6742
▁AY	-6743
▁ER	-6744
▁Ur	-6745
BARK	-6746
ENTS	-6747
IONS	-6748
PING	-6749
ados	-6750
aste	-6751
ksks	-6752
quer	-6753
umin	-6754
with	-6755
▁Bas	-6756
▁FEE	-6757
▁Jer	-6758
▁Obi	-6759
▁Out	-6760
▁Sky	-6761
▁TEN	-6762
▁amb	-6763
icted	-6764
stein	-6765
▁2022	-6766
▁Drag	-6767
▁KILL	-6768
▁Life	-6769
▁NAME	-6770
▁PRES	-6771
▁TURN	-6772
▁cars	-6773
▁cell	-6774
▁fuel	-6775
▁jail	-6776
▁pint	-6777
▁rush	-6778
▁sole	-6779
▁yall	-6780
▁yard	-6781
rating	-6782
unning	-6783
▁CHILL	-6784
▁COCKS	-6785
▁China	-6786
▁Could	-6787
▁Force	-6788
▁SUPER	-6789
▁Seven	-6790
▁THATS	-6791
▁WHORE	-6792
▁bless	-6793
▁devil	-6794
▁felis	-6795
▁gorge	-6796
▁gyatt	-6797
▁judge	-6798
▁purus	-6799
▁teach	-6800
▁topic	-6801
▁waifu	-6802
▁Chiori	-6803
▁Scaram	-6804
▁impost	-6805
▁retard	-6806
▁strike	-6807
▁turpis	-6808
▁typing	-6809
▁heavily	-6810
▁jealous	-6811
▁panties	-6812
▁champion	-6813
▁deserves	-6814
▁emotions	-6815
▁evidence	-6816
▁exercise	-6817
▁hundreds	-6818
▁inferior	-6819
▁opinions	-6820
▁positive	-6821
▁properly	-6822
▁countless	-6823
▁decisions	-6824
▁precision	-6825
▁surprised	-6826
▁Scaramouche	-6827
▁development	-6828
37	-6829
69	-6830
GY	-6831
IX	-6832
UZ	-6833
sa	-6834
ARF	-6835
IED	-6836
ban	-6837
ela	-6838
ena	-6839
ham	-6840
igo	-6841
pro	-6842
reg	-6843
yes	-6844
▁21	-6845
▁AK	-6846
▁Fa	-6847
ASON	-6848
OMET	-6849
etch	-6850
ours	-6851
uted	-6852
▁Cra	-6853
▁DIR	-6854
▁ERE	-6855
▁Got	-6856
▁RUN	-6857
▁San	-6858
▁Sud	-6859
▁Ter	-6860
▁VAL	-6861
▁Yuu	-6862
▁atm	-6863
▁bot	-6864
▁lig	-6865
▁ram	-6866
agram	-6867
aline	-6868
cause	-6869
iance	-6870
isque	-6871
oured	-6872
▁BEAT	-6873
▁CHOO	-6874
▁Cong	-6875
▁DIED	-6876
▁FILL	-6877
▁FIRE	-6878
▁Hans	-6879
▁MEAN	-6880
▁bend	-6881
▁beta	-6882
▁chim	-6883
▁dild	-6884
▁goth	-6885
▁laws	-6886
▁sins	-6887
▁stab	-6888
▁tier	-6889
icient	-6890
orable	-6891
rifice	-6892
▁Crash	-6893
▁JESUS	-6894
▁birds	-6895
▁dread	-6896
▁equip	-6897
▁holds	-6898
▁incom	-6899
▁range	-6900
▁shove	-6901
▁toxic	-6902
▁truck	-6903
▁upset	-6904
▁warri	-6905
▁wings	-6906
lection	-6907
▁Battle	-6908
▁Legion	-6909
▁degree	-6910
▁democr	-6911
▁indeed	-6912
▁liquid	-6913
▁mechan	-6914
▁method	-6915
▁nights	-6916
▁pillow	-6917
▁reform	-6918
▁shadow	-6919
▁shield	-6920
ensively	-6921
ependent	-6922
▁Without	-6923
▁arousal	-6924
▁consent	-6925
▁genetic	-6926
▁improve	-6927
▁private	-6928
▁shocked	-6929
▁McDonald	-6930
▁changing	-6931
▁cheating	-6932
▁economic	-6933
▁electric	-6934
▁learning	-6935
▁precious	-6936
▁randomly	-6937
▁returned	-6938
▁struggle	-6939
!!!!!!!!!!	-6940
▁convinced	-6941
▁countries	-6942
▁graduated	-6943
▁hilarious	-6944
▁ourselves	-6945
▁recommend	-6946
▁strongest	-6947
ultaneously	-6948
▁perfection	-6949
▁Unfortunately	-6950
III	-6951
UNG	-6952
aaa	-6953
onn	-6954
rat	-6955
tub	-6956
▁45	-6957
▁70	-6958
▁GN	-6959
▁Os	-6960
▁SY	-6961
IDAY	-6962
ONEY	-6963
anas	-6964
aren	-6965
bles	-6966
ella	-6967
esse	-6968
evit	-6969
isis	-6970
oppy	-6971
osus	-6972
zyst	-6973
▁HIT	-6974
▁Jan	-6975
▁Kel	-6976
▁Mel	-6977
▁NAS	-6978
▁POT	-6979
▁Pet	-6980
▁REC	-6981
▁SUS	-6982
▁Sir	-6983
▁Sum	-6984
▁Syl	-6985
▁Try	-6986
▁USE	-6987
▁awe	-6988
▁boi	-6989
▁bub	-6990
▁dos	-6991
▁fab	-6992
▁foi	-6993
▁led	-6994
▁nic	-6995
▁obl	-6996
▁obt	-6997
▁saf	-6998
▁twe	-6999
WHORE	-7000
arant	-7001
bling	-7002
fered	-7003
izuki	-7004
leton	-7005
▁Cons	-7006
▁DOOR	-7007
▁Horn	-7008
▁Kill	-7009
▁Milo	-7010
▁Mind	-7011
▁NSFW	-7012
▁Shin	-7013
▁brut	-7014
▁cake	-7015
▁cops	-7016
▁deer	-7017
▁dict	-7018
▁dogs	-7019
▁hott	-7020
▁lect	-7021
▁matt	-7022
▁ohio	-7023
▁slam	-7024
▁slat	-7025
▁smir	-7026
▁stim	-7027
▁todo	-7028
▁trap	-7029
rogate	-7030
tering	-7031
utions	-7032
▁FREAK	-7033
▁Frank	-7034
▁Morty	-7035
▁Splat	-7036
▁Yuuka	-7037
▁bussy	-7038
▁choke	-7039
▁drool	-7040
▁fazer	-7041
▁grave	-7042
▁intim	-7043
▁loose	-7044
▁massa	-7045
▁mouse	-7046
▁naval	-7047
▁reply	-7048
▁silly	-7049
▁spect	-7050
▁teams	-7051
fucking	-7052
ocolate	-7053
osition	-7054
▁Donald	-7055
▁Friday	-7056
▁Israel	-7057
▁SCREAM	-7058
▁Theyre	-7059
▁associ	-7060
▁bright	-7061
▁career	-7062
▁excuse	-7063
▁femboy	-7064
▁laptop	-7065
▁louder	-7066
▁movies	-7067
▁slutty	-7068
▁sports	-7069
renaline	-7070
▁ceiling	-7071
▁species	-7072
▁younger	-7073
▁contract	-7074
▁discover	-7075
▁fortnite	-7076
▁industry	-7077
▁investig	-7078
▁official	-7079
▁reported	-7080
▁champions	-7081
▁committed	-7082
▁condiment	-7083
▁imagining	-7084
▁compatible	-7085
▁contacting	-7086
▁generation	-7087
▁philosophy	-7088
▁organization	-7089
▁specifically	-7090
!,	-7091
27	-7092
46	-7093
55	-7094
?.	-7095
SG	-7096
101	-7097
?!?	-7098
MPH	-7099
ODE	-7100
TUB	-7101
imm	-7102
lev	-7103
odo	-7104
org	-7105
uno	-7106
zia	-7107
▁99	-7108
▁Ay	-7109
▁Na	-7110
▁Po	-7111
▁ao	-7112
COCK	-7113
ITED	-7114
anny	-7115
anye	-7116
eled	-7117
gots	-7118
holy	-7119
inst	-7120
itan	-7121
lder	-7122
look	-7123
mbol	-7124
reek	-7125
▁AUG	-7126
▁BIR	-7127
▁Del	-7128
▁Emp	-7129
▁Ich	-7130
▁Nar	-7131
▁POL	-7132
▁bes	-7133
▁dar	-7134
▁fic	-7135
▁mwi	-7136
▁rib	-7137
▁sym	-7138
▁via	-7139
agger	-7140
denly	-7141
itals	-7142
▁COMP	-7143
▁INST	-7144
▁MADE	-7145
▁MISS	-7146
▁THOT	-7147
▁Wait	-7148
▁disp	-7149
▁forb	-7150
▁goof	-7151
▁mans	-7152
▁pair	-7153
▁rise	-7154
elling	-7155
encies	-7156
ighter	-7157
▁GROWL	-7158
▁Grass	-7159
▁Honey	-7160
▁Human	-7161
▁MESSI	-7162
▁OTHER	-7163
▁Power	-7164
▁Three	-7165
▁anger	-7166
▁chann	-7167
▁cheap	-7168
▁chill	-7169
▁contr	-7170
▁emoji	-7171
▁ideal	-7172
▁karma	-7173
▁limit	-7174
▁occur	-7175
▁patri	-7176
▁porra	-7177
▁scary	-7178
▁sport	-7179
ography	-7180
▁active	-7181
▁adding	-7182
▁cousin	-7183
▁gentle	-7184
▁golden	-7185
▁havent	-7186
▁inevit	-7187
▁leader	-7188
▁propag	-7189
▁repeat	-7190
▁shared	-7191
▁squish	-7192
▁symbol	-7193
▁update	-7194
▁waited	-7195
AMAGAMAG	-7196
peration	-7197
▁abandon	-7198
▁carried	-7199
▁fashion	-7200
▁flowers	-7201
▁include	-7202
▁scanned	-7203
▁screams	-7204
▁swallow	-7205
▁thrusts	-7206
▁website	-7207
▁advanced	-7208
▁basement	-7209
▁identify	-7210
▁previous	-7211
▁apologize	-7212
▁confident	-7213
▁discussion	-7214
▁experiment	-7215
▁expression	-7216
▁responsible	-7217
KR	-7218
GHT	-7219
IGN	-7220
UTS	-7221
bal	-7222
cor	-7223
hot	-7224
yth	-7225
▁6.	-7226
▁PC	-7227
▁bc	-7228
▁hi	-7229
▁lm	-7230
ATES	-7231
IRST	-7232
READ	-7233
RROR	-7234
akar	-7235
arde	-7236
ario	-7237
enas	-7238
ilst	-7239
inch	-7240
list	-7241
uere	-7242
▁BAK	-7243
▁FEM	-7244
▁GUN	-7245
▁KEN	-7246
▁MER	-7247
▁MID	-7248
▁Off	-7249
▁WOH	-7250
▁eby	-7251
▁leo	-7252
▁lub	-7253
▁mol	-7254
▁nos	-7255
▁uwu	-7256
▁vac	-7257
ients	-7258
opper	-7259
orter	-7260
ronii	-7261
stone	-7262
works	-7263
▁Guys	-7264
▁HEAT	-7265
▁HEAV	-7266
▁Love	-7267
▁MILF	-7268
▁Park	-7269
▁SEXY	-7270
▁Team	-7271
▁Very	-7272
▁aqui	-7273
▁dump	-7274
▁edit	-7275
▁erat	-7276
▁grid	-7277
▁grip	-7278
▁mamm	-7279
▁tied	-7280
▁vote	-7281
▁wise	-7282
ifting	-7283
▁01110	-7284
▁Being	-7285
▁FUNNY	-7286
▁Kanye	-7287
▁Night	-7288
▁Other	-7289
▁SEVEN	-7290
▁apply	-7291
▁belie	-7292
▁drugs	-7293
▁elite	-7294
▁fools	-7295
▁habit	-7296
▁helps	-7297
▁leads	-7298
▁overs	-7299
▁plate	-7300
▁relax	-7301
▁shell	-7302
▁treas	-7303
▁usual	-7304
▁Anyone	-7305
▁NAUGHT	-7306
▁Weight	-7307
▁advert	-7308
▁allows	-7309
▁brains	-7310
▁defend	-7311
▁expand	-7312
▁fourth	-7313
▁island	-7314
▁speech	-7315
▁switch	-7316
▁useful	-7317
AHAHAHAH	-7318
▁BROTHER	-7319
▁chuckle	-7320
▁contain	-7321
▁posuere	-7322
▁promise	-7323
▁radiant	-7324
▁singing	-7325
▁station	-7326
▁Massacre	-7327
▁UNIVERSE	-7328
▁gorgeous	-7329
▁delicious	-7330
▁developed	-7331
▁direction	-7332
▁proceeded	-7333
39	-7334
DR	-7335
GO	-7336
MS	-7337
cr	-7338
DEN	-7339
IOT	-7340
MAN	-7341
awk	-7342
ept	-7343
hus	-7344
iac	-7345
och	-7346
oto	-7347
rie	-7348
ril	-7349
▁2,	-7350
▁Ol	-7351
▁Ty	-7352
▁cm	-7353
▁pp	-7354
FORE	-7355
ICAL	-7356
ITCH	-7357
adem	-7358
amos	-7359
ania	-7360
esso	-7361
omed	-7362
real	-7363
veon	-7364
▁199	-7365
▁EGG	-7366
▁Gal	-7367
▁Lou	-7368
▁Mod	-7369
▁Whe	-7370
▁alg	-7371
▁jaw	-7372
▁sab	-7373
▁toy	-7374
▁wid	-7375
BALLS	-7376
orrow	-7377
osion	-7378
power	-7379
sniff	-7380
▁Alex	-7381
▁BOOM	-7382
▁COMM	-7383
▁High	-7384
▁Jack	-7385
▁LIVE	-7386
▁Moon	-7387
▁Sold	-7388
▁bout	-7389
▁exha	-7390
▁goat	-7391
▁nisi	-7392
▁pics	-7393
▁pige	-7394
▁pist	-7395
▁plat	-7396
▁prze	-7397
▁seed	-7398
▁slap	-7399
▁trip	-7400
ternal	-7401
▁AAAAA	-7402
▁GREAT	-7403
▁Grand	-7404
▁Scott	-7405
▁South	-7406
▁Stand	-7407
▁accur	-7408
▁cases	-7409
▁chaos	-7410
▁eaten	-7411
▁fatig	-7412
▁finds	-7413
▁grade	-7414
▁grasp	-7415
▁hyper	-7416
▁lorem	-7417
▁moral	-7418
▁polic	-7419
▁screw	-7420
▁spong	-7421
▁wipes	-7422
!!!!!!!	-7423
ificial	-7424
▁MAKING	-7425
▁absorb	-7426
▁colors	-7427
▁deeper	-7428
▁dentro	-7429
▁events	-7430
▁height	-7431
▁histor	-7432
▁motion	-7433
▁nearby	-7434
▁sapien	-7435
▁scenes	-7436
▁shorts	-7437
▁sucked	-7438
▁toward	-7439
▁values	-7440
▁ashamed	-7441
▁bastard	-7442
▁connect	-7443
▁dancing	-7444
▁evening	-7445
▁figured	-7446
▁instrum	-7447
▁opening	-7448
▁pushing	-7449
▁session	-7450
▁twisted	-7451
▁brothers	-7452
▁interdum	-7453
▁pronouns	-7454
▁romantic	-7455
▁strategy	-7456
▁breathing	-7457
▁brilliant	-7458
▁mentioned	-7459
▁streaming	-7460
▁comprehend	-7461
▁conclusion	-7462
▁extensively	-7463
▁significant	-7464
!!!!!!!!!!11!	-7465
UUUUUUUUUUUUUUUU	-7466
LC	-7467
TE	-7468
dd	-7469
sm	-7470
xy	-7471
AMP	-7472
ICT	-7473
INS	-7474
LDR	-7475
OTH	-7476
YOU	-7477
alt	-7478
azz	-7479
god	-7480
iev	-7481
ims	-7482
urk	-7483
▁Ca	-7484
▁Uw	-7485
▁pi	-7486
▁vc	-7487
IENT	-7488
LLLL	-7489
TERN	-7490
arks	-7491
ayer	-7492
erve	-7493
fare	-7494
itar	-7495
that	-7496
▁Ash	-7497
▁DOM	-7498
▁Dep	-7499
▁ELE	-7500
▁Hen	-7501
▁Hot	-7502
▁Huh	-7503
▁NFT	-7504
▁Pap	-7505
▁Pop	-7506
▁Pri	-7507
▁SIX	-7508
▁hob	-7509
▁lyr	-7510
▁pir	-7511
BIDEN	-7512
aying	-7513
gered	-7514
idade	-7515
jutsu	-7516
onomy	-7517
▁2021	-7518
▁HIST	-7519
▁Hank	-7520
▁Hard	-7521
▁Iron	-7522
▁LICK	-7523
▁MANG	-7524
▁Mond	-7525
▁Phil	-7526
▁SCHL	-7527
▁TLDR	-7528
▁VERY	-7529
▁arcu	-7530
▁bond	-7531
▁casa	-7532
▁enim	-7533
▁exch	-7534
▁orci	-7535
▁plot	-7536
▁skip	-7537
▁slim	-7538
▁spam	-7539
▁tatt	-7540
▁tipo	-7541
ateful	-7542
ifying	-7543
mbling	-7544
minded	-7545
ulated	-7546
▁ALWAY	-7547
▁DICKS	-7548
▁Glory	-7549
▁MEANS	-7550
▁QUEEN	-7551
▁SINCE	-7552
▁WHILE	-7553
▁WHOLE	-7554
▁abyss	-7555
▁beach	-7556
▁chain	-7557
▁cryst	-7558
▁dedic	-7559
▁defin	-7560
▁kinds	-7561
▁paint	-7562
▁photo	-7563
▁quant	-7564
▁sides	-7565
▁souls	-7566
▁tools	-7567
▁Cortex	-7568
▁Friend	-7569
▁Kronii	-7570
▁Nation	-7571
▁Second	-7572
▁afford	-7573
▁belief	-7574
▁depend	-7575
▁famous	-7576
▁forest	-7577
▁fought	-7578
▁gather	-7579
▁ingred	-7580
▁intent	-7581
▁lonely	-7582
▁pocket	-7583
▁recent	-7584
▁ripped	-7585
▁scroll	-7586
▁societ	-7587
▁sticky	-7588
▁suscip	-7589
▁temper	-7590
▁unholy	-7591
▁AMERICA	-7592
▁assault	-7593
▁consume	-7594
▁degener	-7595
▁display	-7596
▁fantasy	-7597
▁grandma	-7598
▁highest	-7599
▁offered	-7600
▁silence	-7601
▁twitter	-7602
▁authorit	-7603
▁darkness	-7604
▁diamonds	-7605
▁drowning	-7606
▁features	-7607
▁handsome	-7608
▁particul	-7609
▁sandwich	-7610
▁violence	-7611
▁Christian	-7612
▁Seriously	-7613
▁consequat	-7614
▁movements	-7615
▁religious	-7616
▁surrogate	-7617
▁teammates	-7618
▁underwear	-7619
▁impregnate	-7620
▁production	-7621
▁protection	-7622
28	-7623
48	-7624
7,	-7625
fr	-7626
vi	-7627
BLE	-7628
ERO	-7629
ago	-7630
coh	-7631
ded	-7632
esc	-7633
iki	-7634
iot	-7635
pir	-7636
pse	-7637
rol	-7638
uig	-7639
woo	-7640
▁UG	-7641
▁wi	-7642
ANTS	-7643
AVOR	-7644
Bron	-7645
INGS	-7646
abor	-7647
avor	-7648
iger	-7649
opia	-7650
osis	-7651
teen	-7652
uary	-7653
▁APP	-7654
▁Alb	-7655
▁FIL	-7656
▁INF	-7657
▁Obv	-7658
▁Pre	-7659
▁RAW	-7660
▁VOT	-7661
▁ath	-7662
▁aug	-7663
▁emo	-7664
▁mac	-7665
▁nar	-7666
▁nib	-7667
▁sen	-7668
▁sis	-7669
▁sna	-7670
▁unw	-7671
aimed	-7672
eline	-7673
eping	-7674
girls	-7675
inter	-7676
otted	-7677
uctor	-7678
uctus	-7679
▁Blow	-7680
▁DARK	-7681
▁Dude	-7682
▁Kier	-7683
▁Rick	-7684
▁TELL	-7685
▁True	-7686
▁Vict	-7687
▁anti	-7688
▁bowl	-7689
▁data	-7690
▁dawg	-7691
▁dogg	-7692
▁fert	-7693
▁hack	-7694
▁jizz	-7695
▁quit	-7696
▁rent	-7697
▁sore	-7698
▁warn	-7699
▁wrap	-7700
▁Allah	-7701
▁James	-7702
▁awake	-7703
▁emerg	-7704
▁smash	-7705
▁squir	-7706
▁study	-7707
▁users	-7708
▁vegan	-7709
▁weren	-7710
ulating	-7711
▁ALWAYS	-7712
▁LeBron	-7713
▁altern	-7714
▁center	-7715
▁ending	-7716
▁engage	-7717
▁ensure	-7718
▁guilty	-7719
▁joined	-7720
▁luctus	-7721
▁mauris	-7722
▁tellus	-7723
▁wszyst	-7724
▁Discord	-7725
▁Minions	-7726
▁NAUGHTY	-7727
▁Project	-7728
▁Respect	-7729
▁Sylveon	-7730
▁careful	-7731
▁destiny	-7732
▁kissing	-7733
▁nipples	-7734
▁rubbing	-7735
▁torment	-7736
▁appeared	-7737
▁arrested	-7738
▁httpswww	-7739
▁mistakes	-7740
▁neighbor	-7741
▁politics	-7742
▁research	-7743
▁somewhat	-7744
▁valorant	-7745
▁primitive	-7746
▁emotionally	-7747
▁embarrassing	-7748
▁simultaneously	-7749
OH	-7750
YE	-7751
ERN	-7752
IDA	-7753
aku	-7754
azi	-7755
ndo	-7756
nic	-7757
nis	-7758
pow	-7759
ups	-7760
urd	-7761
▁HU	-7762
▁ow	-7763
ENTY	-7764
ORES	-7765
ashi	-7766
away	-7767
fits	-7768
ismo	-7769
itiz	-7770
▁Dav	-7771
▁ENT	-7772
▁Ele	-7773
▁Esp	-7774
▁HUM	-7775
▁Has	-7776
▁INV	-7777
▁Mas	-7778
▁Mis	-7779
▁ahh	-7780
▁dap	-7781
▁enh	-7782
▁hij	-7783
▁kat	-7784
▁lip	-7785
OUGHT	-7786
PENIS	-7787
alled	-7788
opher	-7789
ville	-7790
▁Dear	-7791
▁Jedi	-7792
▁LEFT	-7793
▁Mart	-7794
▁Mess	-7795
▁Miss	-7796
▁Year	-7797
▁bean	-7798
▁bent	-7799
▁boat	-7800
▁cure	-7801
▁dial	-7802
▁item	-7803
▁leap	-7804
▁nine	-7805
▁odio	-7806
▁quam	-7807
▁stir	-7808
▁swim	-7809
▁temp	-7810
▁urge	-7811
▁urna	-7812
▁whip	-7813
▁zomb	-7814
▁Bruno	-7815
▁COUNT	-7816
▁DIRTY	-7817
▁DOINB	-7818
▁MORTY	-7819
▁PENIS	-7820
▁POUND	-7821
▁SWEET	-7822
▁chose	-7823
▁costs	-7824
▁email	-7825
▁facil	-7826
▁facts	-7827
▁flick	-7828
▁glory	-7829
▁knock	-7830
▁magna	-7831
▁minds	-7832
▁optim	-7833
▁proof	-7834
▁revol	-7835
▁rifle	-7836
▁shaft	-7837
▁sucks	-7838
▁todos	-7839
itional	-7840
▁Andrew	-7841
▁Angelo	-7842
▁BEFORE	-7843
▁Russia	-7844
▁TURKEY	-7845
▁buried	-7846
▁chains	-7847
▁congue	-7848
▁depths	-7849
▁garden	-7850
▁legacy	-7851
▁muscle	-7852
▁pedoph	-7853
▁plenty	-7854
▁square	-7855
▁stroke	-7856
▁troops	-7857
▁unbear	-7858
▁waking	-7859
▁wasted	-7860
▁HISTORY	-7861
▁STUFFED	-7862
▁Skibidi	-7863
▁aggress	-7864
▁ancient	-7865
▁arrived	-7866
▁blessed	-7867
▁century	-7868
▁daddies	-7869
▁dislike	-7870
▁dressed	-7871
▁effects	-7872
▁entered	-7873
▁kidding	-7874
▁produce	-7875
▁related	-7876
▁treated	-7877
▁welcome	-7878
▁whisper	-7879
▁workers	-7880
▁yelling	-7881
aculation	-7882
▁ANYTHING	-7883
▁balanced	-7884
▁chemical	-7885
▁dominant	-7886
▁enjoying	-7887
▁keyboard	-7888
▁marriage	-7889
▁produced	-7890
▁property	-7891
▁restrict	-7892
▁shoulder	-7893
▁shouldnt	-7894
▁stopping	-7895
▁CHRISTMAS	-7896
▁Paragraph	-7897
▁Something	-7898
▁Therefore	-7899
▁obsession	-7900
▁resources	-7901
▁structure	-7902
▁worthless	-7903
▁authoritah	-7904
▁propaganda	-7905
▁battlefield	-7906
▁engineering	-7907
▁meaningless	-7908
▁disappointed	-7909
DO	-7910
FR	-7911
WE	-7912
ca	-7913
fs	-7914
zt	-7915
ONS	-7916
ORM	-7917
QUE	-7918
Wan	-7919
aba	-7920
aks	-7921
esz	-7922
ila	-7923
▁	-7924
e	-7925
t	-7926
a	-7927
o	-7928
i	-7929
n	-7930
s	-7931
r	-7932
h	-7933
l	-7934
d	-7935
u	-7936
m	-7937
c	-7938
y	-7939
g	-7940
f	-7941
w	-7942
p	-7943
b	-7944
.	-7945
I	-7946
,	-7947
k	-7948
v	-7949
A	-7950
E	-7951
T	-7952
O	-7953
S	-7954
N	-7955
R	-7956
H	-7957
L	-7958
'	-7959
D	-7960
M	-7961
U	-7962
C	-7963
Y	-7964
G	-7965
!	-7966
B	-7967
W	-7968
P	-7969
F	-7970
K	-7971
j	-7972
?	-7973
x	-7974
z	-7975
0	-7976
1	-7977
2	-7978
V	-7979
q	-7980
J	-7981
5	-7982
3	-7983
4	-7984
9	-7985
8	-7986
*	-7987
7	-7988
6	-7989
Z	-7990
X	-7991
Q	-7992
#	-7993
&	-7994
$	-7995
@	-7996
